{
  "version": "1.0",
  "truncation": null,
  "padding": null,
  "added_tokens": [],
  "normalizer": null,
  "pre_tokenizer": {
    "type": "Whitespace"
  },
  "post_processor": null,
  "decoder": null,
  "model": {
    "type": "BPE",
    "dropout": null,
    "unk_token": null,
    "continuing_subword_prefix": null,
    "end_of_word_suffix": null,
    "fuse_unk": false,
    "byte_fallback": false,
    "ignore_merges": false,
    "vocab": {
      "!": 0,
      "\"": 1,
      "#": 2,
      "$": 3,
      "%": 4,
      "&": 5,
      "'": 6,
      "(": 7,
      ")": 8,
      "*": 9,
      "+": 10,
      ",": 11,
      "-": 12,
      ".": 13,
      "/": 14,
      "0": 15,
      "1": 16,
      "2": 17,
      "3": 18,
      "4": 19,
      "5": 20,
      "6": 21,
      "7": 22,
      "8": 23,
      "9": 24,
      ":": 25,
      ";": 26,
      "<": 27,
      "=": 28,
      ">": 29,
      "?": 30,
      "@": 31,
      "A": 32,
      "B": 33,
      "C": 34,
      "D": 35,
      "E": 36,
      "F": 37,
      "G": 38,
      "H": 39,
      "I": 40,
      "J": 41,
      "K": 42,
      "L": 43,
      "M": 44,
      "N": 45,
      "O": 46,
      "P": 47,
      "Q": 48,
      "R": 49,
      "S": 50,
      "T": 51,
      "U": 52,
      "V": 53,
      "W": 54,
      "X": 55,
      "Y": 56,
      "Z": 57,
      "[": 58,
      "\\": 59,
      "]": 60,
      "^": 61,
      "_": 62,
      "`": 63,
      "a": 64,
      "b": 65,
      "c": 66,
      "d": 67,
      "e": 68,
      "f": 69,
      "g": 70,
      "h": 71,
      "i": 72,
      "j": 73,
      "k": 74,
      "l": 75,
      "m": 76,
      "n": 77,
      "o": 78,
      "p": 79,
      "q": 80,
      "r": 81,
      "s": 82,
      "t": 83,
      "u": 84,
      "v": 85,
      "w": 86,
      "x": 87,
      "y": 88,
      "z": 89,
      "{": 90,
      "|": 91,
      "}": 92,
      "~": 93,
      "¡": 94,
      "¢": 95,
      "£": 96,
      "§": 97,
      "©": 98,
      "«": 99,
      "­": 100,
      "®": 101,
      "°": 102,
      "²": 103,
      "´": 104,
      "·": 105,
      "º": 106,
      "»": 107,
      "¼": 108,
      "½": 109,
      "¿": 110,
      "À": 111,
      "Á": 112,
      "Â": 113,
      "Ã": 114,
      "Ä": 115,
      "Æ": 116,
      "Ç": 117,
      "È": 118,
      "É": 119,
      "Í": 120,
      "Î": 121,
      "Ñ": 122,
      "Ò": 123,
      "Ó": 124,
      "Ô": 125,
      "Õ": 126,
      "Ö": 127,
      "Ø": 128,
      "Û": 129,
      "Ü": 130,
      "Þ": 131,
      "ß": 132,
      "à": 133,
      "á": 134,
      "â": 135,
      "ã": 136,
      "ä": 137,
      "å": 138,
      "æ": 139,
      "ç": 140,
      "è": 141,
      "é": 142,
      "ê": 143,
      "ë": 144,
      "ì": 145,
      "í": 146,
      "î": 147,
      "ï": 148,
      "ð": 149,
      "ñ": 150,
      "ò": 151,
      "ó": 152,
      "ô": 153,
      "õ": 154,
      "ö": 155,
      "÷": 156,
      "ø": 157,
      "ù": 158,
      "ú": 159,
      "û": 160,
      "ü": 161,
      "ý": 162,
      "þ": 163,
      "ÿ": 164,
      "Ā": 165,
      "ā": 166,
      "ă": 167,
      "ą": 168,
      "ć": 169,
      "Č": 170,
      "č": 171,
      "Đ": 172,
      "đ": 173,
      "ē": 174,
      "ė": 175,
      "ę": 176,
      "ě": 177,
      "ġ": 178,
      "ĩ": 179,
      "ī": 180,
      "į": 181,
      "ı": 182,
      "ľ": 183,
      "ł": 184,
      "ń": 185,
      "ŋ": 186,
      "Ō": 187,
      "ō": 188,
      "ŏ": 189,
      "œ": 190,
      "Ś": 191,
      "ś": 192,
      "ş": 193,
      "Š": 194,
      "š": 195,
      "ť": 196,
      "ũ": 197,
      "ū": 198,
      "ŭ": 199,
      "ź": 200,
      "Ż": 201,
      "ż": 202,
      "Ž": 203,
      "ž": 204,
      "ơ": 205,
      "ư": 206,
      "ǎ": 207,
      "ǐ": 208,
      "ǔ": 209,
      "Ȟ": 210,
      "ə": 211,
      "ɛ": 212,
      "ʻ": 213,
      "ʼ": 214,
      "ʾ": 215,
      "ʿ": 216,
      "˘": 217,
      "˛": 218,
      "˜": 219,
      "̀": 220,
      "́": 221,
      "̂": 222,
      "̃": 223,
      "̄": 224,
      "̅": 225,
      "̈": 226,
      "̍": 227,
      "̎": 228,
      "̒": 229,
      "̓": 230,
      "̗": 231,
      "̙": 232,
      "̛": 233,
      "̝": 234,
      "̡": 235,
      "̣": 236,
      "̥": 237,
      "̨": 238,
      "̪": 239,
      "̫": 240,
      "̱": 241,
      "̴": 242,
      "̷": 243,
      "̸": 244,
      "̻": 245,
      "̽": 246,
      "̀": 247,
      "̈́": 248,
      "ͅ": 249,
      "͊": 250,
      "͍": 251,
      "͗": 252,
      "͘": 253,
      "͚": 254,
      "͠": 255,
      "Ά": 256,
      "Ή": 257,
      "Ό": 258,
      "ΐ": 259,
      "Α": 260,
      "Γ": 261,
      "Δ": 262,
      "Ε": 263,
      "Η": 264,
      "Ι": 265,
      "Κ": 266,
      "Λ": 267,
      "Μ": 268,
      "Ν": 269,
      "Ο": 270,
      "Π": 271,
      "Σ": 272,
      "Τ": 273,
      "Χ": 274,
      "Ω": 275,
      "ά": 276,
      "έ": 277,
      "ή": 278,
      "ί": 279,
      "α": 280,
      "β": 281,
      "γ": 282,
      "δ": 283,
      "ε": 284,
      "ζ": 285,
      "η": 286,
      "θ": 287,
      "ι": 288,
      "κ": 289,
      "λ": 290,
      "μ": 291,
      "ν": 292,
      "ξ": 293,
      "ο": 294,
      "π": 295,
      "ρ": 296,
      "ς": 297,
      "σ": 298,
      "τ": 299,
      "υ": 300,
      "φ": 301,
      "χ": 302,
      "ψ": 303,
      "ω": 304,
      "ό": 305,
      "ύ": 306,
      "ώ": 307,
      "ϛ": 308,
      "Џ": 309,
      "А": 310,
      "Б": 311,
      "В": 312,
      "Д": 313,
      "Е": 314,
      "З": 315,
      "И": 316,
      "Й": 317,
      "К": 318,
      "Л": 319,
      "М": 320,
      "Н": 321,
      "О": 322,
      "П": 323,
      "Р": 324,
      "С": 325,
      "Т": 326,
      "Ч": 327,
      "Ш": 328,
      "Я": 329,
      "а": 330,
      "б": 331,
      "в": 332,
      "г": 333,
      "д": 334,
      "е": 335,
      "ж": 336,
      "з": 337,
      "и": 338,
      "й": 339,
      "к": 340,
      "л": 341,
      "м": 342,
      "н": 343,
      "о": 344,
      "п": 345,
      "р": 346,
      "с": 347,
      "т": 348,
      "у": 349,
      "ф": 350,
      "х": 351,
      "ц": 352,
      "ч": 353,
      "ш": 354,
      "щ": 355,
      "ы": 356,
      "ь": 357,
      "э": 358,
      "ю": 359,
      "я": 360,
      "ѐ": 361,
      "ё": 362,
      "ѓ": 363,
      "є": 364,
      "і": 365,
      "ї": 366,
      "ј": 367,
      "њ": 368,
      "ќ": 369,
      "ְ": 370,
      "ֲ": 371,
      "ִ": 372,
      "ֶ": 373,
      "ַ": 374,
      "ָ": 375,
      "ֹ": 376,
      "ּ": 377,
      "א": 378,
      "ב": 379,
      "ה": 380,
      "ו": 381,
      "ז": 382,
      "ט": 383,
      "י": 384,
      "כ": 385,
      "ל": 386,
      "ם": 387,
      "מ": 388,
      "ן": 389,
      "נ": 390,
      "ס": 391,
      "ע": 392,
      "ר": 393,
      "ש": 394,
      "ת": 395,
      "،": 396,
      "؟": 397,
      "ء": 398,
      "آ": 399,
      "أ": 400,
      "ؤ": 401,
      "ئ": 402,
      "ا": 403,
      "ب": 404,
      "ة": 405,
      "ت": 406,
      "ث": 407,
      "ج": 408,
      "ح": 409,
      "خ": 410,
      "د": 411,
      "ذ": 412,
      "ر": 413,
      "ز": 414,
      "س": 415,
      "ش": 416,
      "ص": 417,
      "ض": 418,
      "ط": 419,
      "ع": 420,
      "غ": 421,
      "ف": 422,
      "ق": 423,
      "ك": 424,
      "ل": 425,
      "م": 426,
      "ن": 427,
      "ه": 428,
      "و": 429,
      "ى": 430,
      "ي": 431,
      "ً": 432,
      "ٍ": 433,
      "َ": 434,
      "ُ": 435,
      "ِ": 436,
      "ّ": 437,
      "ْ": 438,
      "پ": 439,
      "ک": 440,
      "گ": 441,
      "ھ": 442,
      "ہ": 443,
      "ی": 444,
      "र": 445,
      "स": 446,
      "ರ": 447,
      "ಸ": 448,
      "ა": 449,
      "ბ": 450,
      "გ": 451,
      "დ": 452,
      "ე": 453,
      "ვ": 454,
      "ზ": 455,
      "თ": 456,
      "ი": 457,
      "კ": 458,
      "ლ": 459,
      "მ": 460,
      "ნ": 461,
      "ო": 462,
      "პ": 463,
      "რ": 464,
      "ს": 465,
      "ტ": 466,
      "უ": 467,
      "ფ": 468,
      "ქ": 469,
      "ღ": 470,
      "ყ": 471,
      "შ": 472,
      "ჩ": 473,
      "ც": 474,
      "ძ": 475,
      "წ": 476,
      "ჭ": 477,
      "ხ": 478,
      "ჰ": 479,
      "ሁ": 480,
      "ሆ": 481,
      "ለ": 482,
      "ሉ": 483,
      "ላ": 484,
      "ል": 485,
      "ሎ": 486,
      "ሜ": 487,
      "ሞ": 488,
      "ረ": 489,
      "ራ": 490,
      "ር": 491,
      "ሮ": 492,
      "ሰ": 493,
      "ሳ": 494,
      "ስ": 495,
      "ሻ": 496,
      "ሽ": 497,
      "ቀ": 498,
      "ቅ": 499,
      "ቋ": 500,
      "ብ": 501,
      "ቦ": 502,
      "ቧ": 503,
      "ተ": 504,
      "ቴ": 505,
      "ት": 506,
      "ቸ": 507,
      "ቼ": 508,
      "ች": 509,
      "ነ": 510,
      "ና": 511,
      "ን": 512,
      "ኖ": 513,
      "ኙ": 514,
      "ኛ": 515,
      "ኝ": 516,
      "አ": 517,
      "እ": 518,
      "ከ": 519,
      "ወ": 520,
      "ዋ": 521,
      "ው": 522,
      "ዬ": 523,
      "ይ": 524,
      "ደ": 525,
      "ዴ": 526,
      "ጆ": 527,
      "ጋ": 528,
      "ግ": 529,
      "ጠ": 530,
      "ጣ": 531,
      "ጥ": 532,
      "ጭ": 533,
      "ጸ": 534,
      "ፅ": 535,
      "ፋ": 536,
      "፡": 537,
      "፣": 538,
      "ក": 539,
      "ខ": 540,
      "គ": 541,
      "ង": 542,
      "ញ": 543,
      "ន": 544,
      "ប": 545,
      "ព": 546,
      "រ": 547,
      "ស": 548,
      "អ": 549,
      "ា": 550,
      "ី": 551,
      "ុ": 552,
      "ូ": 553,
      "ំ": 554,
      "ះ": 555,
      "់": 556,
      "្": 557,
      "។": 558,
      "ḍ": 559,
      "Ḥ": 560,
      "ḥ": 561,
      "ṑ": 562,
      "ṡ": 563,
      "Ṣ": 564,
      "ṣ": 565,
      "ạ": 566,
      "ả": 567,
      "ấ": 568,
      "ầ": 569,
      "ẩ": 570,
      "ẫ": 571,
      "ậ": 572,
      "ắ": 573,
      "ằ": 574,
      "ẵ": 575,
      "ặ": 576,
      "ẹ": 577,
      "ẻ": 578,
      "ẽ": 579,
      "ế": 580,
      "ề": 581,
      "ể": 582,
      "ệ": 583,
      "ị": 584,
      "ọ": 585,
      "ỏ": 586,
      "ố": 587,
      "ồ": 588,
      "ổ": 589,
      "ỗ": 590,
      "ộ": 591,
      "ớ": 592,
      "ờ": 593,
      "ở": 594,
      "ỡ": 595,
      "ợ": 596,
      "ụ": 597,
      "ủ": 598,
      "ứ": 599,
      "ừ": 600,
      "ử": 601,
      "ữ": 602,
      "ự": 603,
      "ỵ": 604,
      "ỷ": 605,
      "ἀ": 606,
      "ὲ": 607,
      "ὶ": 608,
      "‐": 609,
      "–": 610,
      "—": 611,
      "―": 612,
      "‘": 613,
      "’": 614,
      "‚": 615,
      "“": 616,
      "”": 617,
      "„": 618,
      "†": 619,
      "•": 620,
      "…": 621,
      "⁠": 622,
      "€": 623,
      "™": 624,
      "⅕": 625,
      "←": 626,
      "→": 627,
      "−": 628,
      "∙": 629,
      "√": 630,
      "∞": 631,
      "≈": 632,
      "≠": 633,
      "⋯": 634,
      "⎯": 635,
      "③": 636,
      "⑤": 637,
      "─": 638,
      "□": 639,
      "▪": 640,
      "▼": 641,
      "◊": 642,
      "●": 643,
      "♥": 644,
      "♭": 645,
      "✔": 646,
      "✧": 647,
      "✶": 648,
      "、": 649,
      "。": 650,
      "々": 651,
      "「": 652,
      "」": 653,
      "あ": 654,
      "い": 655,
      "う": 656,
      "え": 657,
      "お": 658,
      "か": 659,
      "が": 660,
      "き": 661,
      "ぎ": 662,
      "く": 663,
      "ぐ": 664,
      "け": 665,
      "げ": 666,
      "こ": 667,
      "ご": 668,
      "さ": 669,
      "ざ": 670,
      "し": 671,
      "じ": 672,
      "す": 673,
      "ず": 674,
      "そ": 675,
      "た": 676,
      "だ": 677,
      "ち": 678,
      "っ": 679,
      "つ": 680,
      "づ": 681,
      "て": 682,
      "で": 683,
      "と": 684,
      "ど": 685,
      "な": 686,
      "に": 687,
      "ぬ": 688,
      "の": 689,
      "は": 690,
      "ば": 691,
      "ひ": 692,
      "ふ": 693,
      "ぶ": 694,
      "へ": 695,
      "べ": 696,
      "ほ": 697,
      "ぼ": 698,
      "ま": 699,
      "み": 700,
      "め": 701,
      "も": 702,
      "や": 703,
      "ゆ": 704,
      "よ": 705,
      "ら": 706,
      "り": 707,
      "る": 708,
      "れ": 709,
      "ろ": 710,
      "わ": 711,
      "を": 712,
      "ん": 713,
      "タ": 714,
      "一": 715,
      "七": 716,
      "万": 717,
      "三": 718,
      "上": 719,
      "下": 720,
      "不": 721,
      "与": 722,
      "且": 723,
      "世": 724,
      "东": 725,
      "丝": 726,
      "个": 727,
      "中": 728,
      "为": 729,
      "举": 730,
      "么": 731,
      "之": 732,
      "乎": 733,
      "乖": 734,
      "乘": 735,
      "乙": 736,
      "也": 737,
      "乱": 738,
      "亀": 739,
      "亂": 740,
      "了": 741,
      "事": 742,
      "二": 743,
      "于": 744,
      "云": 745,
      "五": 746,
      "井": 747,
      "些": 748,
      "亡": 749,
      "交": 750,
      "亦": 751,
      "亮": 752,
      "亲": 753,
      "人": 754,
      "今": 755,
      "从": 756,
      "他": 757,
      "代": 758,
      "以": 759,
      "休": 760,
      "会": 761,
      "传": 762,
      "伤": 763,
      "似": 764,
      "但": 765,
      "低": 766,
      "住": 767,
      "体": 768,
      "何": 769,
      "余": 770,
      "作": 771,
      "你": 772,
      "來": 773,
      "例": 774,
      "供": 775,
      "依": 776,
      "便": 777,
      "係": 778,
      "促": 779,
      "俱": 780,
      "個": 781,
      "們": 782,
      "倒": 783,
      "値": 784,
      "倦": 785,
      "做": 786,
      "傾": 787,
      "像": 788,
      "兄": 789,
      "光": 790,
      "入": 791,
      "內": 792,
      "全": 793,
      "兩": 794,
      "八": 795,
      "共": 796,
      "其": 797,
      "具": 798,
      "兹": 799,
      "内": 800,
      "再": 801,
      "冲": 802,
      "凄": 803,
      "凝": 804,
      "凶": 805,
      "出": 806,
      "刀": 807,
      "分": 808,
      "切": 809,
      "初": 810,
      "別": 811,
      "别": 812,
      "到": 813,
      "制": 814,
      "刺": 815,
      "則": 816,
      "前": 817,
      "剛": 818,
      "剩": 819,
      "剪": 820,
      "劍": 821,
      "力": 822,
      "劣": 823,
      "动": 824,
      "包": 825,
      "化": 826,
      "北": 827,
      "匣": 828,
      "匹": 829,
      "十": 830,
      "千": 831,
      "升": 832,
      "午": 833,
      "半": 834,
      "华": 835,
      "南": 836,
      "卜": 837,
      "占": 838,
      "卫": 839,
      "印": 840,
      "危": 841,
      "却": 842,
      "卷": 843,
      "卻": 844,
      "历": 845,
      "厌": 846,
      "厚": 847,
      "去": 848,
      "又": 849,
      "及": 850,
      "友": 851,
      "双": 852,
      "取": 853,
      "受": 854,
      "口": 855,
      "古": 856,
      "句": 857,
      "可": 858,
      "吃": 859,
      "合": 860,
      "吉": 861,
      "同": 862,
      "名": 863,
      "后": 864,
      "向": 865,
      "君": 866,
      "吞": 867,
      "吟": 868,
      "否": 869,
      "吹": 870,
      "吻": 871,
      "吾": 872,
      "告": 873,
      "呢": 874,
      "周": 875,
      "味": 876,
      "命": 877,
      "和": 878,
      "咬": 879,
      "員": 880,
      "哭": 881,
      "唱": 882,
      "啦": 883,
      "善": 884,
      "喚": 885,
      "喜": 886,
      "喪": 887,
      "器": 888,
      "噪": 889,
      "四": 890,
      "回": 891,
      "困": 892,
      "围": 893,
      "国": 894,
      "圓": 895,
      "圖": 896,
      "土": 897,
      "圣": 898,
      "在": 899,
      "地": 900,
      "坐": 901,
      "坡": 902,
      "垂": 903,
      "城": 904,
      "執": 905,
      "塊": 906,
      "境": 907,
      "墙": 908,
      "处": 909,
      "复": 910,
      "夏": 911,
      "夕": 912,
      "外": 913,
      "多": 914,
      "夜": 915,
      "够": 916,
      "夢": 917,
      "大": 918,
      "天": 919,
      "太": 920,
      "央": 921,
      "失": 922,
      "奄": 923,
      "契": 924,
      "奚": 925,
      "女": 926,
      "她": 927,
      "好": 928,
      "如": 929,
      "姐": 930,
      "委": 931,
      "姫": 932,
      "威": 933,
      "婪": 934,
      "嫌": 935,
      "嬗": 936,
      "子": 937,
      "孔": 938,
      "存": 939,
      "孤": 940,
      "学": 941,
      "它": 942,
      "宅": 943,
      "守": 944,
      "安": 945,
      "完": 946,
      "定": 947,
      "宜": 948,
      "宝": 949,
      "宮": 950,
      "害": 951,
      "家": 952,
      "容": 953,
      "寂": 954,
      "密": 955,
      "寒": 956,
      "寧": 957,
      "寿": 958,
      "将": 959,
      "尊": 960,
      "小": 961,
      "少": 962,
      "尔": 963,
      "尚": 964,
      "尝": 965,
      "就": 966,
      "尸": 967,
      "尽": 968,
      "屈": 969,
      "届": 970,
      "屑": 971,
      "展": 972,
      "山": 973,
      "岁": 974,
      "岂": 975,
      "岩": 976,
      "岸": 977,
      "峰": 978,
      "川": 979,
      "己": 980,
      "已": 981,
      "巷": 982,
      "布": 983,
      "希": 984,
      "帘": 985,
      "帛": 986,
      "帰": 987,
      "帶": 988,
      "帷": 989,
      "常": 990,
      "幫": 991,
      "平": 992,
      "年": 993,
      "幸": 994,
      "幼": 995,
      "幽": 996,
      "幾": 997,
      "序": 998,
      "应": 999,
      "底": 1000,
      "店": 1001,
      "度": 1002,
      "庭": 1003,
      "异": 1004,
      "式": 1005,
      "弟": 1006,
      "弦": 1007,
      "張": 1008,
      "弹": 1009,
      "彎": 1010,
      "归": 1011,
      "当": 1012,
      "形": 1013,
      "彩": 1014,
      "彭": 1015,
      "影": 1016,
      "彷": 1017,
      "彼": 1018,
      "彿": 1019,
      "往": 1020,
      "征": 1021,
      "很": 1022,
      "後": 1023,
      "得": 1024,
      "從": 1025,
      "復": 1026,
      "循": 1027,
      "心": 1028,
      "必": 1029,
      "志": 1030,
      "忘": 1031,
      "忧": 1032,
      "念": 1033,
      "怀": 1034,
      "怖": 1035,
      "思": 1036,
      "急": 1037,
      "怨": 1038,
      "怪": 1039,
      "恋": 1040,
      "悄": 1041,
      "悅": 1042,
      "患": 1043,
      "悦": 1044,
      "悲": 1045,
      "悴": 1046,
      "悵": 1047,
      "悶": 1048,
      "情": 1049,
      "惆": 1050,
      "惊": 1051,
      "惑": 1052,
      "惜": 1053,
      "惧": 1054,
      "惱": 1055,
      "想": 1056,
      "愁": 1057,
      "愈": 1058,
      "意": 1059,
      "愚": 1060,
      "愛": 1061,
      "感": 1062,
      "愿": 1063,
      "慌": 1064,
      "慣": 1065,
      "憂": 1066,
      "憩": 1067,
      "憶": 1068,
      "憾": 1069,
      "成": 1070,
      "我": 1071,
      "或": 1072,
      "截": 1073,
      "戯": 1074,
      "戲": 1075,
      "戸": 1076,
      "戻": 1077,
      "所": 1078,
      "手": 1079,
      "才": 1080,
      "打": 1081,
      "扔": 1082,
      "托": 1083,
      "扶": 1084,
      "承": 1085,
      "把": 1086,
      "抑": 1087,
      "抓": 1088,
      "抖": 1089,
      "押": 1090,
      "拙": 1091,
      "拥": 1092,
      "拨": 1093,
      "拾": 1094,
      "持": 1095,
      "挂": 1096,
      "指": 1097,
      "挡": 1098,
      "挺": 1099,
      "掀": 1100,
      "掉": 1101,
      "推": 1102,
      "掩": 1103,
      "插": 1104,
      "握": 1105,
      "揭": 1106,
      "摔": 1107,
      "摩": 1108,
      "撐": 1109,
      "撲": 1110,
      "撿": 1111,
      "擦": 1112,
      "攬": 1113,
      "改": 1114,
      "放": 1115,
      "故": 1116,
      "效": 1117,
      "救": 1118,
      "教": 1119,
      "散": 1120,
      "数": 1121,
      "斗": 1122,
      "斜": 1123,
      "断": 1124,
      "斯": 1125,
      "新": 1126,
      "方": 1127,
      "於": 1128,
      "旋": 1129,
      "族": 1130,
      "无": 1131,
      "既": 1132,
      "日": 1133,
      "旦": 1134,
      "早": 1135,
      "时": 1136,
      "昆": 1137,
      "明": 1138,
      "易": 1139,
      "星": 1140,
      "映": 1141,
      "春": 1142,
      "是": 1143,
      "時": 1144,
      "晃": 1145,
      "晚": 1146,
      "晨": 1147,
      "景": 1148,
      "晶": 1149,
      "智": 1150,
      "暂": 1151,
      "暖": 1152,
      "暗": 1153,
      "暮": 1154,
      "曲": 1155,
      "更": 1156,
      "書": 1157,
      "最": 1158,
      "會": 1159,
      "月": 1160,
      "有": 1161,
      "望": 1162,
      "朝": 1163,
      "期": 1164,
      "木": 1165,
      "未": 1166,
      "本": 1167,
      "术": 1168,
      "朱": 1169,
      "村": 1170,
      "来": 1171,
      "杯": 1172,
      "東": 1173,
      "松": 1174,
      "板": 1175,
      "极": 1176,
      "果": 1177,
      "枝": 1178,
      "架": 1179,
      "柔": 1180,
      "查": 1181,
      "柳": 1182,
      "树": 1183,
      "格": 1184,
      "桂": 1185,
      "桃": 1186,
      "桐": 1187,
      "梁": 1188,
      "梦": 1189,
      "梧": 1190,
      "棚": 1191,
      "森": 1192,
      "棵": 1193,
      "椅": 1194,
      "楊": 1195,
      "楚": 1196,
      "極": 1197,
      "楼": 1198,
      "樂": 1199,
      "標": 1200,
      "樹": 1201,
      "樽": 1202,
      "橫": 1203,
      "檢": 1204,
      "次": 1205,
      "欣": 1206,
      "欲": 1207,
      "歌": 1208,
      "止": 1209,
      "正": 1210,
      "此": 1211,
      "歸": 1212,
      "死": 1213,
      "残": 1214,
      "毁": 1215,
      "母": 1216,
      "每": 1217,
      "毒": 1218,
      "比": 1219,
      "毕": 1220,
      "毛": 1221,
      "民": 1222,
      "気": 1223,
      "水": 1224,
      "永": 1225,
      "汝": 1226,
      "江": 1227,
      "污": 1228,
      "沉": 1229,
      "沒": 1230,
      "沙": 1231,
      "没": 1232,
      "河": 1233,
      "泊": 1234,
      "法": 1235,
      "波": 1236,
      "泣": 1237,
      "注": 1238,
      "泪": 1239,
      "泼": 1240,
      "洏": 1241,
      "洒": 1242,
      "洗": 1243,
      "洞": 1244,
      "活": 1245,
      "流": 1246,
      "浓": 1247,
      "浩": 1248,
      "浪": 1249,
      "海": 1250,
      "浸": 1251,
      "消": 1252,
      "润": 1253,
      "液": 1254,
      "淘": 1255,
      "淨": 1256,
      "深": 1257,
      "淼": 1258,
      "清": 1259,
      "温": 1260,
      "游": 1261,
      "渾": 1262,
      "湖": 1263,
      "源": 1264,
      "滅": 1265,
      "滋": 1266,
      "滴": 1267,
      "漂": 1268,
      "漏": 1269,
      "演": 1270,
      "漫": 1271,
      "漾": 1272,
      "潔": 1273,
      "澀": 1274,
      "澜": 1275,
      "激": 1276,
      "濡": 1277,
      "濶": 1278,
      "灌": 1279,
      "火": 1280,
      "灭": 1281,
      "灵": 1282,
      "灶": 1283,
      "灿": 1284,
      "炉": 1285,
      "炊": 1286,
      "炒": 1287,
      "炖": 1288,
      "炮": 1289,
      "炸": 1290,
      "点": 1291,
      "為": 1292,
      "烙": 1293,
      "烟": 1294,
      "烦": 1295,
      "烧": 1296,
      "热": 1297,
      "焉": 1298,
      "無": 1299,
      "焰": 1300,
      "然": 1301,
      "焼": 1302,
      "煙": 1303,
      "照": 1304,
      "燃": 1305,
      "燧": 1306,
      "爱": 1307,
      "爽": 1308,
      "爾": 1309,
      "牛": 1310,
      "物": 1311,
      "犹": 1312,
      "独": 1313,
      "猛": 1314,
      "獨": 1315,
      "玉": 1316,
      "玻": 1317,
      "現": 1318,
      "球": 1319,
      "理": 1320,
      "璃": 1321,
      "環": 1322,
      "甚": 1323,
      "生": 1324,
      "産": 1325,
      "用": 1326,
      "由": 1327,
      "甲": 1328,
      "电": 1329,
      "画": 1330,
      "界": 1331,
      "留": 1332,
      "疑": 1333,
      "痛": 1334,
      "發": 1335,
      "白": 1336,
      "百": 1337,
      "的": 1338,
      "皆": 1339,
      "皇": 1340,
      "皮": 1341,
      "盐": 1342,
      "盡": 1343,
      "目": 1344,
      "直": 1345,
      "相": 1346,
      "看": 1347,
      "眺": 1348,
      "眼": 1349,
      "眾": 1350,
      "着": 1351,
      "瞑": 1352,
      "知": 1353,
      "石": 1354,
      "破": 1355,
      "硬": 1356,
      "碎": 1357,
      "碗": 1358,
      "磬": 1359,
      "祖": 1360,
      "神": 1361,
      "禁": 1362,
      "秀": 1363,
      "私": 1364,
      "秋": 1365,
      "科": 1366,
      "秘": 1367,
      "稠": 1368,
      "積": 1369,
      "空": 1370,
      "穿": 1371,
      "突": 1372,
      "立": 1373,
      "童": 1374,
      "竭": 1375,
      "竹": 1376,
      "笑": 1377,
      "笠": 1378,
      "第": 1379,
      "答": 1380,
      "管": 1381,
      "箱": 1382,
      "節": 1383,
      "篆": 1384,
      "築": 1385,
      "簑": 1386,
      "簧": 1387,
      "籠": 1388,
      "粉": 1389,
      "糊": 1390,
      "糞": 1391,
      "紅": 1392,
      "紫": 1393,
      "細": 1394,
      "紵": 1395,
      "終": 1396,
      "絕": 1397,
      "絨": 1398,
      "絶": 1399,
      "維": 1400,
      "綿": 1401,
      "緑": 1402,
      "線": 1403,
      "縮": 1404,
      "纵": 1405,
      "终": 1406,
      "经": 1407,
      "结": 1408,
      "绝": 1409,
      "统": 1410,
      "绵": 1411,
      "绿": 1412,
      "罐": 1413,
      "罗": 1414,
      "群": 1415,
      "羽": 1416,
      "翁": 1417,
      "翅": 1418,
      "習": 1419,
      "翠": 1420,
      "翻": 1421,
      "老": 1422,
      "而": 1423,
      "聖": 1424,
      "聞": 1425,
      "聲": 1426,
      "肌": 1427,
      "股": 1428,
      "肯": 1429,
      "背": 1430,
      "胡": 1431,
      "胭": 1432,
      "胸": 1433,
      "能": 1434,
      "脂": 1435,
      "脖": 1436,
      "脚": 1437,
      "脣": 1438,
      "脫": 1439,
      "腕": 1440,
      "腥": 1441,
      "腰": 1442,
      "腾": 1443,
      "膀": 1444,
      "膛": 1445,
      "膝": 1446,
      "臂": 1447,
      "臉": 1448,
      "臊": 1449,
      "臓": 1450,
      "臚": 1451,
      "自": 1452,
      "至": 1453,
      "與": 1454,
      "舌": 1455,
      "舟": 1456,
      "般": 1457,
      "艱": 1458,
      "色": 1459,
      "花": 1460,
      "芳": 1461,
      "芽": 1462,
      "苟": 1463,
      "若": 1464,
      "苦": 1465,
      "茸": 1466,
      "草": 1467,
      "荡": 1468,
      "荣": 1469,
      "荫": 1470,
      "药": 1471,
      "莫": 1472,
      "菊": 1473,
      "营": 1474,
      "萬": 1475,
      "落": 1476,
      "葉": 1477,
      "著": 1478,
      "葛": 1479,
      "蒼": 1480,
      "蓋": 1481,
      "蓝": 1482,
      "蓮": 1483,
      "蕩": 1484,
      "薮": 1485,
      "虑": 1486,
      "虛": 1487,
      "虽": 1488,
      "蟲": 1489,
      "行": 1490,
      "衛": 1491,
      "衣": 1492,
      "表": 1493,
      "被": 1494,
      "袱": 1495,
      "裂": 1496,
      "裏": 1497,
      "裙": 1498,
      "裾": 1499,
      "襟": 1500,
      "西": 1501,
      "要": 1502,
      "見": 1503,
      "規": 1504,
      "視": 1505,
      "親": 1506,
      "覺": 1507,
      "覽": 1508,
      "见": 1509,
      "觉": 1510,
      "角": 1511,
      "触": 1512,
      "觴": 1513,
      "言": 1514,
      "記": 1515,
      "許": 1516,
      "試": 1517,
      "詩": 1518,
      "話": 1519,
      "誉": 1520,
      "誌": 1521,
      "認": 1522,
      "誘": 1523,
      "読": 1524,
      "誰": 1525,
      "變": 1526,
      "让": 1527,
      "记": 1528,
      "讵": 1529,
      "讶": 1530,
      "识": 1531,
      "诉": 1532,
      "诗": 1533,
      "诚": 1534,
      "语": 1535,
      "谁": 1536,
      "谓": 1537,
      "谷": 1538,
      "販": 1539,
      "贤": 1540,
      "质": 1541,
      "贪": 1542,
      "贱": 1543,
      "贵": 1544,
      "赠": 1545,
      "赤": 1546,
      "走": 1547,
      "起": 1548,
      "越": 1549,
      "趕": 1550,
      "趨": 1551,
      "足": 1552,
      "跪": 1553,
      "路": 1554,
      "踪": 1555,
      "蹤": 1556,
      "身": 1557,
      "車": 1558,
      "軟": 1559,
      "載": 1560,
      "輕": 1561,
      "轉": 1562,
      "辛": 1563,
      "辞": 1564,
      "辨": 1565,
      "辺": 1566,
      "达": 1567,
      "过": 1568,
      "运": 1569,
      "近": 1570,
      "这": 1571,
      "进": 1572,
      "远": 1573,
      "迥": 1574,
      "迹": 1575,
      "追": 1576,
      "送": 1577,
      "适": 1578,
      "逐": 1579,
      "逕": 1580,
      "這": 1581,
      "速": 1582,
      "連": 1583,
      "進": 1584,
      "遇": 1585,
      "遊": 1586,
      "過": 1587,
      "道": 1588,
      "達": 1589,
      "遗": 1590,
      "遠": 1591,
      "還": 1592,
      "邈": 1593,
      "那": 1594,
      "部": 1595,
      "都": 1596,
      "鄉": 1597,
      "酒": 1598,
      "酸": 1599,
      "醇": 1600,
      "醉": 1601,
      "醒": 1602,
      "释": 1603,
      "里": 1604,
      "重": 1605,
      "金": 1606,
      "釣": 1607,
      "鉢": 1608,
      "鍾": 1609,
      "鏡": 1610,
      "鑽": 1611,
      "鑿": 1612,
      "针": 1613,
      "钗": 1614,
      "钧": 1615,
      "镜": 1616,
      "長": 1617,
      "长": 1618,
      "門": 1619,
      "開": 1620,
      "間": 1621,
      "關": 1622,
      "阵": 1623,
      "附": 1624,
      "陈": 1625,
      "隐": 1626,
      "隠": 1627,
      "隨": 1628,
      "隻": 1629,
      "难": 1630,
      "雀": 1631,
      "雖": 1632,
      "雙": 1633,
      "雛": 1634,
      "雞": 1635,
      "難": 1636,
      "雨": 1637,
      "雪": 1638,
      "雲": 1639,
      "雾": 1640,
      "霜": 1641,
      "露": 1642,
      "霸": 1643,
      "青": 1644,
      "静": 1645,
      "非": 1646,
      "靡": 1647,
      "面": 1648,
      "韩": 1649,
      "音": 1650,
      "響": 1651,
      "頁": 1652,
      "頂": 1653,
      "預": 1654,
      "頭": 1655,
      "頸": 1656,
      "顆": 1657,
      "顏": 1658,
      "顔": 1659,
      "願": 1660,
      "顛": 1661,
      "類": 1662,
      "页": 1663,
      "须": 1664,
      "预": 1665,
      "風": 1666,
      "风": 1667,
      "飘": 1668,
      "飛": 1669,
      "飞": 1670,
      "食": 1671,
      "飯": 1672,
      "首": 1673,
      "香": 1674,
      "馬": 1675,
      "驚": 1676,
      "马": 1677,
      "骨": 1678,
      "骯": 1679,
      "髒": 1680,
      "體": 1681,
      "高": 1682,
      "髮": 1683,
      "鬢": 1684,
      "魚": 1685,
      "鳥": 1686,
      "鳴": 1687,
      "鴛": 1688,
      "鴦": 1689,
      "鴨": 1690,
      "鴻": 1691,
      "鸟": 1692,
      "鸿": 1693,
      "麼": 1694,
      "黎": 1695,
      "黑": 1696,
      "默": 1697,
      "點": 1698,
      "黯": 1699,
      "鼻": 1700,
      "齢": 1701,
      "龄": 1702,
      "龍": 1703,
      "龙": 1704,
      "가": 1705,
      "각": 1706,
      "간": 1707,
      "갈": 1708,
      "감": 1709,
      "갔": 1710,
      "같": 1711,
      "개": 1712,
      "걀": 1713,
      "거": 1714,
      "걸": 1715,
      "것": 1716,
      "게": 1717,
      "겨": 1718,
      "격": 1719,
      "경": 1720,
      "계": 1721,
      "고": 1722,
      "곳": 1723,
      "공": 1724,
      "교": 1725,
      "구": 1726,
      "군": 1727,
      "굳": 1728,
      "굴": 1729,
      "굽": 1730,
      "궁": 1731,
      "그": 1732,
      "금": 1733,
      "기": 1734,
      "긴": 1735,
      "길": 1736,
      "깃": 1737,
      "깊": 1738,
      "까": 1739,
      "깔": 1740,
      "깨": 1741,
      "껏": 1742,
      "꼬": 1743,
      "꾸": 1744,
      "꿈": 1745,
      "뀌": 1746,
      "뀐": 1747,
      "끝": 1748,
      "끼": 1749,
      "나": 1750,
      "낙": 1751,
      "난": 1752,
      "날": 1753,
      "남": 1754,
      "내": 1755,
      "너": 1756,
      "넣": 1757,
      "네": 1758,
      "녀": 1759,
      "녘": 1760,
      "눈": 1761,
      "는": 1762,
      "늘": 1763,
      "님": 1764,
      "다": 1765,
      "닥": 1766,
      "달": 1767,
      "대": 1768,
      "더": 1769,
      "던": 1770,
      "덜": 1771,
      "덤": 1772,
      "데": 1773,
      "도": 1774,
      "돌": 1775,
      "동": 1776,
      "되": 1777,
      "된": 1778,
      "두": 1779,
      "둥": 1780,
      "뒤": 1781,
      "드": 1782,
      "득": 1783,
      "들": 1784,
      "등": 1785,
      "따": 1786,
      "딸": 1787,
      "때": 1788,
      "떤": 1789,
      "떨": 1790,
      "떴": 1791,
      "뚝": 1792,
      "뚱": 1793,
      "뛰": 1794,
      "뜨": 1795,
      "라": 1796,
      "란": 1797,
      "람": 1798,
      "랐": 1799,
      "랑": 1800,
      "래": 1801,
      "러": 1802,
      "럭": 1803,
      "럼": 1804,
      "레": 1805,
      "려": 1806,
      "렸": 1807,
      "로": 1808,
      "록": 1809,
      "루": 1810,
      "르": 1811,
      "를": 1812,
      "름": 1813,
      "릅": 1814,
      "릎": 1815,
      "리": 1816,
      "린": 1817,
      "릴": 1818,
      "마": 1819,
      "막": 1820,
      "만": 1821,
      "많": 1822,
      "말": 1823,
      "망": 1824,
      "맞": 1825,
      "매": 1826,
      "맥": 1827,
      "먹": 1828,
      "며": 1829,
      "면": 1830,
      "모": 1831,
      "몸": 1832,
      "무": 1833,
      "문": 1834,
      "물": 1835,
      "므": 1836,
      "민": 1837,
      "밀": 1838,
      "밑": 1839,
      "바": 1840,
      "박": 1841,
      "밖": 1842,
      "발": 1843,
      "밟": 1844,
      "밤": 1845,
      "방": 1846,
      "백": 1847,
      "버": 1848,
      "벅": 1849,
      "번": 1850,
      "벌": 1851,
      "베": 1852,
      "벨": 1853,
      "변": 1854,
      "별": 1855,
      "보": 1856,
      "본": 1857,
      "봄": 1858,
      "부": 1859,
      "불": 1860,
      "붉": 1861,
      "붕": 1862,
      "붙": 1863,
      "비": 1864,
      "빛": 1865,
      "빠": 1866,
      "빨": 1867,
      "뼈": 1868,
      "사": 1869,
      "살": 1870,
      "상": 1871,
      "새": 1872,
      "생": 1873,
      "서": 1874,
      "선": 1875,
      "세": 1876,
      "소": 1877,
      "속": 1878,
      "손": 1879,
      "솜": 1880,
      "수": 1881,
      "술": 1882,
      "숫": 1883,
      "스": 1884,
      "슬": 1885,
      "승": 1886,
      "시": 1887,
      "싶": 1888,
      "싹": 1889,
      "썩": 1890,
      "썼": 1891,
      "씩": 1892,
      "아": 1893,
      "악": 1894,
      "안": 1895,
      "않": 1896,
      "알": 1897,
      "았": 1898,
      "앞": 1899,
      "야": 1900,
      "양": 1901,
      "어": 1902,
      "얼": 1903,
      "었": 1904,
      "엎": 1905,
      "에": 1906,
      "여": 1907,
      "연": 1908,
      "열": 1909,
      "오": 1910,
      "온": 1911,
      "올": 1912,
      "왜": 1913,
      "왼": 1914,
      "요": 1915,
      "우": 1916,
      "운": 1917,
      "울": 1918,
      "원": 1919,
      "위": 1920,
      "으": 1921,
      "은": 1922,
      "을": 1923,
      "음": 1924,
      "의": 1925,
      "이": 1926,
      "인": 1927,
      "일": 1928,
      "입": 1929,
      "있": 1930,
      "자": 1931,
      "작": 1932,
      "잠": 1933,
      "잡": 1934,
      "장": 1935,
      "재": 1936,
      "저": 1937,
      "제": 1938,
      "져": 1939,
      "조": 1940,
      "존": 1941,
      "좋": 1942,
      "좌": 1943,
      "주": 1944,
      "죽": 1945,
      "줄": 1946,
      "줍": 1947,
      "쥐": 1948,
      "증": 1949,
      "지": 1950,
      "진": 1951,
      "질": 1952,
      "집": 1953,
      "찬": 1954,
      "찰": 1955,
      "창": 1956,
      "처": 1957,
      "천": 1958,
      "철": 1959,
      "쳐": 1960,
      "촉": 1961,
      "춤": 1962,
      "춰": 1963,
      "친": 1964,
      "침": 1965,
      "커": 1966,
      "켜": 1967,
      "타": 1968,
      "터": 1969,
      "털": 1970,
      "통": 1971,
      "트": 1972,
      "틀": 1973,
      "팔": 1974,
      "폈": 1975,
      "품": 1976,
      "프": 1977,
      "픔": 1978,
      "피": 1979,
      "하": 1980,
      "학": 1981,
      "한": 1982,
      "할": 1983,
      "해": 1984,
      "했": 1985,
      "행": 1986,
      "향": 1987,
      "허": 1988,
      "혓": 1989,
      "혔": 1990,
      "호": 1991,
      "흐": 1992,
      "흘": 1993,
      "흰": 1994,
      "히": 1995,
      "힘": 1996,
      "ﬁ": 1997,
      "ﬂ": 1998,
      "﻿": 1999,
      "！": 2000,
      "（": 2001,
      "）": 2002,
      "，": 2003,
      "；": 2004,
      "？": 2005,
      "￼": 2006,
      "th": 2007,
      "in": 2008,
      "the": 2009,
      "an": 2010,
      "er": 2011,
      "ou": 2012,
      "re": 2013,
      "on": 2014,
      "ing": 2015,
      "en": 2016,
      "st": 2017,
      "at": 2018,
      "ed": 2019,
      "es": 2020,
      "or": 2021,
      "ar": 2022,
      "and": 2023,
      "to": 2024,
      "is": 2025,
      "of": 2026,
      "ll": 2027,
      "it": 2028,
      "he": 2029,
      "as": 2030,
      "ow": 2031,
      "le": 2032,
      "me": 2033,
      "se": 2034,
      "li": 2035,
      "ch": 2036,
      "gh": 2037,
      "ro": 2038,
      "wh": 2039,
      "be": 2040,
      "ve": 2041,
      "you": 2042,
      "al": 2043,
      "ay": 2044,
      "ad": 2045,
      "wi": 2046,
      "ld": 2047,
      "nd": 2048,
      "ac": 2049,
      "ir": 2050,
      "lo": 2051,
      "ri": 2052,
      "ke": 2053,
      "no": 2054,
      "all": 2055,
      "ght": 2056,
      "de": 2057,
      "ver": 2058,
      "my": 2059,
      "we": 2060,
      "ut": 2061,
      "sh": 2062,
      "un": 2063,
      "for": 2064,
      "The": 2065,
      "ce": 2066,
      "ti": 2067,
      "that": 2068,
      "with": 2069,
      "am": 2070,
      "ere": 2071,
      "so": 2072,
      "ly": 2073,
      "co": 2074,
      "ur": 2075,
      "mo": 2076,
      "et": 2077,
      "si": 2078,
      "ra": 2079,
      "one": 2080,
      "ent": 2081,
      "ne": 2082,
      "od": 2083,
      "are": 2084,
      "And": 2085,
      "ther": 2086,
      "ag": 2087,
      "ha": 2088,
      "id": 2089,
      "fe": 2090,
      "rom": 2091,
      "ter": 2092,
      "not": 2093,
      "sp": 2094,
      "out": 2095,
      "was": 2096,
      "our": 2097,
      "his": 2098,
      "ck": 2099,
      "ain": 2100,
      "ho": 2101,
      "her": 2102,
      "ab": 2103,
      "ind": 2104,
      "now": 2105,
      "ess": 2106,
      "from": 2107,
      "us": 2108,
      "hi": 2109,
      "ong": 2110,
      "do": 2111,
      "like": 2112,
      "bl": 2113,
      "up": 2114,
      "um": 2115,
      "ap": 2116,
      "Th": 2117,
      "ould": 2118,
      "il": 2119,
      "your": 2120,
      "go": 2121,
      "ack": 2122,
      "ast": 2123,
      "po": 2124,
      "own": 2125,
      "te": 2126,
      "ant": 2127,
      "ers": 2128,
      "thing": 2129,
      "ill": 2130,
      "fo": 2131,
      "pl": 2132,
      "ight": 2133,
      "wor": 2134,
      "ic": 2135,
      "rou": 2136,
      "ak": 2137,
      "ard": 2138,
      "this": 2139,
      "way": 2140,
      "ion": 2141,
      "om": 2142,
      "if": 2143,
      "ust": 2144,
      "pe": 2145,
      "by": 2146,
      "Wh": 2147,
      "ge": 2148,
      "ue": 2149,
      "art": 2150,
      "end": 2151,
      "ep": 2152,
      "but": 2153,
      "ul": 2154,
      "sa": 2155,
      "they": 2156,
      "bo": 2157,
      "tr": 2158,
      "have": 2159,
      "can": 2160,
      "their": 2161,
      "who": 2162,
      "its": 2163,
      "ace": 2164,
      "ok": 2165,
      "fl": 2166,
      "ear": 2167,
      "she": 2168,
      "ine": 2169,
      "di": 2170,
      "ure": 2171,
      "op": 2172,
      "au": 2173,
      "em": 2174,
      "con": 2175,
      "gr": 2176,
      "el": 2177,
      "what": 2178,
      "man": 2179,
      "ves": 2180,
      "light": 2181,
      "ven": 2182,
      "some": 2183,
      "ever": 2184,
      "ach": 2185,
      "ts": 2186,
      "there": 2187,
      "ate": 2188,
      "day": 2189,
      "will": 2190,
      "into": 2191,
      "ound": 2192,
      "ake": 2193,
      "ss": 2194,
      "when": 2195,
      "know": 2196,
      "im": 2197,
      "ous": 2198,
      "fi": 2199,
      "ath": 2200,
      "In": 2201,
      "sel": 2202,
      "qu": 2203,
      "sc": 2204,
      "where": 2205,
      "ink": 2206,
      "urn": 2207,
      "ite": 2208,
      "whi": 2209,
      "com": 2210,
      "them": 2211,
      "ark": 2212,
      "ass": 2213,
      "su": 2214,
      "ey": 2215,
      "red": 2216,
      "cl": 2217,
      "ame": 2218,
      "other": 2219,
      "thou": 2220,
      "wo": 2221,
      "ex": 2222,
      "ish": 2223,
      "love": 2224,
      "af": 2225,
      "bre": 2226,
      "say": 2227,
      "ang": 2228,
      "rough": 2229,
      "ru": 2230,
      "wat": 2231,
      "fore": 2232,
      "But": 2233,
      "und": 2234,
      "ation": 2235,
      "hand": 2236,
      "night": 2237,
      "ry": 2238,
      "per": 2239,
      "gre": 2240,
      "were": 2241,
      "orn": 2242,
      "him": 2243,
      "sk": 2244,
      "down": 2245,
      "It": 2246,
      "tre": 2247,
      "ct": 2248,
      "To": 2249,
      "how": 2250,
      "ol": 2251,
      "back": 2252,
      "over": 2253,
      "air": 2254,
      "see": 2255,
      "We": 2256,
      "long": 2257,
      "had": 2258,
      "He": 2259,
      "self": 2260,
      "ds": 2261,
      "ot": 2262,
      "ies": 2263,
      "pre": 2264,
      "age": 2265,
      "through": 2266,
      "br": 2267,
      "time": 2268,
      "itt": 2269,
      "ving": 2270,
      "pp": 2271,
      "wind": 2272,
      "ble": 2273,
      "bod": 2274,
      "gl": 2275,
      "ps": 2276,
      "would": 2277,
      "ity": 2278,
      "then": 2279,
      "more": 2280,
      "You": 2281,
      "again": 2282,
      "ull": 2283,
      "ber": 2284,
      "ade": 2285,
      "ars": 2286,
      "ft": 2287,
      "less": 2288,
      "arm": 2289,
      "ence": 2290,
      "every": 2291,
      "dre": 2292,
      "oun": 2293,
      "could": 2294,
      "So": 2295,
      "des": 2296,
      "ved": 2297,
      "ness": 2298,
      "side": 2299,
      "come": 2300,
      "alk": 2301,
      "aw": 2302,
      "ild": 2303,
      "mu": 2304,
      "sl": 2305,
      "ings": 2306,
      "sun": 2307,
      "tion": 2308,
      "look": 2309,
      "still": 2310,
      "turn": 2311,
      "ment": 2312,
      "vi": 2313,
      "rain": 2314,
      "heart": 2315,
      "ows": 2316,
      "ather": 2317,
      "which": 2318,
      "gi": 2319,
      "has": 2320,
      "pt": 2321,
      "wa": 2322,
      "old": 2323,
      "life": 2324,
      "body": 2325,
      "new": 2326,
      "ise": 2327,
      "pro": 2328,
      "never": 2329,
      "here": 2330,
      "ance": 2331,
      "did": 2332,
      "cr": 2333,
      "want": 2334,
      "ple": 2335,
      "blo": 2336,
      "under": 2337,
      "mer": 2338,
      "My": 2339,
      "That": 2340,
      "When": 2341,
      "ith": 2342,
      "clo": 2343,
      "let": 2344,
      "dark": 2345,
      "too": 2346,
      "der": 2347,
      "pr": 2348,
      "head": 2349,
      "read": 2350,
      "bu": 2351,
      "Of": 2352,
      "For": 2353,
      "sing": 2354,
      "only": 2355,
      "ig": 2356,
      "call": 2357,
      "any": 2358,
      "stre": 2359,
      "right": 2360,
      "off": 2361,
      "str": 2362,
      "eyes": 2363,
      "spe": 2364,
      "ory": 2365,
      "than": 2366,
      "cau": 2367,
      "ose": 2368,
      "world": 2369,
      "What": 2370,
      "able": 2371,
      "ittle": 2372,
      "sm": 2373,
      "said": 2374,
      "mother": 2375,
      "cre": 2376,
      "about": 2377,
      "swe": 2378,
      "ave": 2379,
      "just": 2380,
      "mem": 2381,
      "get": 2382,
      "pi": 2383,
      "each": 2384,
      "dis": 2385,
      "after": 2386,
      "year": 2387,
      "water": 2388,
      "even": 2389,
      "sil": 2390,
      "ans": 2391,
      "child": 2392,
      "think": 2393,
      "led": 2394,
      "white": 2395,
      "They": 2396,
      "les": 2397,
      "ting": 2398,
      "ist": 2399,
      "car": 2400,
      "men": 2401,
      "ice": 2402,
      "before": 2403,
      "bir": 2404,
      "ove": 2405,
      "face": 2406,
      "little": 2407,
      "black": 2408,
      "ree": 2409,
      "wom": 2410,
      "vo": 2411,
      "ward": 2412,
      "..": 2413,
      "Be": 2414,
      "She": 2415,
      "tain": 2416,
      "away": 2417,
      "irst": 2418,
      "No": 2419,
      "bet": 2420,
      "ci": 2421,
      "bed": 2422,
      "With": 2423,
      "cause": 2424,
      "ted": 2425,
      "ren": 2426,
      "land": 2427,
      "cle": 2428,
      "ful": 2429,
      "sle": 2430,
      "dream": 2431,
      "ash": 2432,
      "bro": 2433,
      "che": 2434,
      "don": 2435,
      "ten": 2436,
      "que": 2437,
      "been": 2438,
      "ty": 2439,
      "aut": 2440,
      "ste": 2441,
      "stand": 2442,
      "ors": 2443,
      "ways": 2444,
      "round": 2445,
      "ross": 2446,
      "ange": 2447,
      "ated": 2448,
      "jo": 2449,
      "There": 2450,
      "ons": 2451,
      "walk": 2452,
      "flow": 2453,
      "fall": 2454,
      "made": 2455,
      "ick": 2456,
      "sky": 2457,
      "ze": 2458,
      "make": 2459,
      "ough": 2460,
      "On": 2461,
      "thought": 2462,
      "ph": 2463,
      "tell": 2464,
      "den": 2465,
      "dead": 2466,
      "ling": 2467,
      "lie": 2468,
      "As": 2469,
      "wr": 2470,
      "may": 2471,
      "ail": 2472,
      "dr": 2473,
      "open": 2474,
      "ally": 2475,
      "ls": 2476,
      "ort": 2477,
      "sou": 2478,
      "feel": 2479,
      "thy": 2480,
      "row": 2481,
      "first": 2482,
      "ask": 2483,
      "last": 2484,
      "cho": 2485,
      "ouse": 2486,
      "Li": 2487,
      "mes": 2488,
      "ary": 2489,
      "room": 2490,
      "ched": 2491,
      "hands": 2492,
      "hold": 2493,
      "good": 2494,
      "la": 2495,
      "aking": 2496,
      "iss": 2497,
      "those": 2498,
      "should": 2499,
      "mon": 2500,
      "earth": 2501,
      "must": 2502,
      "fri": 2503,
      "sea": 2504,
      "fer": 2505,
      "This": 2506,
      "eld": 2507,
      "atter": 2508,
      "home": 2509,
      "two": 2510,
      "ase": 2511,
      "pass": 2512,
      "est": 2513,
      "work": 2514,
      "llow": 2515,
      "ning": 2516,
      "try": 2517,
      "nothing": 2518,
      "things": 2519,
      "akes": 2520,
      "these": 2521,
      "ones": 2522,
      "most": 2523,
      "tri": 2524,
      "cur": 2525,
      "sur": 2526,
      "sleep": 2527,
      "How": 2528,
      "father": 2529,
      "Or": 2530,
      "live": 2531,
      "blue": 2532,
      "once": 2533,
      "flo": 2534,
      "came": 2535,
      "left": 2536,
      "while": 2537,
      "fire": 2538,
      "ms": 2539,
      "well": 2540,
      "mar": 2541,
      "pain": 2542,
      "house": 2543,
      "though": 2544,
      "list": 2545,
      "very": 2546,
      "ank": 2547,
      "ore": 2548,
      "ene": 2549,
      "hear": 2550,
      "gra": 2551,
      "place": 2552,
      "many": 2553,
      "coun": 2554,
      "outh": 2555,
      "If": 2556,
      "God": 2557,
      "moon": 2558,
      "sound": 2559,
      "gs": 2560,
      "par": 2561,
      "won": 2562,
      "shall": 2563,
      "another": 2564,
      "ens": 2565,
      "inter": 2566,
      "ins": 2567,
      "ween": 2568,
      "part": 2569,
      "Some": 2570,
      "gu": 2571,
      "wall": 2572,
      "blood": 2573,
      "need": 2574,
      "Who": 2575,
      "tra": 2576,
      "mind": 2577,
      "ring": 2578,
      "name": 2579,
      "around": 2580,
      "rest": 2581,
      "ped": 2582,
      "ople": 2583,
      "song": 2584,
      "beg": 2585,
      "ng": 2586,
      "lea": 2587,
      "beaut": 2588,
      "sion": 2589,
      "keep": 2590,
      "int": 2591,
      "act": 2592,
      "death": 2593,
      "dri": 2594,
      "find": 2595,
      "ni": 2596,
      "yet": 2597,
      "might": 2598,
      "years": 2599,
      "low": 2600,
      "ud": 2601,
      "upon": 2602,
      "ide": 2603,
      "happ": 2604,
      "An": 2605,
      "ches": 2606,
      "much": 2607,
      "without": 2608,
      "os": 2609,
      "av": 2610,
      "shad": 2611,
      "All": 2612,
      "lim": 2613,
      "green": 2614,
      "sweet": 2615,
      "something": 2616,
      "ale": 2617,
      "raw": 2618,
      "because": 2619,
      "times": 2620,
      "boy": 2621,
      "pri": 2622,
      "take": 2623,
      "woman": 2624,
      "member": 2625,
      "mouth": 2626,
      "hum": 2627,
      "full": 2628,
      "ating": 2629,
      "lls": 2630,
      "does": 2631,
      "between": 2632,
      "morn": 2633,
      "nor": 2634,
      "uck": 2635,
      "tic": 2636,
      "set": 2637,
      "ines": 2638,
      "til": 2639,
      "Then": 2640,
      "always": 2641,
      "ser": 2642,
      "Where": 2643,
      "friend": 2644,
      "ung": 2645,
      "anc": 2646,
      "ye": 2647,
      "poem": 2648,
      "far": 2649,
      "sum": 2650,
      "hair": 2651,
      "got": 2652,
      "ster": 2653,
      "people": 2654,
      "small": 2655,
      "high": 2656,
      "als": 2657,
      "wood": 2658,
      "against": 2659,
      "above": 2660,
      "cor": 2661,
      "gold": 2662,
      "aught": 2663,
      "words": 2664,
      "days": 2665,
      "qui": 2666,
      "vis": 2667,
      "ef": 2668,
      "ats": 2669,
      "ek": 2670,
      "cent": 2671,
      "ching": 2672,
      "burn": 2673,
      "hal": 2674,
      "river": 2675,
      "past": 2676,
      "cks": 2677,
      "ond": 2678,
      "pos": 2679,
      "bri": 2680,
      "fin": 2681,
      "seem": 2682,
      "great": 2683,
      "play": 2684,
      "shi": 2685,
      "field": 2686,
      "word": 2687,
      "saw": 2688,
      "remember": 2689,
      "bs": 2690,
      "gn": 2691,
      "run": 2692,
      "ction": 2693,
      "trees": 2694,
      "Whi": 2695,
      "eye": 2696,
      "min": 2697,
      "wait": 2698,
      "tou": 2699,
      "cri": 2700,
      "door": 2701,
      "col": 2702,
      "ets": 2703,
      "inside": 2704,
      "fr": 2705,
      "At": 2706,
      "sto": 2707,
      "gir": 2708,
      "deep": 2709,
      "hour": 2710,
      "ma": 2711,
      "being": 2712,
      "Like": 2713,
      "morning": 2714,
      "tree": 2715,
      "bar": 2716,
      "clou": 2717,
      "kind": 2718,
      "hind": 2719,
      "De": 2720,
      "pped": 2721,
      "ff": 2722,
      "--": 2723,
      "cold": 2724,
      "hor": 2725,
      "myself": 2726,
      "went": 2727,
      ".”": 2728,
      "ered": 2729,
      "tin": 2730,
      "same": 2731,
      "listen": 2732,
      "bit": 2733,
      "From": 2734,
      "Is": 2735,
      "hard": 2736,
      "snow": 2737,
      "oft": 2738,
      "mi": 2739,
      "soul": 2740,
      "lit": 2741,
      "sli": 2742,
      "mean": 2743,
      "aven": 2744,
      "give": 2745,
      "gg": 2746,
      "je": 2747,
      "ned": 2748,
      "sts": 2749,
      "children": 2750,
      "ious": 2751,
      "stop": 2752,
      "lt": 2753,
      "form": 2754,
      "star": 2755,
      "gri": 2756,
      "leaves": 2757,
      "dy": 2758,
      "ily": 2759,
      "tend": 2760,
      "feet": 2761,
      "gone": 2762,
      "aces": 2763,
      "says": 2764,
      "ew": 2765,
      "across": 2766,
      "comes": 2767,
      "dro": 2768,
      "ket": 2769,
      "cer": 2770,
      "care": 2771,
      "put": 2772,
      "voice": 2773,
      "lies": 2774,
      "war": 2775,
      "stor": 2776,
      "ive": 2777,
      "Ch": 2778,
      "ken": 2779,
      "ush": 2780,
      "smo": 2781,
      "ature": 2782,
      "story": 2783,
      "One": 2784,
      "road": 2785,
      "until": 2786,
      "sent": 2787,
      "cal": 2788,
      "Not": 2789,
      "His": 2790,
      "St": 2791,
      "window": 2792,
      "lay": 2793,
      "such": 2794,
      "thee": 2795,
      "lost": 2796,
      "ountain": 2797,
      "stri": 2798,
      "skin": 2799,
      "Now": 2800,
      "behind": 2801,
      "alone": 2802,
      "xt": 2803,
      "mid": 2804,
      "fing": 2805,
      "stars": 2806,
      "breath": 2807,
      "ared": 2808,
      "cap": 2809,
      "fre": 2810,
      "ground": 2811,
      "cat": 2812,
      "ering": 2813,
      "sho": 2814,
      "book": 2815,
      "line": 2816,
      "enough": 2817,
      "grass": 2818,
      "sw": 2819,
      "used": 2820,
      "slow": 2821,
      "young": 2822,
      "igh": 2823,
      "sy": 2824,
      "ub": 2825,
      "tow": 2826,
      "rush": 2827,
      "fill": 2828,
      "arms": 2829,
      "az": 2830,
      "ates": 2831,
      "knew": 2832,
      "pen": 2833,
      "bright": 2834,
      "pur": 2835,
      "cut": 2836,
      "found": 2837,
      "ire": 2838,
      "moment": 2839,
      "half": 2840,
      "ob": 2841,
      "grow": 2842,
      "near": 2843,
      "loved": 2844,
      "till": 2845,
      "ping": 2846,
      "ord": 2847,
      "wild": 2848,
      "Let": 2849,
      "mir": 2850,
      "seen": 2851,
      "die": 2852,
      "fle": 2853,
      "ater": 2854,
      "selves": 2855,
      "sin": 2856,
      "toward": 2857,
      "cry": 2858,
      "Do": 2859,
      "belie": 2860,
      "bird": 2861,
      "ie": 2862,
      "appe": 2863,
      "speak": 2864,
      "joy": 2865,
      "along": 2866,
      "god": 2867,
      "whose": 2868,
      "lear": 2869,
      "step": 2870,
      "glass": 2871,
      "city": 2872,
      "tem": 2873,
      "why": 2874,
      "break": 2875,
      "ner": 2876,
      "tong": 2877,
      "ces": 2878,
      "didn": 2879,
      "vers": 2880,
      "ames": 2881,
      "eneath": 2882,
      "sic": 2883,
      "awn": 2884,
      "amp": 2885,
      "dist": 2886,
      "mis": 2887,
      "everything": 2888,
      "ations": 2889,
      "summer": 2890,
      "bur": 2891,
      "free": 2892,
      "sn": 2893,
      "cannot": 2894,
      "soft": 2895,
      "Se": 2896,
      "flowers": 2897,
      "tle": 2898,
      "ah": 2899,
      "por": 2900,
      "son": 2901,
      "ding": 2902,
      "stone": 2903,
      "heard": 2904,
      "itself": 2905,
      "med": 2906,
      "cked": 2907,
      "use": 2908,
      "return": 2909,
      "ali": 2910,
      "close": 2911,
      "pray": 2912,
      "mine": 2913,
      "someone": 2914,
      "fam": 2915,
      "pet": 2916,
      "lic": 2917,
      "itch": 2918,
      "ready": 2919,
      "pers": 2920,
      "Her": 2921,
      "ower": 2922,
      "whe": 2923,
      "talk": 2924,
      "cross": 2925,
      "asure": 2926,
      "pan": 2927,
      "ris": 2928,
      "ened": 2929,
      "irt": 2930,
      "angu": 2931,
      "born": 2932,
      "press": 2933,
      "dust": 2934,
      "start": 2935,
      "aring": 2936,
      "vel": 2937,
      "spir": 2938,
      "hy": 2939,
      "bor": 2940,
      "Al": 2941,
      "Your": 2942,
      "imag": 2943,
      "mountain": 2944,
      "Un": 2945,
      "Re": 2946,
      "ced": 2947,
      "girl": 2948,
      "mil": 2949,
      "lips": 2950,
      "ried": 2951,
      "gether": 2952,
      "lau": 2953,
      "ile": 2954,
      "met": 2955,
      "watch": 2956,
      "fly": 2957,
      "king": 2958,
      "bes": 2959,
      "alt": 2960,
      "ished": 2961,
      "leave": 2962,
      "shadow": 2963,
      "foot": 2964,
      "shap": 2965,
      "gard": 2966,
      "sen": 2967,
      "ions": 2968,
      "ome": 2969,
      "birds": 2970,
      "iful": 2971,
      "died": 2972,
      "fear": 2973,
      "iz": 2974,
      "ror": 2975,
      "bow": 2976,
      "living": 2977,
      "iness": 2978,
      "kiss": 2979,
      "pal": 2980,
      "going": 2981,
      ".\"": 2982,
      "thro": 2983,
      "sub": 2984,
      "three": 2985,
      "ug": 2986,
      "sor": 2987,
      "tom": 2988,
      "cover": 2989,
      "empt": 2990,
      "sign": 2991,
      "among": 2992,
      "tran": 2993,
      "lick": 2994,
      "dif": 2995,
      "called": 2996,
      "told": 2997,
      "together": 2998,
      "beneath": 2999,
      "reach": 3000,
      "coming": 3001,
      "cour": 3002,
      "ev": 3003,
      "fra": 3004,
      "ged": 3005,
      "else": 3006,
      "ia": 3007,
      "bab": 3008,
      "swi": 3009,
      "late": 3010,
      "hel": 3011,
      "roll": 3012,
      "ters": 3013,
      "aughter": 3014,
      "twi": 3015,
      "gen": 3016,
      "sand": 3017,
      "silence": 3018,
      "ca": 3019,
      "ton": 3020,
      "touch": 3021,
      "warm": 3022,
      "ants": 3023,
      "sup": 3024,
      "music": 3025,
      "corn": 3026,
      "tru": 3027,
      "cy": 3028,
      "By": 3029,
      "eds": 3030,
      "Lo": 3031,
      "women": 3032,
      "ian": 3033,
      "Our": 3034,
      "street": 3035,
      "draw": 3036,
      "sad": 3037,
      "stood": 3038,
      "cir": 3039,
      "next": 3040,
      "true": 3041,
      "grand": 3042,
      "pull": 3043,
      "human": 3044,
      "winter": 3045,
      "heaven": 3046,
      "laugh": 3047,
      "pat": 3048,
      "held": 3049,
      "move": 3050,
      "Nor": 3051,
      "mur": 3052,
      "ents": 3053,
      "stay": 3054,
      "wonder": 3055,
      "sme": 3056,
      "show": 3057,
      "beauty": 3058,
      "took": 3059,
      "oney": 3060,
      "looking": 3061,
      "Sh": 3062,
      "bell": 3063,
      "plan": 3064,
      "langu": 3065,
      "rem": 3066,
      "beautiful": 3067,
      "fa": 3068,
      "stru": 3069,
      "broken": 3070,
      "ined": 3071,
      "makes": 3072,
      "sed": 3073,
      "rose": 3074,
      "plain": 3075,
      "whole": 3076,
      "ason": 3077,
      "ult": 3078,
      "eng": 3079,
      "hope": 3080,
      "ming": 3081,
      "fish": 3082,
      "Here": 3083,
      "tongue": 3084,
      "ga": 3085,
      "dress": 3086,
      "real": 3087,
      "best": 3088,
      "stead": 3089,
      "fold": 3090,
      "quiet": 3091,
      "town": 3092,
      "clear": 3093,
      "umb": 3094,
      "ual": 3095,
      "ute": 3096,
      "empty": 3097,
      "path": 3098,
      "ont": 3099,
      "turned": 3100,
      "hur": 3101,
      "fro": 3102,
      "fair": 3103,
      "res": 3104,
      "ship": 3105,
      "ball": 3106,
      "dreams": 3107,
      "ues": 3108,
      "Oh": 3109,
      "bra": 3110,
      "ele": 3111,
      "rist": 3112,
      "better": 3113,
      "brea": 3114,
      "country": 3115,
      "done": 3116,
      "Bl": 3117,
      ",”": 3118,
      "table": 3119,
      "fles": 3120,
      "sit": 3121,
      "both": 3122,
      "ese": 3123,
      "yellow": 3124,
      "Every": 3125,
      "May": 3126,
      "ses": 3127,
      "spring": 3128,
      "rise": 3129,
      "coll": 3130,
      "hood": 3131,
      "big": 3132,
      "ost": 3133,
      "lar": 3134,
      "pap": 3135,
      "cted": 3136,
      "cu": 3137,
      "ks": 3138,
      ",—": 3139,
      "mist": 3140,
      "bey": 3141,
      "ised": 3142,
      "space": 3143,
      "dden": 3144,
      "iling": 3145,
      "Which": 3146,
      "flower": 3147,
      "wings": 3148,
      "kne": 3149,
      "poet": 3150,
      "eth": 3151,
      "gent": 3152,
      "ict": 3153,
      "clouds": 3154,
      "wing": 3155,
      "memory": 3156,
      "gar": 3157,
      "fur": 3158,
      "forget": 3159,
      "drink": 3160,
      "band": 3161,
      "darkness": 3162,
      "port": 3163,
      "known": 3164,
      "arch": 3165,
      "ger": 3166,
      "ages": 3167,
      "ran": 3168,
      "lot": 3169,
      "ths": 3170,
      "thr": 3171,
      "amed": 3172,
      "lights": 3173,
      "fast": 3174,
      "lad": 3175,
      "few": 3176,
      "wish": 3177,
      "matter": 3178,
      "ams": 3179,
      "brown": 3180,
      "begin": 3181,
      "lift": 3182,
      "hot": 3183,
      "wanted": 3184,
      "eat": 3185,
      "sure": 3186,
      "bodies": 3187,
      "within": 3188,
      "ago": 3189,
      "har": 3190,
      "ition": 3191,
      "aked": 3192,
      "silver": 3193,
      "II": 3194,
      "gro": 3195,
      "dog": 3196,
      "oce": 3197,
      "anger": 3198,
      "brother": 3199,
      "aren": 3200,
      "goes": 3201,
      "also": 3202,
      "une": 3203,
      "En": 3204,
      "breast": 3205,
      "whis": 3206,
      "ends": 3207,
      "fru": 3208,
      "meric": 3209,
      "hid": 3210,
      "oh": 3211,
      "quest": 3212,
      "Love": 3213,
      "sat": 3214,
      "kill": 3215,
      "felt": 3216,
      "ny": 3217,
      "Americ": 3218,
      "fell": 3219,
      "secre": 3220,
      "almost": 3221,
      "ards": 3222,
      "knows": 3223,
      "flesh": 3224,
      "Why": 3225,
      "pping": 3226,
      "Because": 3227,
      "pa": 3228,
      "rought": 3229,
      "mag": 3230,
      "sol": 3231,
      "ures": 3232,
      "shore": 3233,
      "dle": 3234,
      "ded": 3235,
      "differ": 3236,
      "hun": 3237,
      "lives": 3238,
      "follow": 3239,
      "lone": 3240,
      "cond": 3241,
      "looked": 3242,
      "fingers": 3243,
      "answ": 3244,
      "bus": 3245,
      "pul": 3246,
      "bling": 3247,
      "pas": 3248,
      "sim": 3249,
      "fect": 3250,
      "iled": 3251,
      "aken": 3252,
      "silent": 3253,
      "cast": 3254,
      "pes": 3255,
      "power": 3256,
      "become": 3257,
      "ign": 3258,
      "language": 3259,
      "dra": 3260,
      "edge": 3261,
      "hill": 3262,
      "bare": 3263,
      "ither": 3264,
      "noon": 3265,
      "waiting": 3266,
      "zz": 3267,
      "color": 3268,
      "hang": 3269,
      "beyond": 3270,
      "cup": 3271,
      "soon": 3272,
      "sight": 3273,
      "tears": 3274,
      "bones": 3275,
      "ern": 3276,
      "sudden": 3277,
      "ges": 3278,
      "train": 3279,
      "gray": 3280,
      "ousand": 3281,
      "bring": 3282,
      "bot": 3283,
      "ots": 3284,
      "ray": 3285,
      "floor": 3286,
      "wel": 3287,
      "top": 3288,
      "believe": 3289,
      "scre": 3290,
      "ial": 3291,
      "spirit": 3292,
      "squ": 3293,
      "rat": 3294,
      "dou": 3295,
      "ied": 3296,
      "dear": 3297,
      "val": 3298,
      "desire": 3299,
      "thousand": 3300,
      "key": 3301,
      "aming": 3302,
      "....": 3303,
      "hours": 3304,
      "Even": 3305,
      "rad": 3306,
      "uff": 3307,
      "ocean": 3308,
      "gy": 3309,
      "anything": 3310,
      "Go": 3311,
      "rock": 3312,
      "already": 3313,
      "Their": 3314,
      "strong": 3315,
      "utter": 3316,
      "bran": 3317,
      "garden": 3318,
      "clean": 3319,
      "Yet": 3320,
      "mark": 3321,
      "anim": 3322,
      "While": 3323,
      "hung": 3324,
      "others": 3325,
      "longer": 3326,
      "aste": 3327,
      "cas": 3328,
      "write": 3329,
      "Le": 3330,
      "change": 3331,
      "box": 3332,
      "chool": 3333,
      "bear": 3334,
      "build": 3335,
      "four": 3336,
      "understand": 3337,
      "person": 3338,
      "ils": 3339,
      "...": 3340,
      "peace": 3341,
      "gave": 3342,
      "happy": 3343,
      "cess": 3344,
      "io": 3345,
      "da": 3346,
      "ries": 3347,
      "heav": 3348,
      "crow": 3349,
      "sist": 3350,
      "strange": 3351,
      "aced": 3352,
      "dawn": 3353,
      "glo": 3354,
      "ices": 3355,
      "ery": 3356,
      "lou": 3357,
      "conf": 3358,
      "ison": 3359,
      "blind": 3360,
      "wound": 3361,
      "ears": 3362,
      "front": 3363,
      "bal": 3364,
      "char": 3365,
      "waves": 3366,
      "fields": 3367,
      "faces": 3368,
      "spo": 3369,
      "raise": 3370,
      "na": 3371,
      "lead": 3372,
      "bloom": 3373,
      "singing": 3374,
      "aim": 3375,
      "school": 3376,
      "ining": 3377,
      "themselves": 3378,
      "arri": 3379,
      "wet": 3380,
      "carry": 3381,
      "ony": 3382,
      "haps": 3383,
      "ier": 3384,
      "smoke": 3385,
      "ax": 3386,
      "golden": 3387,
      "ible": 3388,
      "Are": 3389,
      "meet": 3390,
      "bled": 3391,
      "possi": 3392,
      "19": 3393,
      "fut": 3394,
      "point": 3395,
      "ging": 3396,
      "making": 3397,
      "fort": 3398,
      "friends": 3399,
      "ert": 3400,
      "iting": 3401,
      "smell": 3402,
      "kept": 3403,
      "sometimes": 3404,
      "gle": 3405,
      "outside": 3406,
      "since": 3407,
      "Will": 3408,
      "stra": 3409,
      "given": 3410,
      "paper": 3411,
      "vol": 3412,
      "cept": 3413,
      "van": 3414,
      "wrong": 3415,
      "Ro": 3416,
      "gain": 3417,
      "zed": 3418,
      "rid": 3419,
      "eas": 3420,
      "wide": 3421,
      "neigh": 3422,
      "ump": 3423,
      "doesn": 3424,
      ",\"": 3425,
      "names": 3426,
      "ular": 3427,
      "truth": 3428,
      "tive": 3429,
      "wash": 3430,
      "pie": 3431,
      "fruit": 3432,
      "dry": 3433,
      "unk": 3434,
      "itting": 3435,
      "bound": 3436,
      "ending": 3437,
      "tail": 3438,
      "vent": 3439,
      "ought": 3440,
      "cou": 3441,
      "tor": 3442,
      "thin": 3443,
      "rel": 3444,
      "ities": 3445,
      "Po": 3446,
      "beside": 3447,
      "heat": 3448,
      "prom": 3449,
      "walls": 3450,
      "crack": 3451,
      "ude": 3452,
      "wake": 3453,
      "pose": 3454,
      "cont": 3455,
      "remain": 3456,
      "ical": 3457,
      "horse": 3458,
      "dest": 3459,
      "ments": 3460,
      "lived": 3461,
      "ids": 3462,
      "teeth": 3463,
      "shadows": 3464,
      "really": 3465,
      "Up": 3466,
      "dying": 3467,
      "Me": 3468,
      "clim": 3469,
      "beat": 3470,
      "ured": 3471,
      "chang": 3472,
      "forgot": 3473,
      "ilt": 3474,
      "cra": 3475,
      "below": 3476,
      "mat": 3477,
      "aster": 3478,
      "bb": 3479,
      "bat": 3480,
      "neck": 3481,
      "quick": 3482,
      "cloud": 3483,
      "certain": 3484,
      "umber": 3485,
      "transl": 3486,
      "Ar": 3487,
      "week": 3488,
      "birth": 3489,
      "gun": 3490,
      "grief": 3491,
      "perfect": 3492,
      "trying": 3493,
      "pho": 3494,
      "yourself": 3495,
      "bles": 3496,
      "course": 3497,
      "lan": 3498,
      "sive": 3499,
      "grave": 3500,
      "audi": 3501,
      "leaf": 3502,
      "evening": 3503,
      "Can": 3504,
      "fter": 3505,
      "wine": 3506,
      "alive": 3507,
      "enti": 3508,
      "New": 3509,
      "ening": 3510,
      "contin": 3511,
      "sense": 3512,
      "cts": 3513,
      "thinking": 3514,
      "bad": 3515,
      "lines": 3516,
      "comm": 3517,
      "heavy": 3518,
      "pair": 3519,
      "maybe": 3520,
      "fig": 3521,
      "wand": 3522,
      "having": 3523,
      "forever": 3524,
      "couldn": 3525,
      "whom": 3526,
      "often": 3527,
      "Though": 3528,
      "trem": 3529,
      "falling": 3530,
      "asked": 3531,
      "Out": 3532,
      "tu": 3533,
      "yes": 3534,
      "som": 3535,
      "Come": 3536,
      "kets": 3537,
      "future": 3538,
      "secret": 3539,
      "law": 3540,
      "wear": 3541,
      "ours": 3542,
      "fun": 3543,
      "thes": 3544,
      "du": 3545,
      "storm": 3546,
      "win": 3547,
      "unt": 3548,
      "spread": 3549,
      "dance": 3550,
      "fail": 3551,
      "forth": 3552,
      "himself": 3553,
      "later": 3554,
      "sal": 3555,
      "lly": 3556,
      "throat": 3557,
      "hearts": 3558,
      "seems": 3559,
      "shape": 3560,
      "oth": 3561,
      "aint": 3562,
      "baby": 3563,
      "mirror": 3564,
      "ref": 3565,
      "verse": 3566,
      "ended": 3567,
      "dec": 3568,
      "After": 3569,
      "els": 3570,
      "saying": 3571,
      "stick": 3572,
      "yard": 3573,
      "mad": 3574,
      "cool": 3575,
      "rows": 3576,
      "legs": 3577,
      "poor": 3578,
      "apart": 3579,
      "ns": 3580,
      "standing": 3581,
      "bone": 3582,
      "spl": 3583,
      "daughter": 3584,
      "weight": 3585,
      "motion": 3586,
      "history": 3587,
      "Christ": 3588,
      "pale": 3589,
      "thered": 3590,
      "forest": 3591,
      "single": 3592,
      "walking": 3593,
      "bag": 3594,
      "dam": 3595,
      "ades": 3596,
      "moving": 3597,
      "Once": 3598,
      "brought": 3599,
      "burning": 3600,
      "blow": 3601,
      "bless": 3602,
      "wra": 3603,
      "ience": 3604,
      "looks": 3605,
      "danc": 3606,
      "thick": 3607,
      "heads": 3608,
      "family": 3609,
      "help": 3610,
      "wre": 3611,
      "usk": 3612,
      "Each": 3613,
      "oc": 3614,
      "anci": 3615,
      "Mar": 3616,
      "mort": 3617,
      "Look": 3618,
      "oned": 3619,
      "suf": 3620,
      "smile": 3621,
      "Don": 3622,
      "flame": 3623,
      "present": 3624,
      "wit": 3625,
      "scar": 3626,
      "tender": 3627,
      "Was": 3628,
      "weep": 3629,
      "different": 3630,
      "stones": 3631,
      "wife": 3632,
      "fact": 3633,
      "pin": 3634,
      "means": 3635,
      "bas": 3636,
      "isn": 3637,
      "woods": 3638,
      "uni": 3639,
      "nat": 3640,
      "stret": 3641,
      "takes": 3642,
      "roof": 3643,
      "walked": 3644,
      "wise": 3645,
      "These": 3646,
      "gry": 3647,
      "exist": 3648,
      "sac": 3649,
      "teach": 3650,
      "pres": 3651,
      "fresh": 3652,
      "today": 3653,
      "brain": 3654,
      "fight": 3655,
      "chi": 3656,
      "los": 3657,
      "fully": 3658,
      "Ri": 3659,
      "div": 3660,
      "filled": 3661,
      "view": 3662,
      "undred": 3663,
      "turns": 3664,
      "cro": 3665,
      "ient": 3666,
      "ghost": 3667,
      "test": 3668,
      "learn": 3669,
      "Gre": 3670,
      "order": 3671,
      "nder": 3672,
      "Per": 3673,
      "ban": 3674,
      "shut": 3675,
      "thoughts": 3676,
      "faith": 3677,
      "Just": 3678,
      "chair": 3679,
      "ney": 3680,
      "scent": 3681,
      "cking": 3682,
      "dep": 3683,
      "moved": 3684,
      "pleasure": 3685,
      "loud": 3686,
      "fine": 3687,
      "thir": 3688,
      "brid": 3689,
      "appear": 3690,
      "milk": 3691,
      "hundred": 3692,
      "sick": 3693,
      "mud": 3694,
      "lab": 3695,
      "rage": 3696,
      "Ti": 3697,
      "fic": 3698,
      "Through": 3699,
      "cand": 3700,
      "icon": 3701,
      "whisper": 3702,
      "mor": 3703,
      "mill": 3704,
      "six": 3705,
      "nest": 3706,
      "ples": 3707,
      "glow": 3708,
      "blos": 3709,
      "lean": 3710,
      "five": 3711,
      "gged": 3712,
      "Still": 3713,
      "mas": 3714,
      "least": 3715,
      "grace": 3716,
      "bull": 3717,
      "none": 3718,
      "thre": 3719,
      "windows": 3720,
      "state": 3721,
      "hills": 3722,
      "caught": 3723,
      "ually": 3724,
      "ply": 3725,
      "paren": 3726,
      "count": 3727,
      "cot": 3728,
      "hall": 3729,
      "spr": 3730,
      "cheek": 3731,
      "vision": 3732,
      "park": 3733,
      "slowly": 3734,
      "vill": 3735,
      "Lord": 3736,
      "steps": 3737,
      "ell": 3738,
      "hat": 3739,
      "ked": 3740,
      "Con": 3741,
      "thed": 3742,
      "comple": 3743,
      "winds": 3744,
      "everyone": 3745,
      "ited": 3746,
      "wave": 3747,
      "seemed": 3748,
      "seas": 3749,
      "salt": 3750,
      "urch": 3751,
      "tiny": 3752,
      "naked": 3753,
      "tur": 3754,
      "heal": 3755,
      "claim": 3756,
      "sorrow": 3757,
      "ba": 3758,
      "ints": 3759,
      "dim": 3760,
      "board": 3761,
      "crown": 3762,
      "boys": 3763,
      "Su": 3764,
      "ince": 3765,
      "alley": 3766,
      "early": 3767,
      "Mo": 3768,
      "Man": 3769,
      "pict": 3770,
      "sigh": 3771,
      "plant": 3772,
      "mountains": 3773,
      "second": 3774,
      "lu": 3775,
      "acks": 3776,
      "streets": 3777,
      "passed": 3778,
      "00": 3779,
      "sounds": 3780,
      "kitch": 3781,
      "plo": 3782,
      "Did": 3783,
      "miss": 3784,
      "shade": 3785,
      "lake": 3786,
      "shine": 3787,
      "chest": 3788,
      "Only": 3789,
      "lun": 3790,
      "lip": 3791,
      "youth": 3792,
      "Before": 3793,
      "Sometimes": 3794,
      "roud": 3795,
      "rising": 3796,
      "Ho": 3797,
      "brush": 3798,
      "hous": 3799,
      "lam": 3800,
      "ric": 3801,
      "flash": 3802,
      "feeling": 3803,
      "attered": 3804,
      "suffer": 3805,
      "mit": 3806,
      "shar": 3807,
      "knowing": 3808,
      "large": 3809,
      "fat": 3810,
      "meant": 3811,
      "gather": 3812,
      "tall": 3813,
      "sold": 3814,
      "raid": 3815,
      "Pe": 3816,
      "pink": 3817,
      "arrow": 3818,
      "owed": 3819,
      "leep": 3820,
      "boat": 3821,
      "comp": 3822,
      "falls": 3823,
      "race": 3824,
      "hell": 3825,
      "learned": 3826,
      "ancient": 3827,
      "ased": 3828,
      "grew": 3829,
      "question": 3830,
      "rot": 3831,
      "distance": 3832,
      "Click": 3833,
      "rust": 3834,
      "flight": 3835,
      "wed": 3836,
      "visible": 3837,
      "passing": 3838,
      "audio": 3839,
      "kitchen": 3840,
      "sink": 3841,
      "ourselves": 3842,
      "astic": 3843,
      "ject": 3844,
      "ift": 3845,
      "books": 3846,
      "flies": 3847,
      "dem": 3848,
      "dom": 3849,
      "bread": 3850,
      "stream": 3851,
      "songs": 3852,
      "Bo": 3853,
      "Its": 3854,
      "las": 3855,
      "taken": 3856,
      "shot": 3857,
      "began": 3858,
      "Ah": 3859,
      "kes": 3860,
      "nature": 3861,
      "umn": 3862,
      "pot": 3863,
      "cket": 3864,
      "leg": 3865,
      "itten": 3866,
      "push": 3867,
      "zen": 3868,
      "iron": 3869,
      "watched": 3870,
      "bitter": 3871,
      "bt": 3872,
      "fu": 3873,
      "swall": 3874,
      "enter": 3875,
      "feather": 3876,
      "bank": 3877,
      "fool": 3878,
      "photo": 3879,
      "action": 3880,
      "ury": 3881,
      "tired": 3882,
      "etern": 3883,
      "ility": 3884,
      "sister": 3885,
      "ape": 3886,
      "watching": 3887,
      "finger": 3888,
      "rub": 3889,
      "possible": 3890,
      "map": 3891,
      "Black": 3892,
      "rit": 3893,
      "thread": 3894,
      "cles": 3895,
      "Till": 3896,
      "uring": 3897,
      "drop": 3898,
      "gin": 3899,
      "ili": 3900,
      "onto": 3901,
      "leap": 3902,
      "ares": 3903,
      "iles": 3904,
      "holding": 3905,
      "kni": 3906,
      "passion": 3907,
      "money": 3908,
      "stair": 3909,
      "dirt": 3910,
      "eral": 3911,
      "dire": 3912,
      "Tho": 3913,
      "chain": 3914,
      "bree": 3915,
      "Death": 3916,
      "Am": 3917,
      "poetry": 3918,
      "instead": 3919,
      "aded": 3920,
      "feed": 3921,
      "grown": 3922,
      "waters": 3923,
      "glad": 3924,
      "poems": 3925,
      "lose": 3926,
      "Co": 3927,
      "mus": 3928,
      "pill": 3929,
      "lling": 3930,
      "cher": 3931,
      "lover": 3932,
      "viol": 3933,
      "perhaps": 3934,
      "running": 3935,
      "xed": 3936,
      "zy": 3937,
      "wasn": 3938,
      "afraid": 3939,
      "straight": 3940,
      "stem": 3941,
      "Thy": 3942,
      "imagine": 3943,
      "answer": 3944,
      "bul": 3945,
      "hus": 3946,
      "pay": 3947,
      "closed": 3948,
      "survi": 3949,
      "covered": 3950,
      "cus": 3951,
      "iv": 3952,
      "store": 3953,
      "somewhere": 3954,
      "nights": 3955,
      "py": 3956,
      "shop": 3957,
      "posed": 3958,
      "middle": 3959,
      "ama": 3960,
      "holy": 3961,
      "Yes": 3962,
      "ying": 3963,
      "mortal": 3964,
      "Over": 3965,
      "voices": 3966,
      "flood": 3967,
      "corner": 3968,
      "Thou": 3969,
      "turning": 3970,
      "suddenly": 3971,
      "din": 3972,
      "uel": 3973,
      "ories": 3974,
      "echo": 3975,
      "save": 3976,
      "hate": 3977,
      "shel": 3978,
      "hu": 3979,
      "lap": 3980,
      "sions": 3981,
      "meaning": 3982,
      "Ear": 3983,
      "aves": 3984,
      "inst": 3985,
      "ane": 3986,
      "dev": 3987,
      "gest": 3988,
      "Into": 3989,
      "branches": 3990,
      "pure": 3991,
      "del": 3992,
      "purple": 3993,
      "pick": 3994,
      "tro": 3995,
      "vest": 3996,
      "gate": 3997,
      "ado": 3998,
      "fee": 3999,
      "lands": 4000,
      "prayer": 4001,
      "fil": 4002,
      "pit": 4003,
      "hide": 4004,
      "thus": 4005,
      "reason": 4006,
      "stro": 4007,
      "flag": 4008,
      "colle": 4009,
      "stir": 4010,
      "pool": 4011,
      "maid": 4012,
      "listening": 4013,
      "mour": 4014,
      "afternoon": 4015,
      "?”": 4016,
      "Have": 4017,
      "pine": 4018,
      "terri": 4019,
      "holds": 4020,
      "catch": 4021,
      "rup": 4022,
      "calm": 4023,
      "reco": 4024,
      "tide": 4025,
      "spec": 4026,
      "ances": 4027,
      "trou": 4028,
      "ator": 4029,
      "dew": 4030,
      "cell": 4031,
      "hole": 4032,
      "phone": 4033,
      "leaving": 4034,
      "gentle": 4035,
      "!\"": 4036,
      "ham": 4037,
      "taste": 4038,
      "Time": 4039,
      "Ind": 4040,
      "worth": 4041,
      "ender": 4042,
      "anyone": 4043,
      "safe": 4044,
      "calls": 4045,
      "neighbor": 4046,
      "forgotten": 4047,
      "houses": 4048,
      "ron": 4049,
      "butter": 4050,
      "girls": 4051,
      "rocks": 4052,
      "gods": 4053,
      "bi": 4054,
      "ales": 4055,
      "expe": 4056,
      "became": 4057,
      "short": 4058,
      "sail": 4059,
      "wants": 4060,
      "tried": 4061,
      "Engl": 4062,
      "gas": 4063,
      "page": 4064,
      "stain": 4065,
      "tight": 4066,
      "lonely": 4067,
      "honey": 4068,
      "food": 4069,
      "escap": 4070,
      "flat": 4071,
      "rote": 4072,
      "Com": 4073,
      "hon": 4074,
      "seed": 4075,
      "husband": 4076,
      "bark": 4077,
      "Ne": 4078,
      "post": 4079,
      "sleeping": 4080,
      "Under": 4081,
      "loves": 4082,
      "wheel": 4083,
      "!”": 4084,
      "root": 4085,
      "drift": 4086,
      "hors": 4087,
      "rich": 4088,
      "deli": 4089,
      "hath": 4090,
      "teen": 4091,
      "Ex": 4092,
      "net": 4093,
      "pret": 4094,
      "ashes": 4095,
      "swim": 4096,
      "cam": 4097,
      "myster": 4098,
      "desert": 4099,
      "dusk": 4100,
      "phi": 4101,
      "weather": 4102,
      "horiz": 4103,
      "ites": 4104,
      "ading": 4105,
      "cli": 4106,
      "rhy": 4107,
      "surface": 4108,
      "kno": 4109,
      "era": 4110,
      "stat": 4111,
      "gaze": 4112,
      "America": 4113,
      "stud": 4114,
      "ided": 4115,
      "Nothing": 4116,
      "phy": 4117,
      "farm": 4118,
      "taking": 4119,
      "repe": 4120,
      "leng": 4121,
      "pun": 4122,
      "measure": 4123,
      "ads": 4124,
      "acing": 4125,
      "doors": 4126,
      "praise": 4127,
      "ride": 4128,
      "news": 4129,
      "rent": 4130,
      "rum": 4131,
      "throw": 4132,
      "orange": 4133,
      "Heaven": 4134,
      "drown": 4135,
      "See": 4136,
      "ech": 4137,
      "whatever": 4138,
      "writing": 4139,
      "refle": 4140,
      "beach": 4141,
      "stands": 4142,
      "),": 4143,
      "case": 4144,
      "ina": 4145,
      "doing": 4146,
      "Would": 4147,
      "edom": 4148,
      "lled": 4149,
      "roy": 4150,
      "harm": 4151,
      "mach": 4152,
      "season": 4153,
      "ays": 4154,
      "ties": 4155,
      "rab": 4156,
      "gue": 4157,
      "ato": 4158,
      "please": 4159,
      "Wor": 4160,
      "inc": 4161,
      "ital": 4162,
      "fts": 4163,
      "nation": 4164,
      "tear": 4165,
      "getting": 4166,
      "wenty": 4167,
      "translated": 4168,
      "reg": 4169,
      "church": 4170,
      "climb": 4171,
      "ram": 4172,
      "va": 4173,
      ".)": 4174,
      "ety": 4175,
      "note": 4176,
      "knees": 4177,
      "Car": 4178,
      "image": 4179,
      "Whose": 4180,
      "miles": 4181,
      "shout": 4182,
      "stopped": 4183,
      "distant": 4184,
      "hidden": 4185,
      "spot": 4186,
      "dies": 4187,
      "talking": 4188,
      "gan": 4189,
      "mess": 4190,
      "ises": 4191,
      "mead": 4192,
      "asks": 4193,
      "rooms": 4194,
      "Qu": 4195,
      "spark": 4196,
      "fled": 4197,
      "scri": 4198,
      "shoulder": 4199,
      "breathing": 4200,
      "lets": 4201,
      "spent": 4202,
      "skies": 4203,
      "__": 4204,
      "anti": 4205,
      "loss": 4206,
      "shame": 4207,
      "finally": 4208,
      "breathe": 4209,
      "aving": 4210,
      "pow": 4211,
      "ism": 4212,
      "ics": 4213,
      "spect": 4214,
      "stories": 4215,
      "animal": 4216,
      "Par": 4217,
      "fal": 4218,
      "att": 4219,
      "giving": 4220,
      "bill": 4221,
      "vain": 4222,
      "iny": 4223,
      "mel": 4224,
      "sex": 4225,
      "glory": 4226,
      "sweat": 4227,
      "simple": 4228,
      "sem": 4229,
      "ashed": 4230,
      "sharp": 4231,
      "named": 4232,
      "proud": 4233,
      "tice": 4234,
      "wouldn": 4235,
      "laid": 4236,
      "hurt": 4237,
      "pher": 4238,
      "za": 4239,
      "feels": 4240,
      "roots": 4241,
      "built": 4242,
      "keeps": 4243,
      "bridge": 4244,
      "inv": 4245,
      "places": 4246,
      "buried": 4247,
      "dogs": 4248,
      "quite": 4249,
      "calling": 4250,
      "drum": 4251,
      "Maybe": 4252,
      "American": 4253,
      "vering": 4254,
      "prof": 4255,
      "ledge": 4256,
      "parents": 4257,
      "streng": 4258,
      "palm": 4259,
      "Fr": 4260,
      "seven": 4261,
      "nose": 4262,
      "trust": 4263,
      "seeing": 4264,
      "pressed": 4265,
      "laughter": 4266,
      "ero": 4267,
      "shoes": 4268,
      "cab": 4269,
      "sang": 4270,
      "inging": 4271,
      "everywhere": 4272,
      "pu": 4273,
      "thunder": 4274,
      "Earth": 4275,
      "jour": 4276,
      "lin": 4277,
      "wrote": 4278,
      "herself": 4279,
      "endless": 4280,
      "ctor": 4281,
      "clothes": 4282,
      "Life": 4283,
      "fit": 4284,
      "west": 4285,
      "fallen": 4286,
      "Upon": 4287,
      "oak": 4288,
      "tum": 4289,
      "ada": 4290,
      "appro": 4291,
      "trans": 4292,
      "grey": 4293,
      "force": 4294,
      "forward": 4295,
      "aged": 4296,
      "doth": 4297,
      "Fl": 4298,
      "shirt": 4299,
      "Such": 4300,
      "eve": 4301,
      "kin": 4302,
      "acked": 4303,
      "block": 4304,
      "drive": 4305,
      "horses": 4306,
      "card": 4307,
      "oo": 4308,
      "ctions": 4309,
      "knife": 4310,
      "liness": 4311,
      "ta": 4312,
      "var": 4313,
      "lid": 4314,
      "lice": 4315,
      "weary": 4316,
      "ails": 4317,
      "fav": 4318,
      "cei": 4319,
      "ester": 4320,
      "bottom": 4321,
      "equ": 4322,
      "ler": 4323,
      "clock": 4324,
      "pride": 4325,
      "sym": 4326,
      "doubt": 4327,
      ").": 4328,
      "tles": 4329,
      "ural": 4330,
      "spin": 4331,
      "iff": 4332,
      "pear": 4333,
      "buy": 4334,
      "cord": 4335,
      "grandmother": 4336,
      "fir": 4337,
      "worn": 4338,
      "grows": 4339,
      "Chi": 4340,
      "Mother": 4341,
      "pper": 4342,
      "llen": 4343,
      "tim": 4344,
      "ause": 4345,
      "seek": 4346,
      "prote": 4347,
      "paint": 4348,
      "Stre": 4349,
      "ences": 4350,
      "raised": 4351,
      "tells": 4352,
      "ancy": 4353,
      "gener": 4354,
      "breeze": 4355,
      "La": 4356,
      "Sp": 4357,
      "bers": 4358,
      "asy": 4359,
      "loose": 4360,
      "lovers": 4361,
      "fice": 4362,
      "Night": 4363,
      "non": 4364,
      "chant": 4365,
      "shri": 4366,
      "growing": 4367,
      "bent": 4368,
      "bath": 4369,
      "una": 4370,
      "blosso": 4371,
      "20": 4372,
      "Des": 4373,
      "lamp": 4374,
      "nur": 4375,
      "asleep": 4376,
      "ific": 4377,
      "tention": 4378,
      "flu": 4379,
      "cious": 4380,
      "written": 4381,
      "Never": 4382,
      "thine": 4383,
      "coat": 4384,
      "pled": 4385,
      "limbs": 4386,
      "belly": 4387,
      "beginning": 4388,
      "Joh": 4389,
      "offee": 4390,
      "seat": 4391,
      "forms": 4392,
      "ides": 4393,
      "except": 4394,
      "torn": 4395,
      "rope": 4396,
      "rious": 4397,
      "hunger": 4398,
      "Bet": 4399,
      "luck": 4400,
      "plastic": 4401,
      "oked": 4402,
      "idea": 4403,
      "Those": 4404,
      "Two": 4405,
      "phe": 4406,
      "scene": 4407,
      "easy": 4408,
      "piece": 4409,
      "hast": 4410,
      "utes": 4411,
      "moves": 4412,
      "aband": 4413,
      "yours": 4414,
      "ement": 4415,
      "cul": 4416,
      "dull": 4417,
      "yo": 4418,
      "rather": 4419,
      "broke": 4420,
      "guard": 4421,
      "mouths": 4422,
      "John": 4423,
      "ec": 4424,
      "sings": 4425,
      "soil": 4426,
      "Gr": 4427,
      "gni": 4428,
      "taught": 4429,
      "roses": 4430,
      "quar": 4431,
      "autumn": 4432,
      "happened": 4433,
      "flying": 4434,
      "strength": 4435,
      "Bro": 4436,
      "eag": 4437,
      "mal": 4438,
      "ption": 4439,
      "thri": 4440,
      "strain": 4441,
      "bells": 4442,
      "ache": 4443,
      "spill": 4444,
      "desc": 4445,
      "letter": 4446,
      "letters": 4447,
      "swift": 4448,
      "lying": 4449,
      "parts": 4450,
      "cried": 4451,
      "spoke": 4452,
      "Fe": 4453,
      "bly": 4454,
      "scra": 4455,
      "Mr": 4456,
      "craw": 4457,
      "tes": 4458,
      "sees": 4459,
      "search": 4460,
      "abs": 4461,
      "longing": 4462,
      "pretty": 4463,
      "horn": 4464,
      "orrow": 4465,
      "whir": 4466,
      "changed": 4467,
      "ckets": 4468,
      "coffee": 4469,
      "ju": 4470,
      "twenty": 4471,
      "colo": 4472,
      "metal": 4473,
      "circle": 4474,
      "slo": 4475,
      "vast": 4476,
      "cha": 4477,
      "gives": 4478,
      "strang": 4479,
      "Jo": 4480,
      "fed": 4481,
      "number": 4482,
      "sides": 4483,
      "contain": 4484,
      "steel": 4485,
      "midnight": 4486,
      "freedom": 4487,
      "murder": 4488,
      "Down": 4489,
      "valley": 4490,
      "ument": 4491,
      "crowd": 4492,
      "horizon": 4493,
      "Again": 4494,
      "gall": 4495,
      "uc": 4496,
      "walks": 4497,
      "Old": 4498,
      "eness": 4499,
      "eding": 4500,
      "becomes": 4501,
      "solit": 4502,
      "neither": 4503,
      "finite": 4504,
      "fif": 4505,
      "ination": 4506,
      "notes": 4507,
      "descri": 4508,
      "reading": 4509,
      "opened": 4510,
      "shoulders": 4511,
      "pulled": 4512,
      "length": 4513,
      "remind": 4514,
      "ative": 4515,
      "breaking": 4516,
      "slept": 4517,
      "trave": 4518,
      "center": 4519,
      "fate": 4520,
      "sitting": 4521,
      "tar": 4522,
      "sider": 4523,
      "apple": 4524,
      "ublic": 4525,
      "More": 4526,
      "Pre": 4527,
      "cow": 4528,
      "either": 4529,
      "wis": 4530,
      "ys": 4531,
      "lovely": 4532,
      "begins": 4533,
      "Tod": 4534,
      "game": 4535,
      "tun": 4536,
      "toss": 4537,
      "frame": 4538,
      "dwell": 4539,
      "oil": 4540,
      "stuff": 4541,
      "deer": 4542,
      "delight": 4543,
      "weak": 4544,
      "reve": 4545,
      "ands": 4546,
      "shining": 4547,
      "ables": 4548,
      "fol": 4549,
      "fied": 4550,
      "creature": 4551,
      "Ye": 4552,
      "resp": 4553,
      "itter": 4554,
      "lease": 4555,
      "chance": 4556,
      "lock": 4557,
      "sting": 4558,
      "sted": 4559,
      "consc": 4560,
      "sunlight": 4561,
      "souls": 4562,
      "hungry": 4563,
      "........": 4564,
      "bid": 4565,
      "eight": 4566,
      "asp": 4567,
      "common": 4568,
      "drawn": 4569,
      "fant": 4570,
      "hollow": 4571,
      "embr": 4572,
      "vice": 4573,
      "prison": 4574,
      "sacred": 4575,
      "tis": 4576,
      "sole": 4577,
      "poss": 4578,
      "White": 4579,
      "painted": 4580,
      "radi": 4581,
      "complete": 4582,
      "Ab": 4583,
      "Pro": 4584,
      "stal": 4585,
      "ident": 4586,
      "poin": 4587,
      "brow": 4588,
      "stairs": 4589,
      "bru": 4590,
      "shell": 4591,
      "grant": 4592,
      "touched": 4593,
      "lady": 4594,
      "picture": 4595,
      "swo": 4596,
      "meat": 4597,
      "suit": 4598,
      "ann": 4599,
      "chill": 4600,
      "unto": 4601,
      "thinks": 4602,
      "gging": 4603,
      "esterday": 4604,
      "aled": 4605,
      "hero": 4606,
      "ishing": 4607,
      "childhood": 4608,
      "curtain": 4609,
      "needs": 4610,
      "Swe": 4611,
      "crush": 4612,
      "zing": 4613,
      "thirst": 4614,
      "separ": 4615,
      "happen": 4616,
      "acy": 4617,
      "shed": 4618,
      "ashing": 4619,
      "Shall": 4620,
      "ution": 4621,
      "truck": 4622,
      "months": 4623,
      "started": 4624,
      "burned": 4625,
      "rivers": 4626,
      "Ke": 4627,
      "pleas": 4628,
      "gets": 4629,
      "Long": 4630,
      "ky": 4631,
      "sits": 4632,
      "weed": 4633,
      "ately": 4634,
      "dread": 4635,
      "travel": 4636,
      "aid": 4637,
      "loving": 4638,
      "nel": 4639,
      "exper": 4640,
      "aws": 4641,
      "stranger": 4642,
      "ships": 4643,
      "famili": 4644,
      "promise": 4645,
      "Sat": 4646,
      "class": 4647,
      "awake": 4648,
      "disappe": 4649,
      "?\"": 4650,
      "Well": 4651,
      "battle": 4652,
      "!—": 4653,
      "fas": 4654,
      "sway": 4655,
      "ising": 4656,
      "tied": 4657,
      "using": 4658,
      "blan": 4659,
      "pol": 4660,
      "recogni": 4661,
      "Had": 4662,
      "inde": 4663,
      "oured": 4664,
      "arti": 4665,
      "sever": 4666,
      "noise": 4667,
      "share": 4668,
      "sweep": 4669,
      "figure": 4670,
      "acc": 4671,
      "speech": 4672,
      "opening": 4673,
      "runs": 4674,
      "patient": 4675,
      "lust": 4676,
      "pse": 4677,
      "sens": 4678,
      "uous": 4679,
      "sco": 4680,
      "ulous": 4681,
      "exact": 4682,
      "mighty": 4683,
      "rolling": 4684,
      "grain": 4685,
      "beast": 4686,
      "aff": 4687,
      "Pl": 4688,
      "mere": 4689,
      "pour": 4690,
      "sour": 4691,
      "vid": 4692,
      "ani": 4693,
      "speaking": 4694,
      "Spr": 4695,
      "gift": 4696,
      "slight": 4697,
      "uses": 4698,
      "asted": 4699,
      "witness": 4700,
      "Were": 4701,
      "zes": 4702,
      "eyed": 4703,
      "skull": 4704,
      "vio": 4705,
      "playing": 4706,
      "lifted": 4707,
      "English": 4708,
      "pli": 4709,
      "tap": 4710,
      "ía": 4711,
      "orch": 4712,
      "north": 4713,
      "ield": 4714,
      "kn": 4715,
      "plum": 4716,
      "const": 4717,
      "comfort": 4718,
      "graph": 4719,
      "frozen": 4720,
      "brave": 4721,
      "hanging": 4722,
      "cing": 4723,
      "patter": 4724,
      "chick": 4725,
      "bees": 4726,
      "drunk": 4727,
      "asking": 4728,
      "surpr": 4729,
      "osts": 4730,
      "invisible": 4731,
      "mothers": 4732,
      "void": 4733,
      "animals": 4734,
      "Light": 4735,
      "Ste": 4736,
      "bend": 4737,
      "cars": 4738,
      "flick": 4739,
      "island": 4740,
      "sid": 4741,
      "angels": 4742,
      "mn": 4743,
      "master": 4744,
      "tea": 4745,
      "favor": 4746,
      "18": 4747,
      "narrow": 4748,
      "aling": 4749,
      "wearing": 4750,
      "mos": 4751,
      "pier": 4752,
      "carried": 4753,
      "happens": 4754,
      "familiar": 4755,
      "hit": 4756,
      "tw": 4757,
      "ghosts": 4758,
      "smooth": 4759,
      "public": 4760,
      "ano": 4761,
      "umin": 4762,
      "guess": 4763,
      "building": 4764,
      "bbing": 4765,
      "Little": 4766,
      "east": 4767,
      "gor": 4768,
      "inking": 4769,
      "angel": 4770,
      "cries": 4771,
      "ben": 4772,
      "bom": 4773,
      "ox": 4774,
      "aret": 4775,
      "tern": 4776,
      "explain": 4777,
      "pretend": 4778,
      "bush": 4779,
      "telling": 4780,
      "drops": 4781,
      "journey": 4782,
      "El": 4783,
      "Sun": 4784,
      "gay": 4785,
      "belong": 4786,
      "amber": 4787,
      "emer": 4788,
      "whist": 4789,
      "bowl": 4790,
      "pulse": 4791,
      "village": 4792,
      "faint": 4793,
      "itude": 4794,
      "haw": 4795,
      "Than": 4796,
      "aks": 4797,
      "crum": 4798,
      "cial": 4799,
      "broad": 4800,
      "rises": 4801,
      "laughing": 4802,
      "Jes": 4803,
      "Sil": 4804,
      "inno": 4805,
      "whether": 4806,
      "Good": 4807,
      "iter": 4808,
      "chor": 4809,
      "bel": 4810,
      "ament": 4811,
      "terror": 4812,
      "suc": 4813,
      "despair": 4814,
      "works": 4815,
      "fires": 4816,
      "anks": 4817,
      "shif": 4818,
      "divine": 4819,
      "colored": 4820,
      "bon": 4821,
      "ense": 4822,
      "stare": 4823,
      "height": 4824,
      "crying": 4825,
      "labor": 4826,
      "feathers": 4827,
      "Today": 4828,
      "Span": 4829,
      "knot": 4830,
      "lawn": 4831,
      "acle": 4832,
      "host": 4833,
      "Thus": 4834,
      "desp": 4835,
      "dreaming": 4836,
      "Father": 4837,
      "Ju": 4838,
      "add": 4839,
      "deser": 4840,
      "cruel": 4841,
      "Without": 4842,
      "surround": 4843,
      "counter": 4844,
      "udd": 4845,
      "breaks": 4846,
      "inary": 4847,
      "fog": 4848,
      "rous": 4849,
      "missing": 4850,
      "folded": 4851,
      "eternal": 4852,
      "danger": 4853,
      "eg": 4854,
      "floating": 4855,
      "colors": 4856,
      "Nature": 4857,
      "cities": 4858,
      "ease": 4859,
      "sty": 4860,
      "liqu": 4861,
      "woke": 4862,
      "murmur": 4863,
      "dancing": 4864,
      "blossoms": 4865,
      "tan": 4866,
      "rare": 4867,
      "track": 4868,
      "Str": 4869,
      "Sear": 4870,
      "fence": 4871,
      "gon": 4872,
      "usion": 4873,
      "acts": 4874,
      "Red": 4875,
      "Tis": 4876,
      "ggl": 4877,
      "olo": 4878,
      "lightning": 4879,
      "month": 4880,
      "century": 4881,
      "Br": 4882,
      "Dear": 4883,
      "Tell": 4884,
      "cig": 4885,
      "pest": 4886,
      "cting": 4887,
      "working": 4888,
      "remains": 4889,
      "regre": 4890,
      "depart": 4891,
      "text": 4892,
      "plate": 4893,
      "needed": 4894,
      "dir": 4895,
      "ired": 4896,
      "cloth": 4897,
      "stern": 4898,
      "ized": 4899,
      "placed": 4900,
      "cling": 4901,
      "ount": 4902,
      "south": 4903,
      "twilight": 4904,
      "terrible": 4905,
      "lor": 4906,
      "send": 4907,
      "reali": 4908,
      "unknown": 4909,
      "clay": 4910,
      "Until": 4911,
      "rolled": 4912,
      "Spanish": 4913,
      "numb": 4914,
      "pity": 4915,
      "tune": 4916,
      "ague": 4917,
      "stress": 4918,
      "vine": 4919,
      "rip": 4920,
      "moss": 4921,
      "doll": 4922,
      "tel": 4923,
      "scape": 4924,
      "wol": 4925,
      "Mi": 4926,
      "gli": 4927,
      "ker": 4928,
      "ued": 4929,
      "atic": 4930,
      "aby": 4931,
      "tele": 4932,
      "vious": 4933,
      "bud": 4934,
      "final": 4935,
      "III": 4936,
      "universe": 4937,
      "Search": 4938,
      "dad": 4939,
      "lat": 4940,
      "lion": 4941,
      "moonlight": 4942,
      "azing": 4943,
      "softly": 4944,
      "third": 4945,
      "swallow": 4946,
      "Mon": 4947,
      "glim": 4948,
      "hush": 4949,
      "main": 4950,
      "vir": 4951,
      "vet": 4952,
      "alo": 4953,
      "holes": 4954,
      "Something": 4955,
      "played": 4956,
      "dropped": 4957,
      "towards": 4958,
      "HE": 4959,
      "Im": 4960,
      "Say": 4961,
      "bay": 4962,
      "kick": 4963,
      "shr": 4964,
      "amid": 4965,
      "blank": 4966,
      "flames": 4967,
      "silk": 4968,
      "painting": 4969,
      "screen": 4970,
      "Perhaps": 4971,
      "dish": 4972,
      "sort": 4973,
      "ady": 4974,
      "blade": 4975,
      "Spe": 4976,
      "onder": 4977,
      "def": 4978,
      "vern": 4979,
      "size": 4980,
      "ucked": 4981,
      "visit": 4982,
      "kissed": 4983,
      "bought": 4984,
      "lack": 4985,
      "orig": 4986,
      "uts": 4987,
      "haun": 4988,
      "prac": 4989,
      "opens": 4990,
      "plane": 4991,
      "mourn": 4992,
      "Give": 4993,
      "bble": 4994,
      "oul": 4995,
      "ress": 4996,
      "thern": 4997,
      "knowledge": 4998,
      "speed": 4999
    },
    "merges": [
      [
        "t",
        "h"
      ],
      [
        "i",
        "n"
      ],
      [
        "th",
        "e"
      ],
      [
        "a",
        "n"
      ],
      [
        "e",
        "r"
      ],
      [
        "o",
        "u"
      ],
      [
        "r",
        "e"
      ],
      [
        "o",
        "n"
      ],
      [
        "in",
        "g"
      ],
      [
        "e",
        "n"
      ],
      [
        "s",
        "t"
      ],
      [
        "a",
        "t"
      ],
      [
        "e",
        "d"
      ],
      [
        "e",
        "s"
      ],
      [
        "o",
        "r"
      ],
      [
        "a",
        "r"
      ],
      [
        "an",
        "d"
      ],
      [
        "t",
        "o"
      ],
      [
        "i",
        "s"
      ],
      [
        "o",
        "f"
      ],
      [
        "l",
        "l"
      ],
      [
        "i",
        "t"
      ],
      [
        "h",
        "e"
      ],
      [
        "a",
        "s"
      ],
      [
        "o",
        "w"
      ],
      [
        "l",
        "e"
      ],
      [
        "m",
        "e"
      ],
      [
        "s",
        "e"
      ],
      [
        "l",
        "i"
      ],
      [
        "c",
        "h"
      ],
      [
        "g",
        "h"
      ],
      [
        "r",
        "o"
      ],
      [
        "w",
        "h"
      ],
      [
        "b",
        "e"
      ],
      [
        "v",
        "e"
      ],
      [
        "y",
        "ou"
      ],
      [
        "a",
        "l"
      ],
      [
        "a",
        "y"
      ],
      [
        "a",
        "d"
      ],
      [
        "w",
        "i"
      ],
      [
        "l",
        "d"
      ],
      [
        "n",
        "d"
      ],
      [
        "a",
        "c"
      ],
      [
        "i",
        "r"
      ],
      [
        "l",
        "o"
      ],
      [
        "r",
        "i"
      ],
      [
        "k",
        "e"
      ],
      [
        "n",
        "o"
      ],
      [
        "a",
        "ll"
      ],
      [
        "gh",
        "t"
      ],
      [
        "d",
        "e"
      ],
      [
        "v",
        "er"
      ],
      [
        "m",
        "y"
      ],
      [
        "w",
        "e"
      ],
      [
        "u",
        "t"
      ],
      [
        "s",
        "h"
      ],
      [
        "u",
        "n"
      ],
      [
        "f",
        "or"
      ],
      [
        "T",
        "he"
      ],
      [
        "c",
        "e"
      ],
      [
        "t",
        "i"
      ],
      [
        "th",
        "at"
      ],
      [
        "wi",
        "th"
      ],
      [
        "a",
        "m"
      ],
      [
        "er",
        "e"
      ],
      [
        "s",
        "o"
      ],
      [
        "l",
        "y"
      ],
      [
        "c",
        "o"
      ],
      [
        "u",
        "r"
      ],
      [
        "m",
        "o"
      ],
      [
        "e",
        "t"
      ],
      [
        "s",
        "i"
      ],
      [
        "r",
        "a"
      ],
      [
        "on",
        "e"
      ],
      [
        "en",
        "t"
      ],
      [
        "n",
        "e"
      ],
      [
        "o",
        "d"
      ],
      [
        "a",
        "re"
      ],
      [
        "A",
        "nd"
      ],
      [
        "the",
        "r"
      ],
      [
        "a",
        "g"
      ],
      [
        "h",
        "a"
      ],
      [
        "i",
        "d"
      ],
      [
        "f",
        "e"
      ],
      [
        "ro",
        "m"
      ],
      [
        "t",
        "er"
      ],
      [
        "no",
        "t"
      ],
      [
        "s",
        "p"
      ],
      [
        "ou",
        "t"
      ],
      [
        "w",
        "as"
      ],
      [
        "ou",
        "r"
      ],
      [
        "h",
        "is"
      ],
      [
        "c",
        "k"
      ],
      [
        "a",
        "in"
      ],
      [
        "h",
        "o"
      ],
      [
        "h",
        "er"
      ],
      [
        "a",
        "b"
      ],
      [
        "in",
        "d"
      ],
      [
        "n",
        "ow"
      ],
      [
        "es",
        "s"
      ],
      [
        "f",
        "rom"
      ],
      [
        "u",
        "s"
      ],
      [
        "h",
        "i"
      ],
      [
        "on",
        "g"
      ],
      [
        "d",
        "o"
      ],
      [
        "li",
        "ke"
      ],
      [
        "b",
        "l"
      ],
      [
        "u",
        "p"
      ],
      [
        "u",
        "m"
      ],
      [
        "a",
        "p"
      ],
      [
        "T",
        "h"
      ],
      [
        "ou",
        "ld"
      ],
      [
        "i",
        "l"
      ],
      [
        "you",
        "r"
      ],
      [
        "g",
        "o"
      ],
      [
        "ac",
        "k"
      ],
      [
        "a",
        "st"
      ],
      [
        "p",
        "o"
      ],
      [
        "ow",
        "n"
      ],
      [
        "t",
        "e"
      ],
      [
        "an",
        "t"
      ],
      [
        "er",
        "s"
      ],
      [
        "th",
        "ing"
      ],
      [
        "i",
        "ll"
      ],
      [
        "f",
        "o"
      ],
      [
        "p",
        "l"
      ],
      [
        "i",
        "ght"
      ],
      [
        "w",
        "or"
      ],
      [
        "i",
        "c"
      ],
      [
        "r",
        "ou"
      ],
      [
        "a",
        "k"
      ],
      [
        "ar",
        "d"
      ],
      [
        "th",
        "is"
      ],
      [
        "w",
        "ay"
      ],
      [
        "i",
        "on"
      ],
      [
        "o",
        "m"
      ],
      [
        "i",
        "f"
      ],
      [
        "u",
        "st"
      ],
      [
        "p",
        "e"
      ],
      [
        "b",
        "y"
      ],
      [
        "W",
        "h"
      ],
      [
        "g",
        "e"
      ],
      [
        "u",
        "e"
      ],
      [
        "ar",
        "t"
      ],
      [
        "en",
        "d"
      ],
      [
        "e",
        "p"
      ],
      [
        "b",
        "ut"
      ],
      [
        "u",
        "l"
      ],
      [
        "s",
        "a"
      ],
      [
        "the",
        "y"
      ],
      [
        "b",
        "o"
      ],
      [
        "t",
        "r"
      ],
      [
        "ha",
        "ve"
      ],
      [
        "c",
        "an"
      ],
      [
        "the",
        "ir"
      ],
      [
        "wh",
        "o"
      ],
      [
        "it",
        "s"
      ],
      [
        "ac",
        "e"
      ],
      [
        "o",
        "k"
      ],
      [
        "f",
        "l"
      ],
      [
        "e",
        "ar"
      ],
      [
        "s",
        "he"
      ],
      [
        "in",
        "e"
      ],
      [
        "d",
        "i"
      ],
      [
        "u",
        "re"
      ],
      [
        "o",
        "p"
      ],
      [
        "a",
        "u"
      ],
      [
        "e",
        "m"
      ],
      [
        "c",
        "on"
      ],
      [
        "g",
        "r"
      ],
      [
        "e",
        "l"
      ],
      [
        "wh",
        "at"
      ],
      [
        "m",
        "an"
      ],
      [
        "v",
        "es"
      ],
      [
        "li",
        "ght"
      ],
      [
        "v",
        "en"
      ],
      [
        "so",
        "me"
      ],
      [
        "e",
        "ver"
      ],
      [
        "a",
        "ch"
      ],
      [
        "t",
        "s"
      ],
      [
        "the",
        "re"
      ],
      [
        "at",
        "e"
      ],
      [
        "d",
        "ay"
      ],
      [
        "wi",
        "ll"
      ],
      [
        "in",
        "to"
      ],
      [
        "ou",
        "nd"
      ],
      [
        "a",
        "ke"
      ],
      [
        "s",
        "s"
      ],
      [
        "wh",
        "en"
      ],
      [
        "k",
        "now"
      ],
      [
        "i",
        "m"
      ],
      [
        "ou",
        "s"
      ],
      [
        "f",
        "i"
      ],
      [
        "a",
        "th"
      ],
      [
        "I",
        "n"
      ],
      [
        "se",
        "l"
      ],
      [
        "q",
        "u"
      ],
      [
        "s",
        "c"
      ],
      [
        "wh",
        "ere"
      ],
      [
        "in",
        "k"
      ],
      [
        "ur",
        "n"
      ],
      [
        "it",
        "e"
      ],
      [
        "wh",
        "i"
      ],
      [
        "co",
        "m"
      ],
      [
        "the",
        "m"
      ],
      [
        "ar",
        "k"
      ],
      [
        "as",
        "s"
      ],
      [
        "s",
        "u"
      ],
      [
        "e",
        "y"
      ],
      [
        "re",
        "d"
      ],
      [
        "c",
        "l"
      ],
      [
        "a",
        "me"
      ],
      [
        "o",
        "ther"
      ],
      [
        "th",
        "ou"
      ],
      [
        "w",
        "o"
      ],
      [
        "e",
        "x"
      ],
      [
        "is",
        "h"
      ],
      [
        "lo",
        "ve"
      ],
      [
        "a",
        "f"
      ],
      [
        "b",
        "re"
      ],
      [
        "s",
        "ay"
      ],
      [
        "an",
        "g"
      ],
      [
        "rou",
        "gh"
      ],
      [
        "r",
        "u"
      ],
      [
        "w",
        "at"
      ],
      [
        "fo",
        "re"
      ],
      [
        "B",
        "ut"
      ],
      [
        "u",
        "nd"
      ],
      [
        "at",
        "ion"
      ],
      [
        "h",
        "and"
      ],
      [
        "n",
        "ight"
      ],
      [
        "r",
        "y"
      ],
      [
        "p",
        "er"
      ],
      [
        "g",
        "re"
      ],
      [
        "w",
        "ere"
      ],
      [
        "or",
        "n"
      ],
      [
        "hi",
        "m"
      ],
      [
        "s",
        "k"
      ],
      [
        "d",
        "own"
      ],
      [
        "I",
        "t"
      ],
      [
        "t",
        "re"
      ],
      [
        "c",
        "t"
      ],
      [
        "T",
        "o"
      ],
      [
        "h",
        "ow"
      ],
      [
        "o",
        "l"
      ],
      [
        "b",
        "ack"
      ],
      [
        "o",
        "ver"
      ],
      [
        "a",
        "ir"
      ],
      [
        "se",
        "e"
      ],
      [
        "W",
        "e"
      ],
      [
        "l",
        "ong"
      ],
      [
        "h",
        "ad"
      ],
      [
        "H",
        "e"
      ],
      [
        "sel",
        "f"
      ],
      [
        "d",
        "s"
      ],
      [
        "o",
        "t"
      ],
      [
        "i",
        "es"
      ],
      [
        "p",
        "re"
      ],
      [
        "ag",
        "e"
      ],
      [
        "th",
        "rough"
      ],
      [
        "b",
        "r"
      ],
      [
        "ti",
        "me"
      ],
      [
        "it",
        "t"
      ],
      [
        "v",
        "ing"
      ],
      [
        "p",
        "p"
      ],
      [
        "w",
        "ind"
      ],
      [
        "b",
        "le"
      ],
      [
        "b",
        "od"
      ],
      [
        "g",
        "l"
      ],
      [
        "p",
        "s"
      ],
      [
        "w",
        "ould"
      ],
      [
        "it",
        "y"
      ],
      [
        "the",
        "n"
      ],
      [
        "mo",
        "re"
      ],
      [
        "Y",
        "ou"
      ],
      [
        "ag",
        "ain"
      ],
      [
        "u",
        "ll"
      ],
      [
        "b",
        "er"
      ],
      [
        "ad",
        "e"
      ],
      [
        "ar",
        "s"
      ],
      [
        "f",
        "t"
      ],
      [
        "l",
        "ess"
      ],
      [
        "ar",
        "m"
      ],
      [
        "en",
        "ce"
      ],
      [
        "ever",
        "y"
      ],
      [
        "d",
        "re"
      ],
      [
        "ou",
        "n"
      ],
      [
        "c",
        "ould"
      ],
      [
        "S",
        "o"
      ],
      [
        "d",
        "es"
      ],
      [
        "v",
        "ed"
      ],
      [
        "n",
        "ess"
      ],
      [
        "si",
        "de"
      ],
      [
        "co",
        "me"
      ],
      [
        "al",
        "k"
      ],
      [
        "a",
        "w"
      ],
      [
        "i",
        "ld"
      ],
      [
        "m",
        "u"
      ],
      [
        "s",
        "l"
      ],
      [
        "ing",
        "s"
      ],
      [
        "s",
        "un"
      ],
      [
        "ti",
        "on"
      ],
      [
        "lo",
        "ok"
      ],
      [
        "st",
        "ill"
      ],
      [
        "t",
        "urn"
      ],
      [
        "m",
        "ent"
      ],
      [
        "v",
        "i"
      ],
      [
        "ra",
        "in"
      ],
      [
        "he",
        "art"
      ],
      [
        "ow",
        "s"
      ],
      [
        "a",
        "ther"
      ],
      [
        "whi",
        "ch"
      ],
      [
        "g",
        "i"
      ],
      [
        "h",
        "as"
      ],
      [
        "p",
        "t"
      ],
      [
        "w",
        "a"
      ],
      [
        "o",
        "ld"
      ],
      [
        "li",
        "fe"
      ],
      [
        "bod",
        "y"
      ],
      [
        "ne",
        "w"
      ],
      [
        "is",
        "e"
      ],
      [
        "p",
        "ro"
      ],
      [
        "ne",
        "ver"
      ],
      [
        "h",
        "ere"
      ],
      [
        "an",
        "ce"
      ],
      [
        "d",
        "id"
      ],
      [
        "c",
        "r"
      ],
      [
        "w",
        "ant"
      ],
      [
        "p",
        "le"
      ],
      [
        "b",
        "lo"
      ],
      [
        "und",
        "er"
      ],
      [
        "m",
        "er"
      ],
      [
        "M",
        "y"
      ],
      [
        "Th",
        "at"
      ],
      [
        "Wh",
        "en"
      ],
      [
        "i",
        "th"
      ],
      [
        "c",
        "lo"
      ],
      [
        "le",
        "t"
      ],
      [
        "d",
        "ark"
      ],
      [
        "to",
        "o"
      ],
      [
        "d",
        "er"
      ],
      [
        "p",
        "r"
      ],
      [
        "he",
        "ad"
      ],
      [
        "re",
        "ad"
      ],
      [
        "b",
        "u"
      ],
      [
        "O",
        "f"
      ],
      [
        "F",
        "or"
      ],
      [
        "s",
        "ing"
      ],
      [
        "on",
        "ly"
      ],
      [
        "i",
        "g"
      ],
      [
        "c",
        "all"
      ],
      [
        "an",
        "y"
      ],
      [
        "st",
        "re"
      ],
      [
        "ri",
        "ght"
      ],
      [
        "of",
        "f"
      ],
      [
        "st",
        "r"
      ],
      [
        "ey",
        "es"
      ],
      [
        "sp",
        "e"
      ],
      [
        "or",
        "y"
      ],
      [
        "th",
        "an"
      ],
      [
        "c",
        "au"
      ],
      [
        "o",
        "se"
      ],
      [
        "wor",
        "ld"
      ],
      [
        "Wh",
        "at"
      ],
      [
        "ab",
        "le"
      ],
      [
        "itt",
        "le"
      ],
      [
        "s",
        "m"
      ],
      [
        "sa",
        "id"
      ],
      [
        "mo",
        "ther"
      ],
      [
        "c",
        "re"
      ],
      [
        "ab",
        "out"
      ],
      [
        "s",
        "we"
      ],
      [
        "a",
        "ve"
      ],
      [
        "j",
        "ust"
      ],
      [
        "me",
        "m"
      ],
      [
        "g",
        "et"
      ],
      [
        "p",
        "i"
      ],
      [
        "e",
        "ach"
      ],
      [
        "d",
        "is"
      ],
      [
        "af",
        "ter"
      ],
      [
        "y",
        "ear"
      ],
      [
        "wat",
        "er"
      ],
      [
        "e",
        "ven"
      ],
      [
        "si",
        "l"
      ],
      [
        "an",
        "s"
      ],
      [
        "ch",
        "ild"
      ],
      [
        "th",
        "ink"
      ],
      [
        "l",
        "ed"
      ],
      [
        "wh",
        "ite"
      ],
      [
        "The",
        "y"
      ],
      [
        "l",
        "es"
      ],
      [
        "t",
        "ing"
      ],
      [
        "i",
        "st"
      ],
      [
        "c",
        "ar"
      ],
      [
        "m",
        "en"
      ],
      [
        "i",
        "ce"
      ],
      [
        "be",
        "fore"
      ],
      [
        "b",
        "ir"
      ],
      [
        "o",
        "ve"
      ],
      [
        "f",
        "ace"
      ],
      [
        "l",
        "ittle"
      ],
      [
        "bl",
        "ack"
      ],
      [
        "re",
        "e"
      ],
      [
        "w",
        "om"
      ],
      [
        "v",
        "o"
      ],
      [
        "w",
        "ard"
      ],
      [
        ".",
        "."
      ],
      [
        "B",
        "e"
      ],
      [
        "S",
        "he"
      ],
      [
        "t",
        "ain"
      ],
      [
        "a",
        "way"
      ],
      [
        "ir",
        "st"
      ],
      [
        "N",
        "o"
      ],
      [
        "be",
        "t"
      ],
      [
        "c",
        "i"
      ],
      [
        "b",
        "ed"
      ],
      [
        "W",
        "ith"
      ],
      [
        "cau",
        "se"
      ],
      [
        "t",
        "ed"
      ],
      [
        "re",
        "n"
      ],
      [
        "l",
        "and"
      ],
      [
        "c",
        "le"
      ],
      [
        "f",
        "ul"
      ],
      [
        "s",
        "le"
      ],
      [
        "dre",
        "am"
      ],
      [
        "as",
        "h"
      ],
      [
        "b",
        "ro"
      ],
      [
        "c",
        "he"
      ],
      [
        "d",
        "on"
      ],
      [
        "t",
        "en"
      ],
      [
        "q",
        "ue"
      ],
      [
        "be",
        "en"
      ],
      [
        "t",
        "y"
      ],
      [
        "a",
        "ut"
      ],
      [
        "st",
        "e"
      ],
      [
        "st",
        "and"
      ],
      [
        "or",
        "s"
      ],
      [
        "way",
        "s"
      ],
      [
        "rou",
        "nd"
      ],
      [
        "ro",
        "ss"
      ],
      [
        "an",
        "ge"
      ],
      [
        "at",
        "ed"
      ],
      [
        "j",
        "o"
      ],
      [
        "Th",
        "ere"
      ],
      [
        "on",
        "s"
      ],
      [
        "w",
        "alk"
      ],
      [
        "fl",
        "ow"
      ],
      [
        "f",
        "all"
      ],
      [
        "m",
        "ade"
      ],
      [
        "i",
        "ck"
      ],
      [
        "sk",
        "y"
      ],
      [
        "z",
        "e"
      ],
      [
        "m",
        "ake"
      ],
      [
        "ou",
        "gh"
      ],
      [
        "O",
        "n"
      ],
      [
        "thou",
        "ght"
      ],
      [
        "p",
        "h"
      ],
      [
        "te",
        "ll"
      ],
      [
        "d",
        "en"
      ],
      [
        "de",
        "ad"
      ],
      [
        "l",
        "ing"
      ],
      [
        "li",
        "e"
      ],
      [
        "A",
        "s"
      ],
      [
        "w",
        "r"
      ],
      [
        "m",
        "ay"
      ],
      [
        "a",
        "il"
      ],
      [
        "d",
        "r"
      ],
      [
        "op",
        "en"
      ],
      [
        "all",
        "y"
      ],
      [
        "l",
        "s"
      ],
      [
        "or",
        "t"
      ],
      [
        "s",
        "ou"
      ],
      [
        "fe",
        "el"
      ],
      [
        "th",
        "y"
      ],
      [
        "r",
        "ow"
      ],
      [
        "f",
        "irst"
      ],
      [
        "as",
        "k"
      ],
      [
        "l",
        "ast"
      ],
      [
        "ch",
        "o"
      ],
      [
        "ou",
        "se"
      ],
      [
        "L",
        "i"
      ],
      [
        "m",
        "es"
      ],
      [
        "ar",
        "y"
      ],
      [
        "ro",
        "om"
      ],
      [
        "ch",
        "ed"
      ],
      [
        "hand",
        "s"
      ],
      [
        "ho",
        "ld"
      ],
      [
        "go",
        "od"
      ],
      [
        "l",
        "a"
      ],
      [
        "ak",
        "ing"
      ],
      [
        "is",
        "s"
      ],
      [
        "th",
        "ose"
      ],
      [
        "sh",
        "ould"
      ],
      [
        "m",
        "on"
      ],
      [
        "ear",
        "th"
      ],
      [
        "m",
        "ust"
      ],
      [
        "f",
        "ri"
      ],
      [
        "se",
        "a"
      ],
      [
        "f",
        "er"
      ],
      [
        "T",
        "his"
      ],
      [
        "e",
        "ld"
      ],
      [
        "at",
        "ter"
      ],
      [
        "ho",
        "me"
      ],
      [
        "t",
        "wo"
      ],
      [
        "as",
        "e"
      ],
      [
        "p",
        "ass"
      ],
      [
        "e",
        "st"
      ],
      [
        "wor",
        "k"
      ],
      [
        "ll",
        "ow"
      ],
      [
        "n",
        "ing"
      ],
      [
        "tr",
        "y"
      ],
      [
        "no",
        "thing"
      ],
      [
        "thing",
        "s"
      ],
      [
        "ak",
        "es"
      ],
      [
        "the",
        "se"
      ],
      [
        "on",
        "es"
      ],
      [
        "mo",
        "st"
      ],
      [
        "t",
        "ri"
      ],
      [
        "c",
        "ur"
      ],
      [
        "s",
        "ur"
      ],
      [
        "sle",
        "ep"
      ],
      [
        "H",
        "ow"
      ],
      [
        "f",
        "ather"
      ],
      [
        "O",
        "r"
      ],
      [
        "li",
        "ve"
      ],
      [
        "bl",
        "ue"
      ],
      [
        "on",
        "ce"
      ],
      [
        "f",
        "lo"
      ],
      [
        "c",
        "ame"
      ],
      [
        "le",
        "ft"
      ],
      [
        "whi",
        "le"
      ],
      [
        "fi",
        "re"
      ],
      [
        "m",
        "s"
      ],
      [
        "we",
        "ll"
      ],
      [
        "m",
        "ar"
      ],
      [
        "p",
        "ain"
      ],
      [
        "h",
        "ouse"
      ],
      [
        "thou",
        "gh"
      ],
      [
        "li",
        "st"
      ],
      [
        "ver",
        "y"
      ],
      [
        "an",
        "k"
      ],
      [
        "o",
        "re"
      ],
      [
        "en",
        "e"
      ],
      [
        "he",
        "ar"
      ],
      [
        "g",
        "ra"
      ],
      [
        "pl",
        "ace"
      ],
      [
        "man",
        "y"
      ],
      [
        "c",
        "oun"
      ],
      [
        "ou",
        "th"
      ],
      [
        "I",
        "f"
      ],
      [
        "G",
        "od"
      ],
      [
        "mo",
        "on"
      ],
      [
        "s",
        "ound"
      ],
      [
        "g",
        "s"
      ],
      [
        "p",
        "ar"
      ],
      [
        "w",
        "on"
      ],
      [
        "sh",
        "all"
      ],
      [
        "an",
        "other"
      ],
      [
        "en",
        "s"
      ],
      [
        "in",
        "ter"
      ],
      [
        "in",
        "s"
      ],
      [
        "we",
        "en"
      ],
      [
        "p",
        "art"
      ],
      [
        "So",
        "me"
      ],
      [
        "g",
        "u"
      ],
      [
        "w",
        "all"
      ],
      [
        "blo",
        "od"
      ],
      [
        "ne",
        "ed"
      ],
      [
        "W",
        "ho"
      ],
      [
        "t",
        "ra"
      ],
      [
        "m",
        "ind"
      ],
      [
        "r",
        "ing"
      ],
      [
        "n",
        "ame"
      ],
      [
        "ar",
        "ound"
      ],
      [
        "re",
        "st"
      ],
      [
        "p",
        "ed"
      ],
      [
        "op",
        "le"
      ],
      [
        "s",
        "ong"
      ],
      [
        "be",
        "g"
      ],
      [
        "n",
        "g"
      ],
      [
        "le",
        "a"
      ],
      [
        "be",
        "aut"
      ],
      [
        "si",
        "on"
      ],
      [
        "ke",
        "ep"
      ],
      [
        "in",
        "t"
      ],
      [
        "ac",
        "t"
      ],
      [
        "de",
        "ath"
      ],
      [
        "d",
        "ri"
      ],
      [
        "f",
        "ind"
      ],
      [
        "n",
        "i"
      ],
      [
        "y",
        "et"
      ],
      [
        "m",
        "ight"
      ],
      [
        "year",
        "s"
      ],
      [
        "l",
        "ow"
      ],
      [
        "u",
        "d"
      ],
      [
        "up",
        "on"
      ],
      [
        "i",
        "de"
      ],
      [
        "ha",
        "pp"
      ],
      [
        "A",
        "n"
      ],
      [
        "ch",
        "es"
      ],
      [
        "mu",
        "ch"
      ],
      [
        "with",
        "out"
      ],
      [
        "o",
        "s"
      ],
      [
        "a",
        "v"
      ],
      [
        "sh",
        "ad"
      ],
      [
        "A",
        "ll"
      ],
      [
        "li",
        "m"
      ],
      [
        "gre",
        "en"
      ],
      [
        "swe",
        "et"
      ],
      [
        "some",
        "thing"
      ],
      [
        "a",
        "le"
      ],
      [
        "ra",
        "w"
      ],
      [
        "be",
        "cause"
      ],
      [
        "ti",
        "mes"
      ],
      [
        "bo",
        "y"
      ],
      [
        "p",
        "ri"
      ],
      [
        "t",
        "ake"
      ],
      [
        "wom",
        "an"
      ],
      [
        "mem",
        "ber"
      ],
      [
        "m",
        "outh"
      ],
      [
        "h",
        "um"
      ],
      [
        "f",
        "ull"
      ],
      [
        "at",
        "ing"
      ],
      [
        "ll",
        "s"
      ],
      [
        "do",
        "es"
      ],
      [
        "bet",
        "ween"
      ],
      [
        "m",
        "orn"
      ],
      [
        "n",
        "or"
      ],
      [
        "u",
        "ck"
      ],
      [
        "ti",
        "c"
      ],
      [
        "se",
        "t"
      ],
      [
        "in",
        "es"
      ],
      [
        "ti",
        "l"
      ],
      [
        "Th",
        "en"
      ],
      [
        "al",
        "ways"
      ],
      [
        "s",
        "er"
      ],
      [
        "Wh",
        "ere"
      ],
      [
        "fri",
        "end"
      ],
      [
        "un",
        "g"
      ],
      [
        "an",
        "c"
      ],
      [
        "y",
        "e"
      ],
      [
        "po",
        "em"
      ],
      [
        "f",
        "ar"
      ],
      [
        "s",
        "um"
      ],
      [
        "ha",
        "ir"
      ],
      [
        "go",
        "t"
      ],
      [
        "st",
        "er"
      ],
      [
        "pe",
        "ople"
      ],
      [
        "sm",
        "all"
      ],
      [
        "hi",
        "gh"
      ],
      [
        "al",
        "s"
      ],
      [
        "wo",
        "od"
      ],
      [
        "again",
        "st"
      ],
      [
        "ab",
        "ove"
      ],
      [
        "c",
        "or"
      ],
      [
        "go",
        "ld"
      ],
      [
        "au",
        "ght"
      ],
      [
        "wor",
        "ds"
      ],
      [
        "day",
        "s"
      ],
      [
        "qu",
        "i"
      ],
      [
        "v",
        "is"
      ],
      [
        "e",
        "f"
      ],
      [
        "at",
        "s"
      ],
      [
        "e",
        "k"
      ],
      [
        "c",
        "ent"
      ],
      [
        "ch",
        "ing"
      ],
      [
        "b",
        "urn"
      ],
      [
        "h",
        "al"
      ],
      [
        "ri",
        "ver"
      ],
      [
        "p",
        "ast"
      ],
      [
        "ck",
        "s"
      ],
      [
        "on",
        "d"
      ],
      [
        "po",
        "s"
      ],
      [
        "b",
        "ri"
      ],
      [
        "f",
        "in"
      ],
      [
        "se",
        "em"
      ],
      [
        "gre",
        "at"
      ],
      [
        "pl",
        "ay"
      ],
      [
        "sh",
        "i"
      ],
      [
        "fi",
        "eld"
      ],
      [
        "wor",
        "d"
      ],
      [
        "sa",
        "w"
      ],
      [
        "re",
        "member"
      ],
      [
        "b",
        "s"
      ],
      [
        "g",
        "n"
      ],
      [
        "r",
        "un"
      ],
      [
        "c",
        "tion"
      ],
      [
        "tre",
        "es"
      ],
      [
        "W",
        "hi"
      ],
      [
        "ey",
        "e"
      ],
      [
        "m",
        "in"
      ],
      [
        "wa",
        "it"
      ],
      [
        "t",
        "ou"
      ],
      [
        "c",
        "ri"
      ],
      [
        "do",
        "or"
      ],
      [
        "co",
        "l"
      ],
      [
        "et",
        "s"
      ],
      [
        "in",
        "side"
      ],
      [
        "f",
        "r"
      ],
      [
        "A",
        "t"
      ],
      [
        "st",
        "o"
      ],
      [
        "g",
        "ir"
      ],
      [
        "de",
        "ep"
      ],
      [
        "h",
        "our"
      ],
      [
        "m",
        "a"
      ],
      [
        "be",
        "ing"
      ],
      [
        "Li",
        "ke"
      ],
      [
        "morn",
        "ing"
      ],
      [
        "tre",
        "e"
      ],
      [
        "b",
        "ar"
      ],
      [
        "cl",
        "ou"
      ],
      [
        "k",
        "ind"
      ],
      [
        "h",
        "ind"
      ],
      [
        "D",
        "e"
      ],
      [
        "pp",
        "ed"
      ],
      [
        "f",
        "f"
      ],
      [
        "-",
        "-"
      ],
      [
        "co",
        "ld"
      ],
      [
        "h",
        "or"
      ],
      [
        "my",
        "self"
      ],
      [
        "w",
        "ent"
      ],
      [
        ".",
        "”"
      ],
      [
        "er",
        "ed"
      ],
      [
        "t",
        "in"
      ],
      [
        "sa",
        "me"
      ],
      [
        "list",
        "en"
      ],
      [
        "b",
        "it"
      ],
      [
        "F",
        "rom"
      ],
      [
        "I",
        "s"
      ],
      [
        "h",
        "ard"
      ],
      [
        "s",
        "now"
      ],
      [
        "of",
        "t"
      ],
      [
        "m",
        "i"
      ],
      [
        "sou",
        "l"
      ],
      [
        "l",
        "it"
      ],
      [
        "s",
        "li"
      ],
      [
        "me",
        "an"
      ],
      [
        "a",
        "ven"
      ],
      [
        "gi",
        "ve"
      ],
      [
        "g",
        "g"
      ],
      [
        "j",
        "e"
      ],
      [
        "n",
        "ed"
      ],
      [
        "st",
        "s"
      ],
      [
        "child",
        "ren"
      ],
      [
        "i",
        "ous"
      ],
      [
        "st",
        "op"
      ],
      [
        "l",
        "t"
      ],
      [
        "for",
        "m"
      ],
      [
        "st",
        "ar"
      ],
      [
        "g",
        "ri"
      ],
      [
        "lea",
        "ves"
      ],
      [
        "d",
        "y"
      ],
      [
        "i",
        "ly"
      ],
      [
        "t",
        "end"
      ],
      [
        "fe",
        "et"
      ],
      [
        "g",
        "one"
      ],
      [
        "ac",
        "es"
      ],
      [
        "say",
        "s"
      ],
      [
        "e",
        "w"
      ],
      [
        "ac",
        "ross"
      ],
      [
        "com",
        "es"
      ],
      [
        "d",
        "ro"
      ],
      [
        "ke",
        "t"
      ],
      [
        "c",
        "er"
      ],
      [
        "c",
        "are"
      ],
      [
        "p",
        "ut"
      ],
      [
        "vo",
        "ice"
      ],
      [
        "li",
        "es"
      ],
      [
        "w",
        "ar"
      ],
      [
        "st",
        "or"
      ],
      [
        "i",
        "ve"
      ],
      [
        "C",
        "h"
      ],
      [
        "k",
        "en"
      ],
      [
        "u",
        "sh"
      ],
      [
        "s",
        "mo"
      ],
      [
        "at",
        "ure"
      ],
      [
        "st",
        "ory"
      ],
      [
        "O",
        "ne"
      ],
      [
        "ro",
        "ad"
      ],
      [
        "un",
        "til"
      ],
      [
        "s",
        "ent"
      ],
      [
        "c",
        "al"
      ],
      [
        "N",
        "ot"
      ],
      [
        "H",
        "is"
      ],
      [
        "S",
        "t"
      ],
      [
        "wind",
        "ow"
      ],
      [
        "l",
        "ay"
      ],
      [
        "su",
        "ch"
      ],
      [
        "the",
        "e"
      ],
      [
        "lo",
        "st"
      ],
      [
        "oun",
        "tain"
      ],
      [
        "st",
        "ri"
      ],
      [
        "sk",
        "in"
      ],
      [
        "N",
        "ow"
      ],
      [
        "be",
        "hind"
      ],
      [
        "al",
        "one"
      ],
      [
        "x",
        "t"
      ],
      [
        "m",
        "id"
      ],
      [
        "f",
        "ing"
      ],
      [
        "st",
        "ars"
      ],
      [
        "bre",
        "ath"
      ],
      [
        "are",
        "d"
      ],
      [
        "c",
        "ap"
      ],
      [
        "f",
        "re"
      ],
      [
        "g",
        "round"
      ],
      [
        "c",
        "at"
      ],
      [
        "er",
        "ing"
      ],
      [
        "sh",
        "o"
      ],
      [
        "bo",
        "ok"
      ],
      [
        "l",
        "ine"
      ],
      [
        "en",
        "ough"
      ],
      [
        "gr",
        "ass"
      ],
      [
        "s",
        "w"
      ],
      [
        "us",
        "ed"
      ],
      [
        "sl",
        "ow"
      ],
      [
        "you",
        "ng"
      ],
      [
        "i",
        "gh"
      ],
      [
        "s",
        "y"
      ],
      [
        "u",
        "b"
      ],
      [
        "to",
        "w"
      ],
      [
        "ru",
        "sh"
      ],
      [
        "f",
        "ill"
      ],
      [
        "arm",
        "s"
      ],
      [
        "a",
        "z"
      ],
      [
        "at",
        "es"
      ],
      [
        "k",
        "new"
      ],
      [
        "p",
        "en"
      ],
      [
        "b",
        "right"
      ],
      [
        "p",
        "ur"
      ],
      [
        "c",
        "ut"
      ],
      [
        "f",
        "ound"
      ],
      [
        "i",
        "re"
      ],
      [
        "mo",
        "ment"
      ],
      [
        "hal",
        "f"
      ],
      [
        "o",
        "b"
      ],
      [
        "gr",
        "ow"
      ],
      [
        "ne",
        "ar"
      ],
      [
        "lo",
        "ved"
      ],
      [
        "ti",
        "ll"
      ],
      [
        "p",
        "ing"
      ],
      [
        "or",
        "d"
      ],
      [
        "wi",
        "ld"
      ],
      [
        "L",
        "et"
      ],
      [
        "m",
        "ir"
      ],
      [
        "se",
        "en"
      ],
      [
        "di",
        "e"
      ],
      [
        "f",
        "le"
      ],
      [
        "at",
        "er"
      ],
      [
        "sel",
        "ves"
      ],
      [
        "s",
        "in"
      ],
      [
        "to",
        "ward"
      ],
      [
        "c",
        "ry"
      ],
      [
        "D",
        "o"
      ],
      [
        "be",
        "lie"
      ],
      [
        "bir",
        "d"
      ],
      [
        "i",
        "e"
      ],
      [
        "ap",
        "pe"
      ],
      [
        "spe",
        "ak"
      ],
      [
        "jo",
        "y"
      ],
      [
        "al",
        "ong"
      ],
      [
        "g",
        "od"
      ],
      [
        "who",
        "se"
      ],
      [
        "le",
        "ar"
      ],
      [
        "st",
        "ep"
      ],
      [
        "gl",
        "ass"
      ],
      [
        "c",
        "ity"
      ],
      [
        "te",
        "m"
      ],
      [
        "wh",
        "y"
      ],
      [
        "bre",
        "ak"
      ],
      [
        "n",
        "er"
      ],
      [
        "t",
        "ong"
      ],
      [
        "c",
        "es"
      ],
      [
        "did",
        "n"
      ],
      [
        "ver",
        "s"
      ],
      [
        "am",
        "es"
      ],
      [
        "ene",
        "ath"
      ],
      [
        "si",
        "c"
      ],
      [
        "aw",
        "n"
      ],
      [
        "am",
        "p"
      ],
      [
        "di",
        "st"
      ],
      [
        "m",
        "is"
      ],
      [
        "every",
        "thing"
      ],
      [
        "ation",
        "s"
      ],
      [
        "sum",
        "mer"
      ],
      [
        "b",
        "ur"
      ],
      [
        "f",
        "ree"
      ],
      [
        "s",
        "n"
      ],
      [
        "can",
        "not"
      ],
      [
        "s",
        "oft"
      ],
      [
        "S",
        "e"
      ],
      [
        "flow",
        "ers"
      ],
      [
        "t",
        "le"
      ],
      [
        "a",
        "h"
      ],
      [
        "p",
        "or"
      ],
      [
        "s",
        "on"
      ],
      [
        "d",
        "ing"
      ],
      [
        "st",
        "one"
      ],
      [
        "he",
        "ard"
      ],
      [
        "it",
        "self"
      ],
      [
        "m",
        "ed"
      ],
      [
        "ck",
        "ed"
      ],
      [
        "u",
        "se"
      ],
      [
        "re",
        "turn"
      ],
      [
        "a",
        "li"
      ],
      [
        "clo",
        "se"
      ],
      [
        "pr",
        "ay"
      ],
      [
        "m",
        "ine"
      ],
      [
        "some",
        "one"
      ],
      [
        "f",
        "am"
      ],
      [
        "p",
        "et"
      ],
      [
        "li",
        "c"
      ],
      [
        "it",
        "ch"
      ],
      [
        "read",
        "y"
      ],
      [
        "p",
        "ers"
      ],
      [
        "H",
        "er"
      ],
      [
        "ow",
        "er"
      ],
      [
        "w",
        "he"
      ],
      [
        "t",
        "alk"
      ],
      [
        "c",
        "ross"
      ],
      [
        "as",
        "ure"
      ],
      [
        "p",
        "an"
      ],
      [
        "r",
        "is"
      ],
      [
        "en",
        "ed"
      ],
      [
        "ir",
        "t"
      ],
      [
        "ang",
        "u"
      ],
      [
        "b",
        "orn"
      ],
      [
        "pre",
        "ss"
      ],
      [
        "d",
        "ust"
      ],
      [
        "st",
        "art"
      ],
      [
        "ar",
        "ing"
      ],
      [
        "ve",
        "l"
      ],
      [
        "sp",
        "ir"
      ],
      [
        "h",
        "y"
      ],
      [
        "b",
        "or"
      ],
      [
        "A",
        "l"
      ],
      [
        "Y",
        "our"
      ],
      [
        "im",
        "ag"
      ],
      [
        "m",
        "ountain"
      ],
      [
        "U",
        "n"
      ],
      [
        "R",
        "e"
      ],
      [
        "c",
        "ed"
      ],
      [
        "gir",
        "l"
      ],
      [
        "m",
        "il"
      ],
      [
        "li",
        "ps"
      ],
      [
        "ri",
        "ed"
      ],
      [
        "ge",
        "ther"
      ],
      [
        "l",
        "au"
      ],
      [
        "i",
        "le"
      ],
      [
        "me",
        "t"
      ],
      [
        "wat",
        "ch"
      ],
      [
        "f",
        "ly"
      ],
      [
        "k",
        "ing"
      ],
      [
        "b",
        "es"
      ],
      [
        "al",
        "t"
      ],
      [
        "ish",
        "ed"
      ],
      [
        "le",
        "ave"
      ],
      [
        "shad",
        "ow"
      ],
      [
        "fo",
        "ot"
      ],
      [
        "sh",
        "ap"
      ],
      [
        "g",
        "ard"
      ],
      [
        "s",
        "en"
      ],
      [
        "ion",
        "s"
      ],
      [
        "o",
        "me"
      ],
      [
        "bir",
        "ds"
      ],
      [
        "if",
        "ul"
      ],
      [
        "di",
        "ed"
      ],
      [
        "fe",
        "ar"
      ],
      [
        "i",
        "z"
      ],
      [
        "r",
        "or"
      ],
      [
        "b",
        "ow"
      ],
      [
        "li",
        "ving"
      ],
      [
        "in",
        "ess"
      ],
      [
        "k",
        "iss"
      ],
      [
        "p",
        "al"
      ],
      [
        "go",
        "ing"
      ],
      [
        ".",
        "\""
      ],
      [
        "th",
        "ro"
      ],
      [
        "su",
        "b"
      ],
      [
        "th",
        "ree"
      ],
      [
        "u",
        "g"
      ],
      [
        "s",
        "or"
      ],
      [
        "to",
        "m"
      ],
      [
        "co",
        "ver"
      ],
      [
        "em",
        "pt"
      ],
      [
        "si",
        "gn"
      ],
      [
        "am",
        "ong"
      ],
      [
        "tr",
        "an"
      ],
      [
        "li",
        "ck"
      ],
      [
        "d",
        "if"
      ],
      [
        "call",
        "ed"
      ],
      [
        "to",
        "ld"
      ],
      [
        "to",
        "gether"
      ],
      [
        "b",
        "eneath"
      ],
      [
        "re",
        "ach"
      ],
      [
        "com",
        "ing"
      ],
      [
        "c",
        "our"
      ],
      [
        "e",
        "v"
      ],
      [
        "f",
        "ra"
      ],
      [
        "g",
        "ed"
      ],
      [
        "el",
        "se"
      ],
      [
        "i",
        "a"
      ],
      [
        "b",
        "ab"
      ],
      [
        "s",
        "wi"
      ],
      [
        "l",
        "ate"
      ],
      [
        "he",
        "l"
      ],
      [
        "ro",
        "ll"
      ],
      [
        "ter",
        "s"
      ],
      [
        "aught",
        "er"
      ],
      [
        "t",
        "wi"
      ],
      [
        "g",
        "en"
      ],
      [
        "s",
        "and"
      ],
      [
        "sil",
        "ence"
      ],
      [
        "c",
        "a"
      ],
      [
        "t",
        "on"
      ],
      [
        "tou",
        "ch"
      ],
      [
        "w",
        "arm"
      ],
      [
        "ant",
        "s"
      ],
      [
        "s",
        "up"
      ],
      [
        "mu",
        "sic"
      ],
      [
        "c",
        "orn"
      ],
      [
        "tr",
        "u"
      ],
      [
        "c",
        "y"
      ],
      [
        "B",
        "y"
      ],
      [
        "ed",
        "s"
      ],
      [
        "L",
        "o"
      ],
      [
        "wom",
        "en"
      ],
      [
        "i",
        "an"
      ],
      [
        "O",
        "ur"
      ],
      [
        "stre",
        "et"
      ],
      [
        "d",
        "raw"
      ],
      [
        "s",
        "ad"
      ],
      [
        "sto",
        "od"
      ],
      [
        "c",
        "ir"
      ],
      [
        "ne",
        "xt"
      ],
      [
        "tr",
        "ue"
      ],
      [
        "gr",
        "and"
      ],
      [
        "p",
        "ull"
      ],
      [
        "hum",
        "an"
      ],
      [
        "w",
        "inter"
      ],
      [
        "he",
        "aven"
      ],
      [
        "lau",
        "gh"
      ],
      [
        "p",
        "at"
      ],
      [
        "he",
        "ld"
      ],
      [
        "mo",
        "ve"
      ],
      [
        "N",
        "or"
      ],
      [
        "m",
        "ur"
      ],
      [
        "ent",
        "s"
      ],
      [
        "st",
        "ay"
      ],
      [
        "won",
        "der"
      ],
      [
        "s",
        "me"
      ],
      [
        "sh",
        "ow"
      ],
      [
        "beaut",
        "y"
      ],
      [
        "to",
        "ok"
      ],
      [
        "one",
        "y"
      ],
      [
        "look",
        "ing"
      ],
      [
        "S",
        "h"
      ],
      [
        "be",
        "ll"
      ],
      [
        "pl",
        "an"
      ],
      [
        "l",
        "angu"
      ],
      [
        "re",
        "m"
      ],
      [
        "beaut",
        "iful"
      ],
      [
        "f",
        "a"
      ],
      [
        "st",
        "ru"
      ],
      [
        "bro",
        "ken"
      ],
      [
        "in",
        "ed"
      ],
      [
        "m",
        "akes"
      ],
      [
        "s",
        "ed"
      ],
      [
        "ro",
        "se"
      ],
      [
        "pl",
        "ain"
      ],
      [
        "who",
        "le"
      ],
      [
        "as",
        "on"
      ],
      [
        "ul",
        "t"
      ],
      [
        "en",
        "g"
      ],
      [
        "ho",
        "pe"
      ],
      [
        "m",
        "ing"
      ],
      [
        "f",
        "ish"
      ],
      [
        "H",
        "ere"
      ],
      [
        "tong",
        "ue"
      ],
      [
        "g",
        "a"
      ],
      [
        "dre",
        "ss"
      ],
      [
        "re",
        "al"
      ],
      [
        "be",
        "st"
      ],
      [
        "ste",
        "ad"
      ],
      [
        "fo",
        "ld"
      ],
      [
        "qui",
        "et"
      ],
      [
        "tow",
        "n"
      ],
      [
        "cle",
        "ar"
      ],
      [
        "um",
        "b"
      ],
      [
        "u",
        "al"
      ],
      [
        "ut",
        "e"
      ],
      [
        "empt",
        "y"
      ],
      [
        "p",
        "ath"
      ],
      [
        "on",
        "t"
      ],
      [
        "turn",
        "ed"
      ],
      [
        "h",
        "ur"
      ],
      [
        "f",
        "ro"
      ],
      [
        "f",
        "air"
      ],
      [
        "re",
        "s"
      ],
      [
        "shi",
        "p"
      ],
      [
        "b",
        "all"
      ],
      [
        "dream",
        "s"
      ],
      [
        "u",
        "es"
      ],
      [
        "O",
        "h"
      ],
      [
        "b",
        "ra"
      ],
      [
        "e",
        "le"
      ],
      [
        "ri",
        "st"
      ],
      [
        "bet",
        "ter"
      ],
      [
        "bre",
        "a"
      ],
      [
        "coun",
        "try"
      ],
      [
        "d",
        "one"
      ],
      [
        "B",
        "l"
      ],
      [
        ",",
        "”"
      ],
      [
        "t",
        "able"
      ],
      [
        "fl",
        "es"
      ],
      [
        "s",
        "it"
      ],
      [
        "bo",
        "th"
      ],
      [
        "es",
        "e"
      ],
      [
        "ye",
        "llow"
      ],
      [
        "E",
        "very"
      ],
      [
        "M",
        "ay"
      ],
      [
        "s",
        "es"
      ],
      [
        "sp",
        "ring"
      ],
      [
        "r",
        "ise"
      ],
      [
        "co",
        "ll"
      ],
      [
        "ho",
        "od"
      ],
      [
        "b",
        "ig"
      ],
      [
        "o",
        "st"
      ],
      [
        "l",
        "ar"
      ],
      [
        "p",
        "ap"
      ],
      [
        "ct",
        "ed"
      ],
      [
        "c",
        "u"
      ],
      [
        "k",
        "s"
      ],
      [
        ",",
        "—"
      ],
      [
        "m",
        "ist"
      ],
      [
        "be",
        "y"
      ],
      [
        "is",
        "ed"
      ],
      [
        "sp",
        "ace"
      ],
      [
        "d",
        "den"
      ],
      [
        "il",
        "ing"
      ],
      [
        "Whi",
        "ch"
      ],
      [
        "flow",
        "er"
      ],
      [
        "w",
        "ings"
      ],
      [
        "k",
        "ne"
      ],
      [
        "po",
        "et"
      ],
      [
        "e",
        "th"
      ],
      [
        "g",
        "ent"
      ],
      [
        "ic",
        "t"
      ],
      [
        "clou",
        "ds"
      ],
      [
        "w",
        "ing"
      ],
      [
        "mem",
        "ory"
      ],
      [
        "g",
        "ar"
      ],
      [
        "f",
        "ur"
      ],
      [
        "for",
        "get"
      ],
      [
        "dr",
        "ink"
      ],
      [
        "b",
        "and"
      ],
      [
        "dark",
        "ness"
      ],
      [
        "p",
        "ort"
      ],
      [
        "know",
        "n"
      ],
      [
        "ar",
        "ch"
      ],
      [
        "g",
        "er"
      ],
      [
        "ag",
        "es"
      ],
      [
        "r",
        "an"
      ],
      [
        "lo",
        "t"
      ],
      [
        "th",
        "s"
      ],
      [
        "th",
        "r"
      ],
      [
        "am",
        "ed"
      ],
      [
        "light",
        "s"
      ],
      [
        "f",
        "ast"
      ],
      [
        "l",
        "ad"
      ],
      [
        "fe",
        "w"
      ],
      [
        "w",
        "ish"
      ],
      [
        "m",
        "atter"
      ],
      [
        "am",
        "s"
      ],
      [
        "br",
        "own"
      ],
      [
        "beg",
        "in"
      ],
      [
        "li",
        "ft"
      ],
      [
        "ho",
        "t"
      ],
      [
        "want",
        "ed"
      ],
      [
        "e",
        "at"
      ],
      [
        "s",
        "ure"
      ],
      [
        "bod",
        "ies"
      ],
      [
        "with",
        "in"
      ],
      [
        "ag",
        "o"
      ],
      [
        "h",
        "ar"
      ],
      [
        "it",
        "ion"
      ],
      [
        "ak",
        "ed"
      ],
      [
        "sil",
        "ver"
      ],
      [
        "I",
        "I"
      ],
      [
        "g",
        "ro"
      ],
      [
        "do",
        "g"
      ],
      [
        "o",
        "ce"
      ],
      [
        "ang",
        "er"
      ],
      [
        "bro",
        "ther"
      ],
      [
        "are",
        "n"
      ],
      [
        "go",
        "es"
      ],
      [
        "al",
        "so"
      ],
      [
        "un",
        "e"
      ],
      [
        "E",
        "n"
      ],
      [
        "bre",
        "ast"
      ],
      [
        "wh",
        "is"
      ],
      [
        "end",
        "s"
      ],
      [
        "f",
        "ru"
      ],
      [
        "mer",
        "ic"
      ],
      [
        "h",
        "id"
      ],
      [
        "o",
        "h"
      ],
      [
        "que",
        "st"
      ],
      [
        "L",
        "ove"
      ],
      [
        "s",
        "at"
      ],
      [
        "k",
        "ill"
      ],
      [
        "fe",
        "lt"
      ],
      [
        "n",
        "y"
      ],
      [
        "A",
        "meric"
      ],
      [
        "fe",
        "ll"
      ],
      [
        "se",
        "cre"
      ],
      [
        "al",
        "most"
      ],
      [
        "ard",
        "s"
      ],
      [
        "know",
        "s"
      ],
      [
        "fles",
        "h"
      ],
      [
        "Wh",
        "y"
      ],
      [
        "pp",
        "ing"
      ],
      [
        "Be",
        "cause"
      ],
      [
        "p",
        "a"
      ],
      [
        "rou",
        "ght"
      ],
      [
        "m",
        "ag"
      ],
      [
        "so",
        "l"
      ],
      [
        "ure",
        "s"
      ],
      [
        "sh",
        "ore"
      ],
      [
        "d",
        "le"
      ],
      [
        "d",
        "ed"
      ],
      [
        "dif",
        "fer"
      ],
      [
        "h",
        "un"
      ],
      [
        "li",
        "ves"
      ],
      [
        "fo",
        "llow"
      ],
      [
        "l",
        "one"
      ],
      [
        "con",
        "d"
      ],
      [
        "look",
        "ed"
      ],
      [
        "fing",
        "ers"
      ],
      [
        "ans",
        "w"
      ],
      [
        "b",
        "us"
      ],
      [
        "p",
        "ul"
      ],
      [
        "bl",
        "ing"
      ],
      [
        "p",
        "as"
      ],
      [
        "si",
        "m"
      ],
      [
        "fe",
        "ct"
      ],
      [
        "il",
        "ed"
      ],
      [
        "ak",
        "en"
      ],
      [
        "sil",
        "ent"
      ],
      [
        "c",
        "ast"
      ],
      [
        "p",
        "es"
      ],
      [
        "p",
        "ower"
      ],
      [
        "be",
        "come"
      ],
      [
        "ig",
        "n"
      ],
      [
        "langu",
        "age"
      ],
      [
        "d",
        "ra"
      ],
      [
        "ed",
        "ge"
      ],
      [
        "hi",
        "ll"
      ],
      [
        "b",
        "are"
      ],
      [
        "i",
        "ther"
      ],
      [
        "no",
        "on"
      ],
      [
        "wait",
        "ing"
      ],
      [
        "z",
        "z"
      ],
      [
        "col",
        "or"
      ],
      [
        "h",
        "ang"
      ],
      [
        "bey",
        "ond"
      ],
      [
        "c",
        "up"
      ],
      [
        "so",
        "on"
      ],
      [
        "si",
        "ght"
      ],
      [
        "te",
        "ars"
      ],
      [
        "b",
        "ones"
      ],
      [
        "er",
        "n"
      ],
      [
        "su",
        "dden"
      ],
      [
        "g",
        "es"
      ],
      [
        "t",
        "rain"
      ],
      [
        "gr",
        "ay"
      ],
      [
        "ous",
        "and"
      ],
      [
        "br",
        "ing"
      ],
      [
        "bo",
        "t"
      ],
      [
        "o",
        "ts"
      ],
      [
        "r",
        "ay"
      ],
      [
        "flo",
        "or"
      ],
      [
        "we",
        "l"
      ],
      [
        "to",
        "p"
      ],
      [
        "belie",
        "ve"
      ],
      [
        "sc",
        "re"
      ],
      [
        "i",
        "al"
      ],
      [
        "spir",
        "it"
      ],
      [
        "s",
        "qu"
      ],
      [
        "r",
        "at"
      ],
      [
        "d",
        "ou"
      ],
      [
        "i",
        "ed"
      ],
      [
        "de",
        "ar"
      ],
      [
        "v",
        "al"
      ],
      [
        "des",
        "ire"
      ],
      [
        "th",
        "ousand"
      ],
      [
        "ke",
        "y"
      ],
      [
        "am",
        "ing"
      ],
      [
        "..",
        ".."
      ],
      [
        "hour",
        "s"
      ],
      [
        "E",
        "ven"
      ],
      [
        "r",
        "ad"
      ],
      [
        "u",
        "ff"
      ],
      [
        "oce",
        "an"
      ],
      [
        "g",
        "y"
      ],
      [
        "any",
        "thing"
      ],
      [
        "G",
        "o"
      ],
      [
        "ro",
        "ck"
      ],
      [
        "al",
        "ready"
      ],
      [
        "The",
        "ir"
      ],
      [
        "str",
        "ong"
      ],
      [
        "ut",
        "ter"
      ],
      [
        "br",
        "an"
      ],
      [
        "gard",
        "en"
      ],
      [
        "cle",
        "an"
      ],
      [
        "Y",
        "et"
      ],
      [
        "m",
        "ark"
      ],
      [
        "an",
        "im"
      ],
      [
        "Whi",
        "le"
      ],
      [
        "h",
        "ung"
      ],
      [
        "other",
        "s"
      ],
      [
        "long",
        "er"
      ],
      [
        "ast",
        "e"
      ],
      [
        "c",
        "as"
      ],
      [
        "wr",
        "ite"
      ],
      [
        "L",
        "e"
      ],
      [
        "ch",
        "ange"
      ],
      [
        "bo",
        "x"
      ],
      [
        "cho",
        "ol"
      ],
      [
        "be",
        "ar"
      ],
      [
        "bu",
        "ild"
      ],
      [
        "f",
        "our"
      ],
      [
        "under",
        "stand"
      ],
      [
        "pers",
        "on"
      ],
      [
        "il",
        "s"
      ],
      [
        "..",
        "."
      ],
      [
        "pe",
        "ace"
      ],
      [
        "g",
        "ave"
      ],
      [
        "happ",
        "y"
      ],
      [
        "c",
        "ess"
      ],
      [
        "i",
        "o"
      ],
      [
        "d",
        "a"
      ],
      [
        "ri",
        "es"
      ],
      [
        "he",
        "av"
      ],
      [
        "cr",
        "ow"
      ],
      [
        "si",
        "st"
      ],
      [
        "str",
        "ange"
      ],
      [
        "ac",
        "ed"
      ],
      [
        "d",
        "awn"
      ],
      [
        "g",
        "lo"
      ],
      [
        "ic",
        "es"
      ],
      [
        "er",
        "y"
      ],
      [
        "l",
        "ou"
      ],
      [
        "con",
        "f"
      ],
      [
        "is",
        "on"
      ],
      [
        "bl",
        "ind"
      ],
      [
        "w",
        "ound"
      ],
      [
        "ear",
        "s"
      ],
      [
        "fr",
        "ont"
      ],
      [
        "b",
        "al"
      ],
      [
        "ch",
        "ar"
      ],
      [
        "wa",
        "ves"
      ],
      [
        "field",
        "s"
      ],
      [
        "f",
        "aces"
      ],
      [
        "sp",
        "o"
      ],
      [
        "ra",
        "ise"
      ],
      [
        "n",
        "a"
      ],
      [
        "le",
        "ad"
      ],
      [
        "blo",
        "om"
      ],
      [
        "sing",
        "ing"
      ],
      [
        "a",
        "im"
      ],
      [
        "s",
        "chool"
      ],
      [
        "in",
        "ing"
      ],
      [
        "them",
        "selves"
      ],
      [
        "ar",
        "ri"
      ],
      [
        "we",
        "t"
      ],
      [
        "car",
        "ry"
      ],
      [
        "on",
        "y"
      ],
      [
        "ha",
        "ps"
      ],
      [
        "i",
        "er"
      ],
      [
        "smo",
        "ke"
      ],
      [
        "a",
        "x"
      ],
      [
        "gold",
        "en"
      ],
      [
        "i",
        "ble"
      ],
      [
        "A",
        "re"
      ],
      [
        "me",
        "et"
      ],
      [
        "bl",
        "ed"
      ],
      [
        "pos",
        "si"
      ],
      [
        "1",
        "9"
      ],
      [
        "f",
        "ut"
      ],
      [
        "po",
        "int"
      ],
      [
        "g",
        "ing"
      ],
      [
        "m",
        "aking"
      ],
      [
        "for",
        "t"
      ],
      [
        "friend",
        "s"
      ],
      [
        "er",
        "t"
      ],
      [
        "it",
        "ing"
      ],
      [
        "sme",
        "ll"
      ],
      [
        "ke",
        "pt"
      ],
      [
        "some",
        "times"
      ],
      [
        "g",
        "le"
      ],
      [
        "out",
        "side"
      ],
      [
        "sin",
        "ce"
      ],
      [
        "W",
        "ill"
      ],
      [
        "st",
        "ra"
      ],
      [
        "gi",
        "ven"
      ],
      [
        "pap",
        "er"
      ],
      [
        "v",
        "ol"
      ],
      [
        "ce",
        "pt"
      ],
      [
        "v",
        "an"
      ],
      [
        "wr",
        "ong"
      ],
      [
        "R",
        "o"
      ],
      [
        "g",
        "ain"
      ],
      [
        "z",
        "ed"
      ],
      [
        "ri",
        "d"
      ],
      [
        "e",
        "as"
      ],
      [
        "wi",
        "de"
      ],
      [
        "ne",
        "igh"
      ],
      [
        "um",
        "p"
      ],
      [
        "does",
        "n"
      ],
      [
        ",",
        "\""
      ],
      [
        "n",
        "ames"
      ],
      [
        "ul",
        "ar"
      ],
      [
        "tru",
        "th"
      ],
      [
        "ti",
        "ve"
      ],
      [
        "was",
        "h"
      ],
      [
        "pi",
        "e"
      ],
      [
        "fru",
        "it"
      ],
      [
        "d",
        "ry"
      ],
      [
        "un",
        "k"
      ],
      [
        "itt",
        "ing"
      ],
      [
        "b",
        "ound"
      ],
      [
        "end",
        "ing"
      ],
      [
        "t",
        "ail"
      ],
      [
        "v",
        "ent"
      ],
      [
        "ou",
        "ght"
      ],
      [
        "c",
        "ou"
      ],
      [
        "t",
        "or"
      ],
      [
        "th",
        "in"
      ],
      [
        "re",
        "l"
      ],
      [
        "it",
        "ies"
      ],
      [
        "P",
        "o"
      ],
      [
        "bes",
        "ide"
      ],
      [
        "he",
        "at"
      ],
      [
        "p",
        "rom"
      ],
      [
        "wall",
        "s"
      ],
      [
        "cr",
        "ack"
      ],
      [
        "u",
        "de"
      ],
      [
        "w",
        "ake"
      ],
      [
        "po",
        "se"
      ],
      [
        "con",
        "t"
      ],
      [
        "rem",
        "ain"
      ],
      [
        "ic",
        "al"
      ],
      [
        "hor",
        "se"
      ],
      [
        "de",
        "st"
      ],
      [
        "ment",
        "s"
      ],
      [
        "li",
        "ved"
      ],
      [
        "id",
        "s"
      ],
      [
        "te",
        "eth"
      ],
      [
        "shad",
        "ows"
      ],
      [
        "re",
        "ally"
      ],
      [
        "U",
        "p"
      ],
      [
        "dy",
        "ing"
      ],
      [
        "M",
        "e"
      ],
      [
        "c",
        "lim"
      ],
      [
        "be",
        "at"
      ],
      [
        "ure",
        "d"
      ],
      [
        "ch",
        "ang"
      ],
      [
        "for",
        "got"
      ],
      [
        "il",
        "t"
      ],
      [
        "c",
        "ra"
      ],
      [
        "be",
        "low"
      ],
      [
        "m",
        "at"
      ],
      [
        "ast",
        "er"
      ],
      [
        "b",
        "b"
      ],
      [
        "b",
        "at"
      ],
      [
        "ne",
        "ck"
      ],
      [
        "qu",
        "ick"
      ],
      [
        "clou",
        "d"
      ],
      [
        "cer",
        "tain"
      ],
      [
        "um",
        "ber"
      ],
      [
        "tran",
        "sl"
      ],
      [
        "A",
        "r"
      ],
      [
        "we",
        "ek"
      ],
      [
        "bir",
        "th"
      ],
      [
        "g",
        "un"
      ],
      [
        "gri",
        "ef"
      ],
      [
        "per",
        "fect"
      ],
      [
        "try",
        "ing"
      ],
      [
        "p",
        "ho"
      ],
      [
        "your",
        "self"
      ],
      [
        "bl",
        "es"
      ],
      [
        "cour",
        "se"
      ],
      [
        "l",
        "an"
      ],
      [
        "si",
        "ve"
      ],
      [
        "gra",
        "ve"
      ],
      [
        "au",
        "di"
      ],
      [
        "le",
        "af"
      ],
      [
        "even",
        "ing"
      ],
      [
        "C",
        "an"
      ],
      [
        "f",
        "ter"
      ],
      [
        "w",
        "ine"
      ],
      [
        "a",
        "live"
      ],
      [
        "en",
        "ti"
      ],
      [
        "N",
        "ew"
      ],
      [
        "en",
        "ing"
      ],
      [
        "con",
        "tin"
      ],
      [
        "sen",
        "se"
      ],
      [
        "c",
        "ts"
      ],
      [
        "think",
        "ing"
      ],
      [
        "b",
        "ad"
      ],
      [
        "l",
        "ines"
      ],
      [
        "com",
        "m"
      ],
      [
        "heav",
        "y"
      ],
      [
        "p",
        "air"
      ],
      [
        "may",
        "be"
      ],
      [
        "fi",
        "g"
      ],
      [
        "w",
        "and"
      ],
      [
        "ha",
        "ving"
      ],
      [
        "fore",
        "ver"
      ],
      [
        "could",
        "n"
      ],
      [
        "wh",
        "om"
      ],
      [
        "of",
        "ten"
      ],
      [
        "Th",
        "ough"
      ],
      [
        "tre",
        "m"
      ],
      [
        "fall",
        "ing"
      ],
      [
        "ask",
        "ed"
      ],
      [
        "O",
        "ut"
      ],
      [
        "t",
        "u"
      ],
      [
        "y",
        "es"
      ],
      [
        "so",
        "m"
      ],
      [
        "C",
        "ome"
      ],
      [
        "ke",
        "ts"
      ],
      [
        "fut",
        "ure"
      ],
      [
        "secre",
        "t"
      ],
      [
        "l",
        "aw"
      ],
      [
        "we",
        "ar"
      ],
      [
        "our",
        "s"
      ],
      [
        "f",
        "un"
      ],
      [
        "the",
        "s"
      ],
      [
        "d",
        "u"
      ],
      [
        "stor",
        "m"
      ],
      [
        "w",
        "in"
      ],
      [
        "un",
        "t"
      ],
      [
        "sp",
        "read"
      ],
      [
        "d",
        "ance"
      ],
      [
        "f",
        "ail"
      ],
      [
        "for",
        "th"
      ],
      [
        "him",
        "self"
      ],
      [
        "l",
        "ater"
      ],
      [
        "s",
        "al"
      ],
      [
        "ll",
        "y"
      ],
      [
        "thro",
        "at"
      ],
      [
        "heart",
        "s"
      ],
      [
        "seem",
        "s"
      ],
      [
        "shap",
        "e"
      ],
      [
        "o",
        "th"
      ],
      [
        "ain",
        "t"
      ],
      [
        "bab",
        "y"
      ],
      [
        "mir",
        "ror"
      ],
      [
        "re",
        "f"
      ],
      [
        "ver",
        "se"
      ],
      [
        "end",
        "ed"
      ],
      [
        "de",
        "c"
      ],
      [
        "A",
        "fter"
      ],
      [
        "el",
        "s"
      ],
      [
        "say",
        "ing"
      ],
      [
        "st",
        "ick"
      ],
      [
        "y",
        "ard"
      ],
      [
        "m",
        "ad"
      ],
      [
        "co",
        "ol"
      ],
      [
        "r",
        "ows"
      ],
      [
        "le",
        "gs"
      ],
      [
        "po",
        "or"
      ],
      [
        "ap",
        "art"
      ],
      [
        "n",
        "s"
      ],
      [
        "stand",
        "ing"
      ],
      [
        "b",
        "one"
      ],
      [
        "sp",
        "l"
      ],
      [
        "d",
        "aughter"
      ],
      [
        "we",
        "ight"
      ],
      [
        "mo",
        "tion"
      ],
      [
        "hi",
        "story"
      ],
      [
        "Ch",
        "rist"
      ],
      [
        "p",
        "ale"
      ],
      [
        "there",
        "d"
      ],
      [
        "fore",
        "st"
      ],
      [
        "sing",
        "le"
      ],
      [
        "walk",
        "ing"
      ],
      [
        "b",
        "ag"
      ],
      [
        "d",
        "am"
      ],
      [
        "ad",
        "es"
      ],
      [
        "mo",
        "ving"
      ],
      [
        "On",
        "ce"
      ],
      [
        "b",
        "rought"
      ],
      [
        "burn",
        "ing"
      ],
      [
        "bl",
        "ow"
      ],
      [
        "bl",
        "ess"
      ],
      [
        "w",
        "ra"
      ],
      [
        "i",
        "ence"
      ],
      [
        "look",
        "s"
      ],
      [
        "d",
        "anc"
      ],
      [
        "th",
        "ick"
      ],
      [
        "head",
        "s"
      ],
      [
        "fam",
        "ily"
      ],
      [
        "hel",
        "p"
      ],
      [
        "w",
        "re"
      ],
      [
        "us",
        "k"
      ],
      [
        "E",
        "ach"
      ],
      [
        "o",
        "c"
      ],
      [
        "an",
        "ci"
      ],
      [
        "M",
        "ar"
      ],
      [
        "m",
        "ort"
      ],
      [
        "Lo",
        "ok"
      ],
      [
        "on",
        "ed"
      ],
      [
        "su",
        "f"
      ],
      [
        "sm",
        "ile"
      ],
      [
        "D",
        "on"
      ],
      [
        "fl",
        "ame"
      ],
      [
        "pre",
        "sent"
      ],
      [
        "w",
        "it"
      ],
      [
        "sc",
        "ar"
      ],
      [
        "tend",
        "er"
      ],
      [
        "W",
        "as"
      ],
      [
        "we",
        "ep"
      ],
      [
        "differ",
        "ent"
      ],
      [
        "st",
        "ones"
      ],
      [
        "wi",
        "fe"
      ],
      [
        "f",
        "act"
      ],
      [
        "p",
        "in"
      ],
      [
        "me",
        "ans"
      ],
      [
        "b",
        "as"
      ],
      [
        "is",
        "n"
      ],
      [
        "wood",
        "s"
      ],
      [
        "un",
        "i"
      ],
      [
        "n",
        "at"
      ],
      [
        "stre",
        "t"
      ],
      [
        "t",
        "akes"
      ],
      [
        "ro",
        "of"
      ],
      [
        "walk",
        "ed"
      ],
      [
        "w",
        "ise"
      ],
      [
        "Th",
        "ese"
      ],
      [
        "gr",
        "y"
      ],
      [
        "ex",
        "ist"
      ],
      [
        "s",
        "ac"
      ],
      [
        "te",
        "ach"
      ],
      [
        "pre",
        "s"
      ],
      [
        "fre",
        "sh"
      ],
      [
        "to",
        "day"
      ],
      [
        "b",
        "rain"
      ],
      [
        "f",
        "ight"
      ],
      [
        "ch",
        "i"
      ],
      [
        "lo",
        "s"
      ],
      [
        "full",
        "y"
      ],
      [
        "R",
        "i"
      ],
      [
        "di",
        "v"
      ],
      [
        "fill",
        "ed"
      ],
      [
        "vi",
        "ew"
      ],
      [
        "und",
        "red"
      ],
      [
        "turn",
        "s"
      ],
      [
        "c",
        "ro"
      ],
      [
        "i",
        "ent"
      ],
      [
        "gh",
        "ost"
      ],
      [
        "te",
        "st"
      ],
      [
        "lear",
        "n"
      ],
      [
        "G",
        "re"
      ],
      [
        "or",
        "der"
      ],
      [
        "nd",
        "er"
      ],
      [
        "P",
        "er"
      ],
      [
        "b",
        "an"
      ],
      [
        "sh",
        "ut"
      ],
      [
        "thought",
        "s"
      ],
      [
        "fa",
        "ith"
      ],
      [
        "J",
        "ust"
      ],
      [
        "ch",
        "air"
      ],
      [
        "ne",
        "y"
      ],
      [
        "sc",
        "ent"
      ],
      [
        "ck",
        "ing"
      ],
      [
        "de",
        "p"
      ],
      [
        "mo",
        "ved"
      ],
      [
        "ple",
        "asure"
      ],
      [
        "lou",
        "d"
      ],
      [
        "f",
        "ine"
      ],
      [
        "th",
        "ir"
      ],
      [
        "bri",
        "d"
      ],
      [
        "appe",
        "ar"
      ],
      [
        "mil",
        "k"
      ],
      [
        "h",
        "undred"
      ],
      [
        "si",
        "ck"
      ],
      [
        "mu",
        "d"
      ],
      [
        "l",
        "ab"
      ],
      [
        "ra",
        "ge"
      ],
      [
        "T",
        "i"
      ],
      [
        "f",
        "ic"
      ],
      [
        "Th",
        "rough"
      ],
      [
        "c",
        "and"
      ],
      [
        "ic",
        "on"
      ],
      [
        "whis",
        "per"
      ],
      [
        "m",
        "or"
      ],
      [
        "m",
        "ill"
      ],
      [
        "si",
        "x"
      ],
      [
        "ne",
        "st"
      ],
      [
        "pl",
        "es"
      ],
      [
        "gl",
        "ow"
      ],
      [
        "blo",
        "s"
      ],
      [
        "le",
        "an"
      ],
      [
        "fi",
        "ve"
      ],
      [
        "gg",
        "ed"
      ],
      [
        "S",
        "till"
      ],
      [
        "m",
        "as"
      ],
      [
        "le",
        "ast"
      ],
      [
        "gr",
        "ace"
      ],
      [
        "b",
        "ull"
      ],
      [
        "n",
        "one"
      ],
      [
        "th",
        "re"
      ],
      [
        "wind",
        "ows"
      ],
      [
        "st",
        "ate"
      ],
      [
        "hi",
        "lls"
      ],
      [
        "cau",
        "ght"
      ],
      [
        "u",
        "ally"
      ],
      [
        "p",
        "ly"
      ],
      [
        "p",
        "aren"
      ],
      [
        "coun",
        "t"
      ],
      [
        "co",
        "t"
      ],
      [
        "h",
        "all"
      ],
      [
        "sp",
        "r"
      ],
      [
        "che",
        "ek"
      ],
      [
        "vis",
        "ion"
      ],
      [
        "p",
        "ark"
      ],
      [
        "slow",
        "ly"
      ],
      [
        "v",
        "ill"
      ],
      [
        "L",
        "ord"
      ],
      [
        "step",
        "s"
      ],
      [
        "e",
        "ll"
      ],
      [
        "h",
        "at"
      ],
      [
        "k",
        "ed"
      ],
      [
        "C",
        "on"
      ],
      [
        "the",
        "d"
      ],
      [
        "com",
        "ple"
      ],
      [
        "wind",
        "s"
      ],
      [
        "every",
        "one"
      ],
      [
        "it",
        "ed"
      ],
      [
        "wa",
        "ve"
      ],
      [
        "seem",
        "ed"
      ],
      [
        "se",
        "as"
      ],
      [
        "s",
        "alt"
      ],
      [
        "ur",
        "ch"
      ],
      [
        "tin",
        "y"
      ],
      [
        "n",
        "aked"
      ],
      [
        "t",
        "ur"
      ],
      [
        "he",
        "al"
      ],
      [
        "cl",
        "aim"
      ],
      [
        "sor",
        "row"
      ],
      [
        "b",
        "a"
      ],
      [
        "in",
        "ts"
      ],
      [
        "di",
        "m"
      ],
      [
        "bo",
        "ard"
      ],
      [
        "cr",
        "own"
      ],
      [
        "boy",
        "s"
      ],
      [
        "S",
        "u"
      ],
      [
        "in",
        "ce"
      ],
      [
        "all",
        "ey"
      ],
      [
        "ear",
        "ly"
      ],
      [
        "M",
        "o"
      ],
      [
        "M",
        "an"
      ],
      [
        "p",
        "ict"
      ],
      [
        "si",
        "gh"
      ],
      [
        "pl",
        "ant"
      ],
      [
        "mountain",
        "s"
      ],
      [
        "se",
        "cond"
      ],
      [
        "l",
        "u"
      ],
      [
        "ack",
        "s"
      ],
      [
        "stre",
        "ets"
      ],
      [
        "pass",
        "ed"
      ],
      [
        "0",
        "0"
      ],
      [
        "sound",
        "s"
      ],
      [
        "k",
        "itch"
      ],
      [
        "p",
        "lo"
      ],
      [
        "D",
        "id"
      ],
      [
        "m",
        "iss"
      ],
      [
        "sh",
        "ade"
      ],
      [
        "l",
        "ake"
      ],
      [
        "sh",
        "ine"
      ],
      [
        "che",
        "st"
      ],
      [
        "On",
        "ly"
      ],
      [
        "l",
        "un"
      ],
      [
        "li",
        "p"
      ],
      [
        "you",
        "th"
      ],
      [
        "Be",
        "fore"
      ],
      [
        "Some",
        "times"
      ],
      [
        "rou",
        "d"
      ],
      [
        "ris",
        "ing"
      ],
      [
        "H",
        "o"
      ],
      [
        "b",
        "rush"
      ],
      [
        "h",
        "ous"
      ],
      [
        "l",
        "am"
      ],
      [
        "ri",
        "c"
      ],
      [
        "fl",
        "ash"
      ],
      [
        "feel",
        "ing"
      ],
      [
        "atter",
        "ed"
      ],
      [
        "suf",
        "fer"
      ],
      [
        "m",
        "it"
      ],
      [
        "sh",
        "ar"
      ],
      [
        "know",
        "ing"
      ],
      [
        "lar",
        "ge"
      ],
      [
        "f",
        "at"
      ],
      [
        "me",
        "ant"
      ],
      [
        "g",
        "ather"
      ],
      [
        "t",
        "all"
      ],
      [
        "so",
        "ld"
      ],
      [
        "ra",
        "id"
      ],
      [
        "P",
        "e"
      ],
      [
        "p",
        "ink"
      ],
      [
        "ar",
        "row"
      ],
      [
        "ow",
        "ed"
      ],
      [
        "le",
        "ep"
      ],
      [
        "bo",
        "at"
      ],
      [
        "com",
        "p"
      ],
      [
        "fall",
        "s"
      ],
      [
        "r",
        "ace"
      ],
      [
        "he",
        "ll"
      ],
      [
        "lear",
        "ned"
      ],
      [
        "anci",
        "ent"
      ],
      [
        "as",
        "ed"
      ],
      [
        "gre",
        "w"
      ],
      [
        "quest",
        "ion"
      ],
      [
        "ro",
        "t"
      ],
      [
        "dist",
        "ance"
      ],
      [
        "C",
        "lick"
      ],
      [
        "r",
        "ust"
      ],
      [
        "f",
        "light"
      ],
      [
        "w",
        "ed"
      ],
      [
        "vis",
        "ible"
      ],
      [
        "pass",
        "ing"
      ],
      [
        "audi",
        "o"
      ],
      [
        "kitch",
        "en"
      ],
      [
        "s",
        "ink"
      ],
      [
        "our",
        "selves"
      ],
      [
        "ast",
        "ic"
      ],
      [
        "je",
        "ct"
      ],
      [
        "if",
        "t"
      ],
      [
        "book",
        "s"
      ],
      [
        "f",
        "lies"
      ],
      [
        "de",
        "m"
      ],
      [
        "do",
        "m"
      ],
      [
        "bre",
        "ad"
      ],
      [
        "stre",
        "am"
      ],
      [
        "song",
        "s"
      ],
      [
        "B",
        "o"
      ],
      [
        "I",
        "ts"
      ],
      [
        "l",
        "as"
      ],
      [
        "t",
        "aken"
      ],
      [
        "sh",
        "ot"
      ],
      [
        "beg",
        "an"
      ],
      [
        "A",
        "h"
      ],
      [
        "k",
        "es"
      ],
      [
        "n",
        "ature"
      ],
      [
        "um",
        "n"
      ],
      [
        "po",
        "t"
      ],
      [
        "c",
        "ket"
      ],
      [
        "le",
        "g"
      ],
      [
        "itt",
        "en"
      ],
      [
        "p",
        "ush"
      ],
      [
        "z",
        "en"
      ],
      [
        "ir",
        "on"
      ],
      [
        "wat",
        "ched"
      ],
      [
        "bit",
        "ter"
      ],
      [
        "b",
        "t"
      ],
      [
        "f",
        "u"
      ],
      [
        "s",
        "wall"
      ],
      [
        "ent",
        "er"
      ],
      [
        "fe",
        "ather"
      ],
      [
        "b",
        "ank"
      ],
      [
        "fo",
        "ol"
      ],
      [
        "pho",
        "to"
      ],
      [
        "ac",
        "tion"
      ],
      [
        "ur",
        "y"
      ],
      [
        "ti",
        "red"
      ],
      [
        "et",
        "ern"
      ],
      [
        "il",
        "ity"
      ],
      [
        "si",
        "ster"
      ],
      [
        "ap",
        "e"
      ],
      [
        "wat",
        "ching"
      ],
      [
        "fing",
        "er"
      ],
      [
        "ru",
        "b"
      ],
      [
        "possi",
        "ble"
      ],
      [
        "m",
        "ap"
      ],
      [
        "Bl",
        "ack"
      ],
      [
        "r",
        "it"
      ],
      [
        "th",
        "read"
      ],
      [
        "cl",
        "es"
      ],
      [
        "T",
        "ill"
      ],
      [
        "ur",
        "ing"
      ],
      [
        "dro",
        "p"
      ],
      [
        "g",
        "in"
      ],
      [
        "i",
        "li"
      ],
      [
        "on",
        "to"
      ],
      [
        "le",
        "ap"
      ],
      [
        "are",
        "s"
      ],
      [
        "il",
        "es"
      ],
      [
        "hold",
        "ing"
      ],
      [
        "k",
        "ni"
      ],
      [
        "pas",
        "sion"
      ],
      [
        "m",
        "oney"
      ],
      [
        "st",
        "air"
      ],
      [
        "d",
        "irt"
      ],
      [
        "er",
        "al"
      ],
      [
        "di",
        "re"
      ],
      [
        "T",
        "ho"
      ],
      [
        "ch",
        "ain"
      ],
      [
        "bre",
        "e"
      ],
      [
        "De",
        "ath"
      ],
      [
        "A",
        "m"
      ],
      [
        "poet",
        "ry"
      ],
      [
        "in",
        "stead"
      ],
      [
        "ad",
        "ed"
      ],
      [
        "fe",
        "ed"
      ],
      [
        "gr",
        "own"
      ],
      [
        "wat",
        "ers"
      ],
      [
        "gl",
        "ad"
      ],
      [
        "poem",
        "s"
      ],
      [
        "lo",
        "se"
      ],
      [
        "C",
        "o"
      ],
      [
        "m",
        "us"
      ],
      [
        "p",
        "ill"
      ],
      [
        "ll",
        "ing"
      ],
      [
        "ch",
        "er"
      ],
      [
        "lo",
        "ver"
      ],
      [
        "vi",
        "ol"
      ],
      [
        "per",
        "haps"
      ],
      [
        "run",
        "ning"
      ],
      [
        "x",
        "ed"
      ],
      [
        "z",
        "y"
      ],
      [
        "was",
        "n"
      ],
      [
        "af",
        "raid"
      ],
      [
        "stra",
        "ight"
      ],
      [
        "st",
        "em"
      ],
      [
        "Th",
        "y"
      ],
      [
        "imag",
        "ine"
      ],
      [
        "answ",
        "er"
      ],
      [
        "b",
        "ul"
      ],
      [
        "h",
        "us"
      ],
      [
        "p",
        "ay"
      ],
      [
        "clo",
        "sed"
      ],
      [
        "sur",
        "vi"
      ],
      [
        "cover",
        "ed"
      ],
      [
        "c",
        "us"
      ],
      [
        "i",
        "v"
      ],
      [
        "st",
        "ore"
      ],
      [
        "some",
        "where"
      ],
      [
        "night",
        "s"
      ],
      [
        "p",
        "y"
      ],
      [
        "sh",
        "op"
      ],
      [
        "pos",
        "ed"
      ],
      [
        "mid",
        "dle"
      ],
      [
        "am",
        "a"
      ],
      [
        "ho",
        "ly"
      ],
      [
        "Y",
        "es"
      ],
      [
        "y",
        "ing"
      ],
      [
        "mort",
        "al"
      ],
      [
        "O",
        "ver"
      ],
      [
        "vo",
        "ices"
      ],
      [
        "flo",
        "od"
      ],
      [
        "corn",
        "er"
      ],
      [
        "Th",
        "ou"
      ],
      [
        "turn",
        "ing"
      ],
      [
        "sudden",
        "ly"
      ],
      [
        "d",
        "in"
      ],
      [
        "ue",
        "l"
      ],
      [
        "or",
        "ies"
      ],
      [
        "e",
        "cho"
      ],
      [
        "sa",
        "ve"
      ],
      [
        "h",
        "ate"
      ],
      [
        "she",
        "l"
      ],
      [
        "h",
        "u"
      ],
      [
        "l",
        "ap"
      ],
      [
        "si",
        "ons"
      ],
      [
        "mean",
        "ing"
      ],
      [
        "E",
        "ar"
      ],
      [
        "a",
        "ves"
      ],
      [
        "in",
        "st"
      ],
      [
        "an",
        "e"
      ],
      [
        "de",
        "v"
      ],
      [
        "ge",
        "st"
      ],
      [
        "In",
        "to"
      ],
      [
        "bran",
        "ches"
      ],
      [
        "p",
        "ure"
      ],
      [
        "de",
        "l"
      ],
      [
        "pur",
        "ple"
      ],
      [
        "pi",
        "ck"
      ],
      [
        "t",
        "ro"
      ],
      [
        "ve",
        "st"
      ],
      [
        "g",
        "ate"
      ],
      [
        "ad",
        "o"
      ],
      [
        "fe",
        "e"
      ],
      [
        "land",
        "s"
      ],
      [
        "pray",
        "er"
      ],
      [
        "f",
        "il"
      ],
      [
        "p",
        "it"
      ],
      [
        "hi",
        "de"
      ],
      [
        "th",
        "us"
      ],
      [
        "re",
        "ason"
      ],
      [
        "st",
        "ro"
      ],
      [
        "fl",
        "ag"
      ],
      [
        "coll",
        "e"
      ],
      [
        "st",
        "ir"
      ],
      [
        "po",
        "ol"
      ],
      [
        "ma",
        "id"
      ],
      [
        "listen",
        "ing"
      ],
      [
        "m",
        "our"
      ],
      [
        "after",
        "noon"
      ],
      [
        "?",
        "”"
      ],
      [
        "H",
        "ave"
      ],
      [
        "p",
        "ine"
      ],
      [
        "ter",
        "ri"
      ],
      [
        "hold",
        "s"
      ],
      [
        "cat",
        "ch"
      ],
      [
        "r",
        "up"
      ],
      [
        "cal",
        "m"
      ],
      [
        "re",
        "co"
      ],
      [
        "ti",
        "de"
      ],
      [
        "spe",
        "c"
      ],
      [
        "anc",
        "es"
      ],
      [
        "t",
        "rou"
      ],
      [
        "at",
        "or"
      ],
      [
        "de",
        "w"
      ],
      [
        "ce",
        "ll"
      ],
      [
        "ho",
        "le"
      ],
      [
        "ph",
        "one"
      ],
      [
        "lea",
        "ving"
      ],
      [
        "gent",
        "le"
      ],
      [
        "!",
        "\""
      ],
      [
        "h",
        "am"
      ],
      [
        "t",
        "aste"
      ],
      [
        "Ti",
        "me"
      ],
      [
        "I",
        "nd"
      ],
      [
        "wor",
        "th"
      ],
      [
        "end",
        "er"
      ],
      [
        "any",
        "one"
      ],
      [
        "sa",
        "fe"
      ],
      [
        "call",
        "s"
      ],
      [
        "neigh",
        "bor"
      ],
      [
        "forgot",
        "ten"
      ],
      [
        "hous",
        "es"
      ],
      [
        "r",
        "on"
      ],
      [
        "but",
        "ter"
      ],
      [
        "gir",
        "ls"
      ],
      [
        "ro",
        "cks"
      ],
      [
        "god",
        "s"
      ],
      [
        "b",
        "i"
      ],
      [
        "al",
        "es"
      ],
      [
        "ex",
        "pe"
      ],
      [
        "be",
        "came"
      ],
      [
        "sh",
        "ort"
      ],
      [
        "sa",
        "il"
      ],
      [
        "want",
        "s"
      ],
      [
        "tri",
        "ed"
      ],
      [
        "En",
        "gl"
      ],
      [
        "g",
        "as"
      ],
      [
        "p",
        "age"
      ],
      [
        "st",
        "ain"
      ],
      [
        "ti",
        "ght"
      ],
      [
        "lone",
        "ly"
      ],
      [
        "h",
        "oney"
      ],
      [
        "fo",
        "od"
      ],
      [
        "es",
        "cap"
      ],
      [
        "fl",
        "at"
      ],
      [
        "ro",
        "te"
      ],
      [
        "C",
        "om"
      ],
      [
        "h",
        "on"
      ],
      [
        "se",
        "ed"
      ],
      [
        "hus",
        "band"
      ],
      [
        "b",
        "ark"
      ],
      [
        "N",
        "e"
      ],
      [
        "po",
        "st"
      ],
      [
        "sleep",
        "ing"
      ],
      [
        "U",
        "nder"
      ],
      [
        "lo",
        "ves"
      ],
      [
        "whe",
        "el"
      ],
      [
        "!",
        "”"
      ],
      [
        "ro",
        "ot"
      ],
      [
        "dri",
        "ft"
      ],
      [
        "h",
        "ors"
      ],
      [
        "ri",
        "ch"
      ],
      [
        "de",
        "li"
      ],
      [
        "ha",
        "th"
      ],
      [
        "te",
        "en"
      ],
      [
        "E",
        "x"
      ],
      [
        "n",
        "et"
      ],
      [
        "pre",
        "t"
      ],
      [
        "ash",
        "es"
      ],
      [
        "swi",
        "m"
      ],
      [
        "c",
        "am"
      ],
      [
        "my",
        "ster"
      ],
      [
        "des",
        "ert"
      ],
      [
        "d",
        "usk"
      ],
      [
        "p",
        "hi"
      ],
      [
        "we",
        "ather"
      ],
      [
        "hor",
        "iz"
      ],
      [
        "it",
        "es"
      ],
      [
        "ad",
        "ing"
      ],
      [
        "c",
        "li"
      ],
      [
        "r",
        "hy"
      ],
      [
        "sur",
        "face"
      ],
      [
        "k",
        "no"
      ],
      [
        "er",
        "a"
      ],
      [
        "st",
        "at"
      ],
      [
        "ga",
        "ze"
      ],
      [
        "Americ",
        "a"
      ],
      [
        "st",
        "ud"
      ],
      [
        "id",
        "ed"
      ],
      [
        "No",
        "thing"
      ],
      [
        "ph",
        "y"
      ],
      [
        "f",
        "arm"
      ],
      [
        "t",
        "aking"
      ],
      [
        "re",
        "pe"
      ],
      [
        "l",
        "eng"
      ],
      [
        "p",
        "un"
      ],
      [
        "me",
        "asure"
      ],
      [
        "ad",
        "s"
      ],
      [
        "ac",
        "ing"
      ],
      [
        "do",
        "ors"
      ],
      [
        "p",
        "raise"
      ],
      [
        "ri",
        "de"
      ],
      [
        "new",
        "s"
      ],
      [
        "ren",
        "t"
      ],
      [
        "r",
        "um"
      ],
      [
        "th",
        "row"
      ],
      [
        "or",
        "ange"
      ],
      [
        "He",
        "aven"
      ],
      [
        "dr",
        "own"
      ],
      [
        "Se",
        "e"
      ],
      [
        "e",
        "ch"
      ],
      [
        "what",
        "ever"
      ],
      [
        "wr",
        "iting"
      ],
      [
        "re",
        "fle"
      ],
      [
        "be",
        "ach"
      ],
      [
        "stand",
        "s"
      ],
      [
        ")",
        ","
      ],
      [
        "c",
        "ase"
      ],
      [
        "in",
        "a"
      ],
      [
        "do",
        "ing"
      ],
      [
        "W",
        "ould"
      ],
      [
        "ed",
        "om"
      ],
      [
        "ll",
        "ed"
      ],
      [
        "ro",
        "y"
      ],
      [
        "h",
        "arm"
      ],
      [
        "m",
        "ach"
      ],
      [
        "se",
        "ason"
      ],
      [
        "ay",
        "s"
      ],
      [
        "ti",
        "es"
      ],
      [
        "ra",
        "b"
      ],
      [
        "g",
        "ue"
      ],
      [
        "at",
        "o"
      ],
      [
        "ple",
        "ase"
      ],
      [
        "W",
        "or"
      ],
      [
        "in",
        "c"
      ],
      [
        "it",
        "al"
      ],
      [
        "f",
        "ts"
      ],
      [
        "n",
        "ation"
      ],
      [
        "te",
        "ar"
      ],
      [
        "get",
        "ting"
      ],
      [
        "went",
        "y"
      ],
      [
        "transl",
        "ated"
      ],
      [
        "re",
        "g"
      ],
      [
        "ch",
        "urch"
      ],
      [
        "clim",
        "b"
      ],
      [
        "r",
        "am"
      ],
      [
        "v",
        "a"
      ],
      [
        ".",
        ")"
      ],
      [
        "et",
        "y"
      ],
      [
        "not",
        "e"
      ],
      [
        "kne",
        "es"
      ],
      [
        "C",
        "ar"
      ],
      [
        "im",
        "age"
      ],
      [
        "Who",
        "se"
      ],
      [
        "mil",
        "es"
      ],
      [
        "sh",
        "out"
      ],
      [
        "stop",
        "ped"
      ],
      [
        "dist",
        "ant"
      ],
      [
        "hid",
        "den"
      ],
      [
        "sp",
        "ot"
      ],
      [
        "di",
        "es"
      ],
      [
        "talk",
        "ing"
      ],
      [
        "g",
        "an"
      ],
      [
        "m",
        "ess"
      ],
      [
        "is",
        "es"
      ],
      [
        "me",
        "ad"
      ],
      [
        "ask",
        "s"
      ],
      [
        "room",
        "s"
      ],
      [
        "Q",
        "u"
      ],
      [
        "sp",
        "ark"
      ],
      [
        "fl",
        "ed"
      ],
      [
        "sc",
        "ri"
      ],
      [
        "should",
        "er"
      ],
      [
        "brea",
        "thing"
      ],
      [
        "le",
        "ts"
      ],
      [
        "sp",
        "ent"
      ],
      [
        "sk",
        "ies"
      ],
      [
        "_",
        "_"
      ],
      [
        "an",
        "ti"
      ],
      [
        "lo",
        "ss"
      ],
      [
        "sh",
        "ame"
      ],
      [
        "fin",
        "ally"
      ],
      [
        "brea",
        "the"
      ],
      [
        "a",
        "ving"
      ],
      [
        "p",
        "ow"
      ],
      [
        "is",
        "m"
      ],
      [
        "ic",
        "s"
      ],
      [
        "spe",
        "ct"
      ],
      [
        "stor",
        "ies"
      ],
      [
        "anim",
        "al"
      ],
      [
        "P",
        "ar"
      ],
      [
        "f",
        "al"
      ],
      [
        "at",
        "t"
      ],
      [
        "gi",
        "ving"
      ],
      [
        "b",
        "ill"
      ],
      [
        "v",
        "ain"
      ],
      [
        "in",
        "y"
      ],
      [
        "me",
        "l"
      ],
      [
        "se",
        "x"
      ],
      [
        "gl",
        "ory"
      ],
      [
        "swe",
        "at"
      ],
      [
        "sim",
        "ple"
      ],
      [
        "se",
        "m"
      ],
      [
        "ash",
        "ed"
      ],
      [
        "shar",
        "p"
      ],
      [
        "n",
        "amed"
      ],
      [
        "p",
        "roud"
      ],
      [
        "ti",
        "ce"
      ],
      [
        "would",
        "n"
      ],
      [
        "la",
        "id"
      ],
      [
        "hur",
        "t"
      ],
      [
        "p",
        "her"
      ],
      [
        "z",
        "a"
      ],
      [
        "feel",
        "s"
      ],
      [
        "ro",
        "ots"
      ],
      [
        "bu",
        "ilt"
      ],
      [
        "keep",
        "s"
      ],
      [
        "brid",
        "ge"
      ],
      [
        "in",
        "v"
      ],
      [
        "pl",
        "aces"
      ],
      [
        "bu",
        "ried"
      ],
      [
        "do",
        "gs"
      ],
      [
        "qu",
        "ite"
      ],
      [
        "call",
        "ing"
      ],
      [
        "dr",
        "um"
      ],
      [
        "May",
        "be"
      ],
      [
        "Americ",
        "an"
      ],
      [
        "ver",
        "ing"
      ],
      [
        "pr",
        "of"
      ],
      [
        "led",
        "ge"
      ],
      [
        "paren",
        "ts"
      ],
      [
        "stre",
        "ng"
      ],
      [
        "pal",
        "m"
      ],
      [
        "F",
        "r"
      ],
      [
        "se",
        "ven"
      ],
      [
        "no",
        "se"
      ],
      [
        "tr",
        "ust"
      ],
      [
        "see",
        "ing"
      ],
      [
        "press",
        "ed"
      ],
      [
        "l",
        "aughter"
      ],
      [
        "er",
        "o"
      ],
      [
        "sho",
        "es"
      ],
      [
        "c",
        "ab"
      ],
      [
        "s",
        "ang"
      ],
      [
        "ing",
        "ing"
      ],
      [
        "every",
        "where"
      ],
      [
        "p",
        "u"
      ],
      [
        "th",
        "under"
      ],
      [
        "Ear",
        "th"
      ],
      [
        "j",
        "our"
      ],
      [
        "l",
        "in"
      ],
      [
        "w",
        "rote"
      ],
      [
        "her",
        "self"
      ],
      [
        "end",
        "less"
      ],
      [
        "ct",
        "or"
      ],
      [
        "clo",
        "thes"
      ],
      [
        "Li",
        "fe"
      ],
      [
        "f",
        "it"
      ],
      [
        "we",
        "st"
      ],
      [
        "fall",
        "en"
      ],
      [
        "Up",
        "on"
      ],
      [
        "o",
        "ak"
      ],
      [
        "t",
        "um"
      ],
      [
        "ad",
        "a"
      ],
      [
        "ap",
        "pro"
      ],
      [
        "tr",
        "ans"
      ],
      [
        "gre",
        "y"
      ],
      [
        "for",
        "ce"
      ],
      [
        "for",
        "ward"
      ],
      [
        "ag",
        "ed"
      ],
      [
        "do",
        "th"
      ],
      [
        "F",
        "l"
      ],
      [
        "sh",
        "irt"
      ],
      [
        "Su",
        "ch"
      ],
      [
        "e",
        "ve"
      ],
      [
        "k",
        "in"
      ],
      [
        "ack",
        "ed"
      ],
      [
        "blo",
        "ck"
      ],
      [
        "dri",
        "ve"
      ],
      [
        "hors",
        "es"
      ],
      [
        "c",
        "ard"
      ],
      [
        "o",
        "o"
      ],
      [
        "ction",
        "s"
      ],
      [
        "kni",
        "fe"
      ],
      [
        "l",
        "iness"
      ],
      [
        "t",
        "a"
      ],
      [
        "v",
        "ar"
      ],
      [
        "li",
        "d"
      ],
      [
        "li",
        "ce"
      ],
      [
        "we",
        "ary"
      ],
      [
        "ail",
        "s"
      ],
      [
        "f",
        "av"
      ],
      [
        "ce",
        "i"
      ],
      [
        "est",
        "er"
      ],
      [
        "bot",
        "tom"
      ],
      [
        "e",
        "qu"
      ],
      [
        "l",
        "er"
      ],
      [
        "clo",
        "ck"
      ],
      [
        "pri",
        "de"
      ],
      [
        "sy",
        "m"
      ],
      [
        "dou",
        "bt"
      ],
      [
        ")",
        "."
      ],
      [
        "t",
        "les"
      ],
      [
        "ur",
        "al"
      ],
      [
        "sp",
        "in"
      ],
      [
        "if",
        "f"
      ],
      [
        "pe",
        "ar"
      ],
      [
        "bu",
        "y"
      ],
      [
        "cor",
        "d"
      ],
      [
        "grand",
        "mother"
      ],
      [
        "f",
        "ir"
      ],
      [
        "wor",
        "n"
      ],
      [
        "gr",
        "ows"
      ],
      [
        "C",
        "hi"
      ],
      [
        "M",
        "other"
      ],
      [
        "p",
        "per"
      ],
      [
        "ll",
        "en"
      ],
      [
        "ti",
        "m"
      ],
      [
        "au",
        "se"
      ],
      [
        "see",
        "k"
      ],
      [
        "pro",
        "te"
      ],
      [
        "pain",
        "t"
      ],
      [
        "S",
        "tre"
      ],
      [
        "en",
        "ces"
      ],
      [
        "ra",
        "ised"
      ],
      [
        "tell",
        "s"
      ],
      [
        "anc",
        "y"
      ],
      [
        "gen",
        "er"
      ],
      [
        "bree",
        "ze"
      ],
      [
        "L",
        "a"
      ],
      [
        "S",
        "p"
      ],
      [
        "b",
        "ers"
      ],
      [
        "as",
        "y"
      ],
      [
        "lo",
        "ose"
      ],
      [
        "lo",
        "vers"
      ],
      [
        "fi",
        "ce"
      ],
      [
        "N",
        "ight"
      ],
      [
        "n",
        "on"
      ],
      [
        "ch",
        "ant"
      ],
      [
        "sh",
        "ri"
      ],
      [
        "grow",
        "ing"
      ],
      [
        "b",
        "ent"
      ],
      [
        "b",
        "ath"
      ],
      [
        "un",
        "a"
      ],
      [
        "blos",
        "so"
      ],
      [
        "2",
        "0"
      ],
      [
        "D",
        "es"
      ],
      [
        "l",
        "amp"
      ],
      [
        "n",
        "ur"
      ],
      [
        "as",
        "leep"
      ],
      [
        "if",
        "ic"
      ],
      [
        "ten",
        "tion"
      ],
      [
        "fl",
        "u"
      ],
      [
        "ci",
        "ous"
      ],
      [
        "wr",
        "itten"
      ],
      [
        "N",
        "ever"
      ],
      [
        "th",
        "ine"
      ],
      [
        "co",
        "at"
      ],
      [
        "pl",
        "ed"
      ],
      [
        "lim",
        "bs"
      ],
      [
        "bell",
        "y"
      ],
      [
        "begin",
        "ning"
      ],
      [
        "J",
        "oh"
      ],
      [
        "of",
        "fee"
      ],
      [
        "se",
        "at"
      ],
      [
        "for",
        "ms"
      ],
      [
        "id",
        "es"
      ],
      [
        "ex",
        "cept"
      ],
      [
        "t",
        "orn"
      ],
      [
        "ro",
        "pe"
      ],
      [
        "ri",
        "ous"
      ],
      [
        "hung",
        "er"
      ],
      [
        "B",
        "et"
      ],
      [
        "l",
        "uck"
      ],
      [
        "pl",
        "astic"
      ],
      [
        "ok",
        "ed"
      ],
      [
        "ide",
        "a"
      ],
      [
        "Tho",
        "se"
      ],
      [
        "T",
        "wo"
      ],
      [
        "p",
        "he"
      ],
      [
        "sc",
        "ene"
      ],
      [
        "eas",
        "y"
      ],
      [
        "pie",
        "ce"
      ],
      [
        "ha",
        "st"
      ],
      [
        "ut",
        "es"
      ],
      [
        "mo",
        "ves"
      ],
      [
        "ab",
        "and"
      ],
      [
        "your",
        "s"
      ],
      [
        "em",
        "ent"
      ],
      [
        "c",
        "ul"
      ],
      [
        "d",
        "ull"
      ],
      [
        "y",
        "o"
      ],
      [
        "ra",
        "ther"
[...]
