{
  "version": "1.0",
  "truncation": null,
  "padding": null,
  "added_tokens": [],
  "normalizer": null,
  "pre_tokenizer": {
    "type": "ByteLevel",
    "add_prefix_space": true,
    "trim_offsets": true,
    "use_regex": true
  },
  "post_processor": null,
  "decoder": null,
  "model": {
    "type": "BPE",
    "dropout": null,
    "unk_token": null,
    "continuing_subword_prefix": null,
    "end_of_word_suffix": null,
    "fuse_unk": false,
    "byte_fallback": false,
    "ignore_merges": false,
    "vocab": {
      "!": 0,
      "\"": 1,
      "#": 2,
      "$": 3,
      "%": 4,
      "&": 5,
      "'": 6,
      "(": 7,
      ")": 8,
      "*": 9,
      "+": 10,
      ",": 11,
      "-": 12,
      ".": 13,
      "/": 14,
      "0": 15,
      "1": 16,
      "2": 17,
      "3": 18,
      "4": 19,
      "5": 20,
      "6": 21,
      "7": 22,
      "8": 23,
      "9": 24,
      ":": 25,
      ";": 26,
      "<": 27,
      "=": 28,
      ">": 29,
      "?": 30,
      "@": 31,
      "A": 32,
      "B": 33,
      "C": 34,
      "D": 35,
      "E": 36,
      "F": 37,
      "G": 38,
      "H": 39,
      "I": 40,
      "J": 41,
      "K": 42,
      "L": 43,
      "M": 44,
      "N": 45,
      "O": 46,
      "P": 47,
      "Q": 48,
      "R": 49,
      "S": 50,
      "T": 51,
      "U": 52,
      "V": 53,
      "W": 54,
      "X": 55,
      "Y": 56,
      "Z": 57,
      "[": 58,
      "\\": 59,
      "]": 60,
      "^": 61,
      "_": 62,
      "`": 63,
      "a": 64,
      "b": 65,
      "c": 66,
      "d": 67,
      "e": 68,
      "f": 69,
      "g": 70,
      "h": 71,
      "i": 72,
      "j": 73,
      "k": 74,
      "l": 75,
      "m": 76,
      "n": 77,
      "o": 78,
      "p": 79,
      "q": 80,
      "r": 81,
      "s": 82,
      "t": 83,
      "u": 84,
      "v": 85,
      "w": 86,
      "x": 87,
      "y": 88,
      "z": 89,
      "{": 90,
      "|": 91,
      "}": 92,
      "~": 93,
      "¡": 94,
      "¢": 95,
      "£": 96,
      "¤": 97,
      "¥": 98,
      "¦": 99,
      "§": 100,
      "¨": 101,
      "©": 102,
      "ª": 103,
      "«": 104,
      "¬": 105,
      "®": 106,
      "¯": 107,
      "°": 108,
      "±": 109,
      "²": 110,
      "³": 111,
      "´": 112,
      "µ": 113,
      "¶": 114,
      "·": 115,
      "¸": 116,
      "¹": 117,
      "º": 118,
      "»": 119,
      "¼": 120,
      "½": 121,
      "¾": 122,
      "¿": 123,
      "Â": 124,
      "Ã": 125,
      "Ä": 126,
      "Å": 127,
      "Æ": 128,
      "Ç": 129,
      "È": 130,
      "É": 131,
      "Ê": 132,
      "Ë": 133,
      "Ì": 134,
      "Í": 135,
      "Î": 136,
      "Ï": 137,
      "Ð": 138,
      "Ñ": 139,
      "Ö": 140,
      "×": 141,
      "Ø": 142,
      "Ù": 143,
      "Ú": 144,
      "Û": 145,
      "à": 146,
      "á": 147,
      "â": 148,
      "ã": 149,
      "ä": 150,
      "å": 151,
      "æ": 152,
      "ç": 153,
      "è": 154,
      "é": 155,
      "ê": 156,
      "ë": 157,
      "ì": 158,
      "í": 159,
      "ï": 160,
      "Ċ": 161,
      "Ġ": 162,
      "Ģ": 163,
      "ģ": 164,
      "Ĥ": 165,
      "ĥ": 166,
      "Ħ": 167,
      "ħ": 168,
      "Ĩ": 169,
      "ĩ": 170,
      "Ī": 171,
      "ī": 172,
      "Ĭ": 173,
      "ĭ": 174,
      "Į": 175,
      "į": 176,
      "İ": 177,
      "ı": 178,
      "Ĳ": 179,
      "ĳ": 180,
      "Ĵ": 181,
      "ĵ": 182,
      "Ķ": 183,
      "ķ": 184,
      "ĸ": 185,
      "Ĺ": 186,
      "ĺ": 187,
      "Ļ": 188,
      "ļ": 189,
      "Ľ": 190,
      "ľ": 191,
      "Ŀ": 192,
      "ŀ": 193,
      "Ł": 194,
      "ł": 195,
      "Ń": 196,
      "ĠĠ": 197,
      "Ġt": 198,
      "he": 199,
      "in": 200,
      "Ġa": 201,
      "ĠĠĠĠ": 202,
      "Ġs": 203,
      "Ġthe": 204,
      "Ġw": 205,
      "re": 206,
      "Ġo": 207,
      "nd": 208,
      "Ġb": 209,
      "ou": 210,
      "er": 211,
      "Ġm": 212,
      "ing": 213,
      "Ġf": 214,
      "at": 215,
      "Ġc": 216,
      "it": 217,
      "es": 218,
      "is": 219,
      "Ġl": 220,
      "Ġd": 221,
      "ed": 222,
      "ĠĠĠĠĠĠĠĠ": 223,
      "on": 224,
      "Ġh": 225,
      "ar": 226,
      "or": 227,
      "en": 228,
      "ll": 229,
      "an": 230,
      "Ġp": 231,
      "Ġof": 232,
      "âĢ": 233,
      "Ġto": 234,
      "Ġth": 235,
      "Ġin": 236,
      "as": 237,
      "Ġand": 238,
      "ow": 239,
      "Ġn": 240,
      "om": 241,
      "Ġg": 242,
      "ĠI": 243,
      "le": 244,
      "Ġy": 245,
      "ot": 246,
      "gh": 247,
      "ve": 248,
      "Ġhe": 249,
      "Ġe": 250,
      "et": 251,
      "âĢĻ": 252,
      "ac": 253,
      "ay": 254,
      "ld": 255,
      "ut": 256,
      "Ġyou": 257,
      "ad": 258,
      "st": 259,
      "ic": 260,
      "Ġst": 261,
      "ir": 262,
      "Ġbe": 263,
      "se": 264,
      "Ġr": 265,
      "Ġon": 266,
      "al": 267,
      "ur": 268,
      "id": 269,
      "and": 270,
      "ght": 271,
      "The": 272,
      "Ġit": 273,
      "ke": 274,
      "Ġu": 275,
      "ver": 276,
      "Ġli": 277,
      "ith": 278,
      "ĠĠĠĠĠĠĠĠĠĠĠĠĠĠĠĠ": 279,
      "Ġmy": 280,
      "Ġis": 281,
      "Ġwh": 282,
      "im": 283,
      "am": 284,
      "Ġre": 285,
      "oo": 286,
      "Ġwe": 287,
      "ly": 288,
      "ill": 289,
      "ent": 290,
      "Ġme": 291,
      "her": 292,
      "Ġthat": 293,
      "th": 294,
      "ĠĠĠ": 295,
      "Ġwith": 296,
      "Ġfor": 297,
      "âĢĶ": 298,
      "all": 299,
      "il": 300,
      "ain": 301,
      "Ġsh": 302,
      "And": 303,
      "ight": 304,
      "ch": 305,
      "Ġse": 306,
      "ce": 307,
      "Ġfr": 308,
      "ion": 309,
      "to": 310,
      "Ġas": 311,
      "un": 312,
      "ter": 313,
      "ro": 314,
      "Ġan": 315,
      "Ġde": 316,
      "Ġnot": 317,
      "the": 318,
      "Ġk": 319,
      "ave": 320,
      "Ġwas": 321,
      "ap": 322,
      "ore": 323,
      "if": 324,
      "ess": 325,
      "ome": 326,
      "ag": 327,
      "ind": 328,
      "Ġbl": 329,
      "ong": 330,
      "ĠS": 331,
      "Ġhis": 332,
      "um": 333,
      "Ġher": 334,
      "el": 335,
      "Ġsp": 336,
      "Ġne": 337,
      "us": 338,
      "ould": 339,
      "ack": 340,
      "Ġlo": 341,
      "Ġfrom": 342,
      "one": 343,
      "ri": 344,
      "ant": 345,
      "ĠA": 346,
      "hen": 347,
      "Ġso": 348,
      "rou": 349,
      "ĊĠĠĠĠ": 350,
      "Ġyour": 351,
      "Ġat": 352,
      "Ġall": 353,
      "ers": 354,
      "ast": 355,
      "ĊĠĠĠĠĠĠĠĠ": 356,
      "ak": 357,
      "Ġch": 358,
      "od": 359,
      "ĠW": 360,
      "Ġv": 361,
      "ard": 362,
      "Ġare": 363,
      "em": 364,
      "ĠThe": 365,
      "Ġdo": 366,
      "ep": 367,
      "red": 368,
      "Ġle": 369,
      "Ġfl": 370,
      "Ġlike": 371,
      "ust": 372,
      "Ġor": 373,
      "own": 374,
      "Th": 375,
      "ie": 376,
      "ul": 377,
      "Ġthis": 378,
      "ck": 379,
      "art": 380,
      "Ġkn": 381,
      "qu": 382,
      "Ġwor": 383,
      "ist": 384,
      "ab": 385,
      "ood": 386,
      "av": 387,
      "est": 388,
      "os": 389,
      "here": 390,
      "ide": 391,
      "Ġtr": 392,
      "we": 393,
      "Ġup": 394,
      "our": 395,
      "'s": 396,
      "ct": 397,
      "ace": 398,
      "Ġhave": 399,
      "Ġno": 400,
      "op": 401,
      "ol": 402,
      "ear": 403,
      "ĠM": 404,
      "Ġal": 405,
      "Ġbr": 406,
      "Ġby": 407,
      "Ġone": 408,
      "Ġgr": 409,
      "Ġun": 410,
      "ĠB": 411,
      "res": 412,
      "Ġtheir": 413,
      "Ġcl": 414,
      "Ġj": 415,
      "ine": 416,
      "Ġthey": 417,
      "Ġout": 418,
      "ĊĠ": 419,
      "ĊĠĠĠĠĠĠĠĠĠĠĠĠĠĠĠĠ": 420,
      "ĠH": 421,
      "ĊĠĠĠ": 422,
      "Ġcan": 423,
      "of": 424,
      "Ġpl": 425,
      "Ġshe": 426,
      "ell": 427,
      "ath": 428,
      "au": 429,
      "ang": 430,
      "ate": 431,
      "old": 432,
      "ame": 433,
      "ake": 434,
      "Ġour": 435,
      "ig": 436,
      "out": 437,
      "aw": 438,
      "ook": 439,
      "Ġwho": 440,
      "fe": 441,
      "ĠC": 442,
      "ous": 443,
      "ry": 444,
      "Ġbut": 445,
      "Ġro": 446,
      "ass": 447,
      "other": 448,
      "ies": 449,
      "Ġwill": 450,
      "ark": 451,
      "Ġsu": 452,
      "ays": 453,
      "urn": 454,
      "very": 455,
      "Ġwhat": 456,
      "ite": 457,
      "Ġus": 458,
      "ound": 459,
      "hing": 460,
      "Ġits": 461,
      "ĊĠĠ": 462,
      "Ġab": 463,
      "ip": 464,
      "ĠO": 465,
      "ink": 466,
      "ings": 467,
      "Ġman": 468,
      "ick": 469,
      "are": 470,
      "Ġthem": 471,
      "Ġthere": 472,
      "ĠL": 473,
      "Ġag": 474,
      "ue": 475,
      "Ġam": 476,
      "Ġfe": 477,
      "Ġinto": 478,
      "Ġmo": 479,
      "Ġknow": 480,
      "nder": 481,
      "ach": 482,
      "sel": 483,
      "nt": 484,
      "Ġpo": 485,
      "hed": 486,
      "Ġcon": 487,
      "ure": 488,
      "orn": 489,
      "ich": 490,
      "ive": 491,
      "ime": 492,
      "Ġwhen": 493,
      "ven": 494,
      "ĠT": 495,
      "ation": 496,
      "ild": 497,
      "Ġlove": 498,
      "rough": 499,
      "Ġwere": 500,
      "Ġhim": 501,
      "Ġhand": 502,
      "ĠD": 503,
      "Ġcom": 504,
      "ĠF": 505,
      "Wh": 506,
      "ose": 507,
      "ĠN": 508,
      "Ġsc": 509,
      "Ġthou": 510,
      "ĠG": 511,
      "ĠAnd": 512,
      "Ġwat": 513,
      "ft": 514,
      "Ġar": 515,
      "aid": 516,
      "ĠP": 517,
      "Ġsm": 518,
      "Ġcr": 519,
      "âĢľ": 520,
      "Ġbre": 521,
      "Ġgo": 522,
      "Ġsk": 523,
      "itt": 524,
      "Ġex": 525,
      "Ġlight": 526,
      "ves": 527,
      "Ġdown": 528,
      "ice": 529,
      "Ġif": 530,
      "Ġey": 531,
      "be": 532,
      "Ġsee": 533,
      "Ġnight": 534,
      "Ġback": 535,
      "Ġsl": 536,
      "ile": 537,
      "age": 538,
      "Ġqu": 539,
      "Ġhad": 540,
      "pt": 541,
      "Ġgl": 542,
      "ud": 543,
      "wh": 544,
      "Ġpr": 545,
      "ity": 546,
      "âĢĿ": 547,
      "You": 548,
      "ull": 549,
      "ire": 550,
      "air": 551,
      "ree": 552,
      "ade": 553,
      "Ġnow": 554,
      "Ġgre": 555,
      "Ġover": 556,
      "ge": 557,
      "In": 558,
      "Ġwind": 559,
      "Ġlong": 560,
      "Ġ&": 561,
      "ds": 562,
      "ther": 563,
      "Ġstr": 564,
      "Ġsome": 565,
      "Ġwould": 566,
      "Ġdr": 567,
      "ness": 568,
      "Ġthrough": 569,
      "Ġwhere": 570,
      "self": 571,
      "ish": 572,
      "ĠE": 573,
      "ather": 574,
      "ows": 575,
      "alk": 576,
      "ike": 577,
      "bl": 578,
      "Ġtime": 579,
      "ream": 580,
      "Ġsay": 581,
      "for": 582,
      "Ġagain": 583,
      "Ġcould": 584,
      "ail": 585,
      "ove": 586,
      "way": 587,
      "Ġhow": 588,
      "ars": 589,
      "ber": 590,
      "pp": 591,
      "hes": 592,
      "ne": 593,
      "Ġday": 594,
      "te": 595,
      "Ġevery": 596,
      "ody": 597,
      "ts": 598,
      "Ġmore": 599,
      "But": 600,
      "ence": 601,
      "app": 602,
      "Ġsun": 603,
      "ble": 604,
      "oy": 605,
      "ved": 606,
      "Ġen": 607,
      "Ġheart": 608,
      "Ġtoo": 609,
      "fore": 610,
      "fter": 611,
      "Ġstill": 612,
      "ise": 613,
      "Ġlook": 614,
      "Ġthen": 615,
      "Ġtw": 616,
      "That": 617,
      "Ġpe": 618,
      "ans": 619,
      "ĊĠĠĠĠĠĠĠĠĠĠĠĠĠĠĠĠĠĠĠĠĠĠĠĠĠĠĠĠĠĠĠĠ": 620,
      "ance": 621,
      "Ġwant": 622,
      "Ġway": 623,
      "wn": 624,
      "ss": 625,
      "ount": 626,
      "To": 627,
      "Ġnever": 628,
      "less": 629,
      "Ġ.": 630,
      "les": 631,
      "Ġlife": 632,
      "Ġother": 633,
      "Ġco": 634,
      "Ġdid": 635,
      "Ġear": 636,
      "ĠR": 637,
      "round": 638,
      "Ġhas": 639,
      "rom": 640,
      "Ġdark": 641,
      "led": 642,
      "He": 643,
      "iss": 644,
      "ĊĊ": 645,
      "ory": 646,
      "Ġim": 647,
      "omet": 648,
      "Ġwhich": 649,
      "ears": 650,
      "ough": 651,
      "Ġeyes": 652,
      "ittle": 653,
      "ress": 654,
      "mer": 655,
      "ĠĠĠĠĠ": 656,
      "'t": 657,
      "ving": 658,
      "Ġwr": 659,
      "igh": 660,
      "Ġworld": 661,
      "ren": 662,
      "Ġdes": 663,
      "Ġsw": 664,
      "able": 665,
      "Ġsaid": 666,
      "ause": 667,
      "with": 668,
      "Ġhere": 669,
      "Ġonly": 670,
      "ens": 671,
      "pe": 672,
      "that": 673,
      "ĠâĢľ": 674,
      "Ġte": 675,
      "Ġold": 676,
      "Ġrem": 677,
      "Ġbody": 678,
      "ort": 679,
      "ost": 680,
      "It": 681,
      "iz": 682,
      "We": 683,
      "Ġthan": 684,
      "Ġsil": 685,
      "Ġchild": 686,
      "ied": 687,
      "per": 688,
      "pl": 689,
      "side": 690,
      "Ġke": 691,
      "Ġcome": 692,
      "ĊĠĠĠĠĠĠĠĠĠĠĠ": 693,
      "ps": 694,
      "Ġthink": 695,
      "ond": 696,
      "ting": 697,
      "Ġoff": 698,
      "ĠWh": 699,
      "ĠJ": 700,
      "irst": 701,
      "Ġwater": 702,
      "ff": 703,
      "Ġabout": 704,
      "Ġswe": 705,
      "Ġlittle": 706,
      "Ġcall": 707,
      "ets": 708,
      "Ġany": 709,
      "Ġunder": 710,
      "ors": 711,
      "Ġmother": 712,
      "Ġwom": 713,
      "iver": 714,
      "Ġeach": 715,
      "Ġac": 716,
      "my": 717,
      "ĠĠĠĠĠĠĠ": 718,
      "Ġdis": 719,
      "Ġpro": 720,
      "Ġwhite": 721,
      "aves": 722,
      "Ġsle": 723,
      "Ġjust": 724,
      "Ġbec": 725,
      "Ġafter": 726,
      "..": 727,
      "Ġtre": 728,
      "arm": 729,
      "Ġblack": 730,
      "Ġfo": 731,
      "Ġturn": 732,
      "Ġspe": 733,
      "ling": 734,
      "Ġdream": 735,
      "az": 736,
      "ross": 737,
      "Ġown": 738,
      "Ġaway": 739,
      "Ġbeen": 740,
      "ful": 741,
      "Of": 742,
      "oth": 743,
      "ated": 744,
      "but": 745,
      "Ġhead": 746,
      "Ġeven": 747,
      "ward": 748,
      "ĊĠĠĠĠĠ": 749,
      "ĠTh": 750,
      "ted": 751,
      "ons": 752,
      "'d": 753,
      "ĠĊ": 754,
      "Ġsn": 755,
      "ally": 756,
      "ment": 757,
      "Ġcar": 758,
      "Ġair": 759,
      "Ġbir": 760,
      "Ġbet": 761,
      "Ġbefore": 762,
      "Ġper": 763,
      "Ġend": 764,
      "not": 765,
      "ew": 766,
      "Ġsky": 767,
      "uch": 768,
      "ouse": 769,
      "ĠĠĠĠĠĠ": 770,
      "Ġface": 771,
      "ĠHe": 772,
      "Ġlet": 773,
      "uck": 774,
      "aut": 775,
      "ious": 776,
      "Ġop": 777,
      "ock": 778,
      "Ġpass": 779,
      "like": 780,
      "its": 781,
      "Ġthought": 782,
      "Ġdon": 783,
      "Ġmake": 784,
      "Ġnew": 785,
      "anc": 786,
      "sh": 787,
      "ĠIn": 788,
      "ary": 789,
      "When": 790,
      "Ġdead": 791,
      "row": 792,
      "where": 793,
      "Ġhands": 794,
      "ĠIt": 795,
      "read": 796,
      "Ġem": 797,
      "Ġmade": 798,
      "aking": 799,
      "ung": 800,
      "For": 801,
      "so": 802,
      "outh": 803,
      "Ġfeel": 804,
      "ched": 805,
      "Ġfirst": 806,
      "Ġbel": 807,
      "ks": 808,
      "ase": 809,
      "ĊĠĠĠĠĠĠĠĠĠ": 810,
      "ret": 811,
      "ms": 812,
      "My": 813,
      "akes": 814,
      "aught": 815,
      "ign": 816,
      "ool": 817,
      "ower": 818,
      "Ġwalk": 819,
      "Ġgood": 820,
      "Ġ(": 821,
      "Ġfall": 822,
      "ways": 823,
      "Ġlast": 824,
      "Ġearth": 825,
      "ng": 826,
      "ple": 827,
      "Ġsomet": 828,
      "Ġmay": 829,
      "Ġsea": 830,
      "ions": 831,
      "get": 832,
      "Ġmust": 833,
      "ord": 834,
      "Ġtell": 835,
      "thing": 836,
      "iv": 837,
      "ning": 838,
      "Ġshould": 839,
      "og": 840,
      "Ġsing": 841,
      "ty": 842,
      "Ġmen": 843,
      "With": 844,
      "ait": 845,
      "Ġhome": 846,
      "ug": 847,
      "Ġsleep": 848,
      "ield": 849,
      "br": 850,
      "Ġthings": 851,
      "oss": 852,
      "Ġthose": 853,
      "Ġche": 854,
      "Ġbo": 855,
      "Ġsou": 856,
      "imes": 857,
      "Ġleft": 858,
      "ia": 859,
      "you": 860,
      "Ġopen": 861,
      "act": 862,
      "Ġred": 863,
      "Ġthy": 864,
      "ange": 865,
      "Ġnothing": 866,
      "Ġ\"": 867,
      "ains": 868,
      "ĠWe": 869,
      "Ġvo": 870,
      "Ġthese": 871,
      "Ġtwo": 872,
      "ween": 873,
      "What": 874,
      "ub": 875,
      "Ġmany": 876,
      "ale": 877,
      "Ġonce": 878,
      "Ġshall": 879,
      "Ġel": 880,
      "Ġhear": 881,
      "Ġpart": 882,
      "cl": 883,
      "ople": 884,
      "Ġmoon": 885,
      "They": 886,
      "tr": 887,
      "ins": 888,
      "Ġblue": 889,
      "Ġsound": 890,
      "Ġbeg": 891,
      "ped": 892,
      "Ġneed": 893,
      "ĠYou": 894,
      "Ġfather": 895,
      "Ġblood": 896,
      "As": 897,
      "Ġanother": 898,
      "ĊĠĠĠĠĠĠĠ": 899,
      "Ġname": 900,
      "Ġhouse": 901,
      "Ġyears": 902,
      "ene": 903,
      "Ġbeaut": 904,
      "Ġsong": 905,
      "Ġad": 906,
      "Ġpain": 907,
      "Ġdeath": 908,
      "no": 909,
      "ating": 910,
      "Ġfind": 911,
      "Ġmuch": 912,
      "Ġcur": 913,
      "from": 914,
      "Ġfore": 915,
      "ier": 916,
      "irl": 917,
      "Ġsur": 918,
      "Ġplace": 919,
      "bs": 920,
      "ying": 921,
      "den": 922,
      "ines": 923,
      "Ġcle": 924,
      "Ġwoman": 925,
      "Ġget": 926,
      "Ġever": 927,
      "up": 928,
      "Ġmight": 929,
      "Ġrain": 930,
      "light": 931,
      "ĠGod": 932,
      "ank": 933,
      "Ġmorn": 934,
      "als": 935,
      "Ġapp": 936,
      "atter": 937,
      "ands": 938,
      "Ġupon": 939,
      "Ġbed": 940,
      "Ġaround": 941,
      "Ġshad": 942,
      "Ġpoem": 943,
      "Ġkeep": 944,
      "Ġhapp": 945,
      "ching": 946,
      "iend": 947,
      "Ġhold": 948,
      "Ġmouth": 949,
      "ones": 950,
      "Ġyet": 951,
      "Ġsweet": 952,
      "ott": 953,
      "Ġroom": 954,
      "isten": 955,
      "Ġsoul": 956,
      "Ġtake": 957,
      "She": 958,
      "ats": 959,
      "de": 960,
      "Ġwork": 961,
      "Ġi": 962,
      "Ġdoes": 963,
      "Be": 964,
      "ember": 965,
      "Ġhair": 966,
      "Ġhum": 967,
      "ush": 968,
      "ĊĠĠĠĠĠĠĠĠĠĠĠĠĠĠĠĠĠĠĠĠĠĠĠĠĠĠĠĠĠĠĠĠĠĠĠĠĠĠĠĠĠĠĠĠĠĠĠĠ": 969,
      "pr": 970,
      "There": 971,
      "Ġfire": 972,
      "Ġpre": 973,
      "Ġalways": 974,
      "Ġboy": 975,
      "Ġright": 976,
      "ater": 977,
      "Ġpeople": 978,
      "Ġsmall": 979,
      "ĠBut": 980,
      "Ġheav": 981,
      "Ġgreen": 982,
      "Ġfar": 983,
      "Ġthing": 984,
      "Ġsomething": 985,
      "Ġcame": 986,
      "rie": 987,
      "ian": 988,
      "by": 989,
      "ĠY": 990,
      "Ġfriend": 991,
      "Ġbu": 992,
      "Ġgold": 993,
      "ph": 994,
      "Ġmind": 995,
      "On": 996,
      "me": 997,
      "ily": 998,
      "Ġread": 999,
      "Ġrest": 1000,
      "Ġriver": 1001,
      "ash": 1002,
      "Ġdays": 1003,
      "oke": 1004,
      "ial": 1005,
      "Ġabove": 1006,
      "Ġho": 1007,
      "ert": 1008,
      "Ġwithout": 1009,
      "Ġgu": 1010,
      "Ġask": 1011,
      "arn": 1012,
      "ried": 1013,
      "Ġwords": 1014,
      "fl": 1015,
      "Ġseem": 1016,
      "awn": 1017,
      "ope": 1018,
      "int": 1019,
      "ken": 1020,
      "Ġbreath": 1021,
      "ĠCh": 1022,
      "ect": 1023,
      "Ġsaw": 1024,
      "Ġstre": 1025,
      "Ġrec": 1026,
      "Ġtrees": 1027,
      "--": 1028,
      "ife": 1029,
      "Ġcont": 1030,
      "Ġdeep": 1031,
      "Ġflow": 1032,
      "Ġdoor": 1033,
      "So": 1034,
      "Ġgreat": 1035,
      "ape": 1036,
      "Ġmorning": 1037,
      "Ġthough": 1038,
      "Ġagainst": 1039,
      ".âĢĿ": 1040,
      "Ġhour": 1041,
      "Ġpast": 1042,
      "Ġburn": 1043,
      "when": 1044,
      "Ġste": 1045,
      "day": 1046,
      "ĠMy": 1047,
      "ix": 1048,
      "Ġ1": 1049,
      "Ġwhile": 1050,
      "io": 1051,
      "Ġwell": 1052,
      "Ġmar": 1053,
      "Ġbetween": 1054,
      "Ġwall": 1055,
      "Ġstand": 1056,
      "hind": 1057,
      "aving": 1058,
      "Ġhigh": 1059,
      "Ġcount": 1060,
      "alf": 1061,
      "Ġnor": 1062,
      "Ġcre": 1063,
      "Ġmus": 1064,
      "No": 1065,
      "Ġcol": 1066,
      "ĊĠĠĠĠĠĠĠĠĠĠĠĠĠĠĠĠĠĠĠĠĠĠĠĠ": 1067,
      "ible": 1068,
      "Ġret": 1069,
      "Ġsame": 1070,
      "aps": 1071,
      "Ġbro": 1072,
      "oud": 1073,
      "Ġwait": 1074,
      "Ġbeing": 1075,
      "Ġmyself": 1076,
      "Ġcold": 1077,
      "ering": 1078,
      "ĊĠĠĠĠĠĠ": 1079,
      "Or": 1080,
      "Ġfield": 1081,
      "Ġsum": 1082,
      "ĠTo": 1083,
      "Ġtree": 1084,
      "aces": 1085,
      "ches": 1086,
      "Ġhard": 1087,
      "Ġres": 1088,
      "Ġsec": 1089,
      "til": 1090,
      "ĠK": 1091,
      "Ġph": 1092,
      "Ġeye": 1093,
      "Ġkind": 1094,
      "Ġlive": 1095,
      "Ġfeet": 1096,
      "ring": 1097,
      "Ġdist": 1098,
      "Ġwood": 1099,
      "Ġland": 1100,
      "ict": 1101,
      "ĠWhen": 1102,
      "Ġtou": 1103,
      "Ġinside": 1104,
      "ĠSt": 1105,
      "ared": 1106,
      "Ġrun": 1107,
      "Ġgirl": 1108,
      "Ġsnow": 1109,
      "xt": 1110,
      "Ġchildren": 1111,
      "Ġword": 1112,
      "Ġleaves": 1113,
      "Ã©": 1114,
      "Ġside": 1115,
      "Ġmean": 1116,
      "iet": 1117,
      "Ġbecause": 1118,
      "und": 1119,
      "Ġflo": 1120,
      "ged": 1121,
      "Ġsays": 1122,
      "Ġvoice": 1123,
      "Where": 1124,
      "cause": 1125,
      "ots": 1126,
      "This": 1127,
      "att": 1128,
      "Ġent": 1129,
      "Ġmom": 1130,
      "owing": 1131,
      "ĠV": 1132,
      "Ġstop": 1133,
      "af": 1134,
      "Ġthee": 1135,
      "who": 1136,
      "Ġgone": 1137,
      "ont": 1138,
      "Ġstar": 1139,
      "Ġremember": 1140,
      "Ġfull": 1141,
      "ered": 1142,
      "ened": 1143,
      "ah": 1144,
      "ters": 1145,
      "Ġlisten": 1146,
      "Ġple": 1147,
      "Ġstars": 1148,
      "ient": 1149,
      "How": 1150,
      "If": 1151,
      "Ġplay": 1152,
      "Ġwindow": 1153,
      "ates": 1154,
      "els": 1155,
      "Ġyoung": 1156,
      "Then": 1157,
      "ĠWhat": 1158,
      "oes": 1159,
      "ĠâĢ": 1160,
      "Ġalone": 1161,
      "Ġlost": 1162,
      "ction": 1163,
      "Ġsuch": 1164,
      "amp": 1165,
      "ift": 1166,
      "Ġknew": 1167,
      "ures": 1168,
      "ents": 1169,
      "ĠShe": 1170,
      "vers": 1171,
      "Ġgrass": 1172,
      "Ġmem": 1173,
      "Ġset": 1174,
      "alm": 1175,
      "eth": 1176,
      "into": 1177,
      "ills": 1178,
      "Ġskin": 1179,
      "Ġwin": 1180,
      "Ġhor": 1181,
      "Ġacross": 1182,
      "Ġgi": 1183,
      "Ġyear": 1184,
      "Ġenough": 1185,
      "Ġfing": 1186,
      "ĠBe": 1187,
      "Ġmount": 1188,
      "ense": 1189,
      "man": 1190,
      "Ġsoft": 1191,
      "how": 1192,
      "gs": 1193,
      "Ġgive": 1194,
      "Ġpur": 1195,
      "ĊĠĠĠĠĠĠĠĠĠĠ": 1196,
      "ames": 1197,
      "Ġang": 1198,
      "uff": 1199,
      "Ġbehind": 1200,
      "Ġmost": 1201,
      "eneath": 1202,
      "ĠThey": 1203,
      "str": 1204,
      "Ġve": 1205,
      "Ġwo": 1206,
      "irt": 1207,
      "ations": 1208,
      "Ġbur": 1209,
      "Ġmon": 1210,
      "selves": 1211,
      "Ġbright": 1212,
      "ult": 1213,
      "ince": 1214,
      "what": 1215,
      "Ġput": 1216,
      "sc": 1217,
      "Ġslow": 1218,
      "All": 1219,
      "Ġwar": 1220,
      "Ġfound": 1221,
      "gr": 1222,
      "ĠU": 1223,
      "ĠThat": 1224,
      "Ġ/": 1225,
      "Ġgod": 1226,
      "Ġhalf": 1227,
      "Ġcry": 1228,
      "Ġwild": 1229,
      "Ġtrans": 1230,
      "Ġdro": 1231,
      "Ġspeak": 1232,
      "bed": 1233,
      "Ġwent": 1234,
      "ips": 1235,
      "Ġroad": 1236,
      "ey": 1237,
      "Ġdie": 1238,
      "der": 1239,
      "oom": 1240,
      "Ġmid": 1241,
      "Ġcannot": 1242,
      "Ġbelie": 1243,
      "com": 1244,
      "ib": 1245,
      "ping": 1246,
      "Ġtong": 1247,
      "Ġdidn": 1248,
      "tern": 1249,
      "Ġitself": 1250,
      "Ġdri": 1251,
      "let": 1252,
      "owed": 1253,
      "Ġsummer": 1254,
      "Ġrock": 1255,
      "Like": 1256,
      "An": 1257,
      "ides": 1258,
      "ĠFor": 1259,
      "Ġmir": 1260,
      "Ġbook": 1261,
      "atch": 1262,
      "elt": 1263,
      "Not": 1264,
      "Ġcomp": 1265,
      "co": 1266,
      "From": 1267,
      "they": 1268,
      "Ġstor": 1269,
      "Ġreturn": 1270,
      "ature": 1271,
      "Ġlau": 1272,
      "Ġjoy": 1273,
      "Ġheard": 1274,
      "iful": 1275,
      "gether": 1276,
      "'m": 1277,
      "ined": 1278,
      "St": 1279,
      "land": 1280,
      "Ġfree": 1281,
      "rent": 1282,
      "Ġalong": 1283,
      "Who": 1284,
      "Ġpray": 1285,
      "ek": 1286,
      "Ġnear": 1287,
      "ĠNo": 1288,
      "Ġmoment": 1289,
      "ished": 1290,
      "Ġla": 1291,
      "Ġglass": 1292,
      "Ġter": 1293,
      "iness": 1294,
      "ical": 1295,
      "fr": 1296,
      "Ġground": 1297,
      "Ġkiss": 1298,
      "Ġempt": 1299,
      "Ġwhy": 1300,
      "Ġcity": 1301,
      "ror": 1302,
      "Ġtalk": 1303,
      "Ġcare": 1304,
      "Ġthr": 1305,
      "Ġart": 1306,
      "Ġflowers": 1307,
      "ane": 1308,
      "Ġbreak": 1309,
      "illed": 1310,
      "ĠâĢĶ": 1311,
      "Ġmet": 1312,
      "Ġfear": 1313,
      "Ġeverything": 1314,
      ".\"": 1315,
      "Ġfam": 1316,
      "Ġcour": 1317,
      "Ġdust": 1318,
      "Ġmine": 1319,
      "Ġimp": 1320,
      "Ġcomes": 1321,
      "ĠĠĠĠĠĠĠĠĠĠĠĠĠĠĠĠĠĠĠĠĠĠĠĠĠĠĠĠĠĠĠĠ": 1322,
      "Ġes": 1323,
      "ĠĊĠĠ": 1324,
      "Ġleave": 1325,
      "Ġstart": 1326,
      "Ġseen": 1327,
      "she": 1328,
      "uth": 1329,
      "lf": 1330,
      "was": 1331,
      "Ġvery": 1332,
      "Ġtoward": 1333,
      "ĊĠĠĠĠĠĠĠĠĠĠĠĠ": 1334,
      "orrow": 1335,
      "ery": 1336,
      "Ġarms": 1337,
      "Ġbar": 1338,
      "Ġclose": 1339,
      "ues": 1340,
      "ellow": 1341,
      "ee": 1342,
      "Ġed": 1343,
      "angu": 1344,
      "Ġbird": 1345,
      "Ġmusic": 1346,
      "ead": 1347,
      "Ġuntil": 1348,
      "aughter": 1349,
      "ĠThere": 1350,
      "ĠThis": 1351,
      "irc": 1352,
      "Ġbell": 1353,
      "sp": 1354,
      "alt": 1355,
      "most": 1356,
      "ither": 1357,
      "Is": 1358,
      "ym": 1359,
      "Ġwatch": 1360,
      "ired": 1361,
      "Ġwhose": 1362,
      "Ġsomeone": 1363,
      "ĠOn": 1364,
      "Ġcut": 1365,
      "At": 1366,
      "ces": 1367,
      "Ġgoing": 1368,
      "ÃŃ": 1369,
      "Ġgot": 1370,
      "Ġreal": 1371,
      "Ġspir": 1372,
      "part": 1373,
      "Ġimag": 1374,
      "Ġliving": 1375,
      "Ġref": 1376,
      "aring": 1377,
      "Ġfin": 1378,
      "Ġpres": 1379,
      "Ġlay": 1380,
      "Ġelse": 1381,
      "Ġque": 1382,
      "Ġforg": 1383,
      "ze": 1384,
      "head": 1385,
      "Ġpar": 1386,
      "Ġsilence": 1387,
      "Ġhel": 1388,
      "Ġdel": 1389,
      "Ġshadow": 1390,
      "Ġdif": 1391,
      "Ġvis": 1392,
      "Ġser": 1393,
      "Ġstep": 1394,
      "eds": 1395,
      "Ġloved": 1396,
      "Ġdied": 1397,
      "Ġround": 1398,
      "Ġwhe": 1399,
      "Ġlips": 1400,
      "oc": 1401,
      "ute": 1402,
      "Ġstreet": 1403,
      "ual": 1404,
      "fect": 1405,
      "Ġthro": 1406,
      "oney": 1407,
      "ries": 1408,
      "Ġtouch": 1409,
      "sw": 1410,
      "Ġsad": 1411,
      "athe": 1412,
      "Ġtold": 1413,
      "Ġaw": 1414,
      "ex": 1415,
      "Ã¡": 1416,
      "ra": 1417,
      "ĠHow": 1418,
      "Ġline": 1419,
      "Ġsub": 1420,
      "ason": 1421,
      "Ġthree": 1422,
      "Ġform": 1423,
      "Ġlearn": 1424,
      "Ġwomen": 1425,
      "Ġclos": 1426,
      "uc": 1427,
      "umb": 1428,
      "ised": 1429,
      "Ġstone": 1430,
      "Ġbeauty": 1431,
      "Ġcorn": 1432,
      "ĊĠĠĠĠĠĠĠĠĠĠĠĠĠ": 1433,
      "Ġwarm": 1434,
      "ition": 1435,
      "Ġtogether": 1436,
      "Ġinv": 1437,
      "iles": 1438,
      "ouds": 1439,
      "ls": 1440,
      "ants": 1441,
      "Ġwhole": 1442,
      "Ġnext": 1443,
      "Ġtrue": 1444,
      "Ġcalled": 1445,
      "over": 1446,
      "Ġdec": 1447,
      "Ġfoll": 1448,
      "yond": 1449,
      "Ġhung": 1450,
      "Ġbest": 1451,
      "Ġpers": 1452,
      "rief": 1453,
      "Ġbirds": 1454,
      "Ġamong": 1455,
      "Ġmin": 1456,
      "Ġlangu": 1457,
      "Ġcomm": 1458,
      "Ġtook": 1459,
      "Now": 1460,
      "Ġwinter": 1461,
      "odies": 1462,
      "uit": 1463,
      ",âĢĿ": 1464,
      "Ġcross": 1465,
      "Ġwon": 1466,
      "ĠAs": 1467,
      "Ġbeautiful": 1468,
      "Ġhuman": 1469,
      "Ġcor": 1470,
      "stand": 1471,
      "Ġtongue": 1472,
      "Ġgrand": 1473,
      "Ġbit": 1474,
      "Ġless": 1475,
      "inn": 1476,
      "cept": 1477,
      "Ġgrow": 1478,
      "Ġself": 1479,
      "Ġson": 1480,
      "Ġbeneath": 1481,
      "Ġmakes": 1482,
      "oun": 1483,
      "Ġdreams": 1484,
      "Ġpoet": 1485,
      "under": 1486,
      ",âĢĶ": 1487,
      "Ġpull": 1488,
      "Ġgard": 1489,
      "pect": 1490,
      "this": 1491,
      "ann": 1492,
      "ĊĠĠĠĠĠĠĠĠĠĠĠĠĠĠĠĠĠĠĠĠĠĠĠĠĠĠĠĠĠĠĠĠĠĠĠĠĠĠĠĠ": 1493,
      "Some": 1494,
      "ails": 1495,
      "Ġlie": 1496,
      "Ġcountry": 1497,
      "Sh": 1498,
      "lit": 1499,
      "oof": 1500,
      "rap": 1501,
      "ys": 1502,
      "Ġfa": 1503,
      "Ġdone": 1504,
      "One": 1505,
      "Ġmove": 1506,
      "Ġempty": 1507,
      "Ġsqu": 1508,
      "tered": 1509,
      "ize": 1510,
      "iny": 1511,
      "ards": 1512,
      "now": 1513,
      "ored": 1514,
      "esh": 1515,
      "ax": 1516,
      "asure": 1517,
      "aked": 1518,
      "Ġhur": 1519,
      "Ġrose": 1520,
      "Ġlow": 1521,
      "then": 1522,
      "ject": 1523,
      "Ġrel": 1524,
      "ude": 1525,
      "ists": 1526,
      "Ġquiet": 1527,
      "ump": 1528,
      "Ġfoot": 1529,
      "Ġborn": 1530,
      "Ġfly": 1531,
      "ĠOr": 1532,
      "host": 1533,
      "ever": 1534,
      "ĠSo": 1535,
      "Ġbetter": 1536,
      "ote": 1537,
      "Ġlate": 1538,
      "con": 1539,
      "Ġsign": 1540,
      "cess": 1541,
      "Ġwings": 1542,
      "Ġcent": 1543,
      "aze": 1544,
      "Ġhope": 1545,
      "Ġsit": 1546,
      "Ġev": 1547,
      "Ġhot": 1548,
      "ĠIf": 1549,
      "ained": 1550,
      "Ġstay": 1551,
      "ready": 1552,
      "Ġwonder": 1553,
      "Ġsch": 1554,
      "ern": 1555,
      "bo": 1556,
      "body": 1557,
      "Ġcirc": 1558,
      "Ġdarkness": 1559,
      "Ġheaven": 1560,
      "Ġbroken": 1561,
      "your": 1562,
      "ires": 1563,
      "Ġsand": 1564,
      "Ġbab": 1565,
      "Ġboth": 1566,
      "Ġris": 1567,
      "Ġspace": 1568,
      "ilt": 1569,
      "ĠAn": 1570,
      "cean": 1571,
      "ĠDe": 1572,
      "Ġstory": 1573,
      "ging": 1574,
      "Ġlim": 1575,
      "Ġclouds": 1576,
      "use": 1577,
      "meric": 1578,
      "Ġlift": 1579,
      "Ġmemory": 1580,
      "Ġrep": 1581,
      "Ġfew": 1582,
      "ening": 1583,
      "ĠAll": 1584,
      "aper": 1585,
      "Let": 1586,
      "king": 1587,
      "Ġjo": 1588,
      "aint": 1589,
      "Ġbrother": 1590,
      "Ġbig": 1591,
      "Ġdog": 1592,
      "His": 1593,
      "Ġact": 1594,
      "Ġfair": 1595,
      "ĠOf": 1596,
      "Ġarm": 1597,
      "Ġclear": 1598,
      "ices": 1599,
      "ĠCl": 1600,
      "Ġdrink": 1601,
      "Ġwanted": 1602,
      "aven": 1603,
      "'ve": 1604,
      "ister": 1605,
      "rought": 1606,
      "Ġ2": 1607,
      "Ġspring": 1608,
      "Ġmark": 1609,
      "Ġfur": 1610,
      "Ġheld": 1611,
      "amed": 1612,
      "que": 1613,
      "Ġsat": 1614,
      "Ġturned": 1615,
      "Ġyellow": 1616,
      "Ġbreast": 1617,
      "'ll": 1618,
      "Ġele": 1619,
      "ĠSh": 1620,
      "Ġlooking": 1621,
      "bling": 1622,
      "tend": 1623,
      "Ġbus": 1624,
      "Ġmiss": 1625,
      "Ġmatter": 1626,
      "Ġtown": 1627,
      "ĠBr": 1628,
      "fin": 1629,
      "Ġir": 1630,
      "Ġfell": 1631,
      "Ġer": 1632,
      "Ġtri": 1633,
      "Ġbodies": 1634,
      "Ġstri": 1635,
      "Ġinst": 1636,
      "ming": 1637,
      "ured": 1638,
      "Ġ'": 1639,
      "Ġsim": 1640,
      "Ġfelt": 1641,
      "ĠWith": 1642,
      "Ġflower": 1643,
      "Ġalso": 1644,
      "bre": 1645,
      "Ġghost": 1646,
      "Ġstood": 1647,
      "Ġcoll": 1648,
      "Ġsmell": 1649,
      "there": 1650,
      "dden": 1651,
      "ĊĠĠĠĠĠĠĠĠĠĠĠĠĠĠ": 1652,
      "Ġknows": 1653,
      "wor": 1654,
      "oll": 1655,
      "Ġroll": 1656,
      "dle": 1657,
      "his": 1658,
      "Ġshore": 1659,
      "Ġflesh": 1660,
      "Ġlaugh": 1661,
      "cent": 1662,
      "Ġpath": 1663,
      "Ġpower": 1664,
      "aun": 1665,
      "night": 1666,
      "Ġmist": 1667,
      "Ġce": 1668,
      "apt": 1669,
      "Ġtem": 1670,
      "Ġint": 1671,
      "aken": 1672,
      "Ġeat": 1673,
      "Ġsilver": 1674,
      "Ġdress": 1675,
      "ask": 1676,
      "Ġgoes": 1677,
      "Ġtears": 1678,
      "Ġmer": 1679,
      "Ġwithin": 1680,
      "Ġbrown": 1681,
      "Ġfingers": 1682,
      "Ġtable": 1683,
      "une": 1684,
      "Ġbegin": 1685,
      "Ġwhis": 1686,
      "Ġlooked": 1687,
      "Ġtimes": 1688,
      "ages": 1689,
      "Ġforget": 1690,
      "Ġsilent": 1691,
      "unk": 1692,
      "eside": 1693,
      "ison": 1694,
      "Ġfle": 1695,
      "....": 1696,
      "ges": 1697,
      "hold": 1698,
      "ced": 1699,
      "Ġcat": 1700,
      "Ġlanguage": 1701,
      "Ġbecome": 1702,
      "ĠAl": 1703,
      "Ġspirit": 1704,
      "Ġdiffe": 1705,
      "Ġused": 1706,
      "hood": 1707,
      "Ġble": 1708,
      "Ġocean": 1709,
      "aster": 1710,
      "ience": 1711,
      "Ġlives": 1712,
      "Ġver": 1713,
      "ĠAr": 1714,
      "Ġthous": 1715,
      "Ġsure": 1716,
      "room": 1717,
      "ids": 1718,
      "'re": 1719,
      "iding": 1720,
      "ĠNot": 1721,
      "By": 1722,
      "ger": 1723,
      "oose": 1724,
      "Ġshow": 1725,
      "Ġexp": 1726,
      "Ġfloor": 1727,
      "Ġalmost": 1728,
      "ought": 1729,
      "Ġcoming": 1730,
      "ird": 1731,
      "Ġreg": 1732,
      "Ġhours": 1733,
      "Ġlonger": 1734,
      "ĠAmeric": 1735,
      "well": 1736,
      "Ġbelieve": 1737,
      "ives": 1738,
      "ular": 1739,
      "Ġstrong": 1740,
      "Ġage": 1741,
      "Ġcloud": 1742,
      "ĠIs": 1743,
      "Ġbring": 1744,
      "Ġsudden": 1745,
      "Ġgarden": 1746,
      "Ġdou": 1747,
      "Ġdawn": 1748,
      "Ġinter": 1749,
      "aced": 1750,
      "vel": 1751,
      "Ġcolor": 1752,
      "Ġrise": 1753,
      "Ġquest": 1754,
      "ĊĠĠĠĠĠĠĠĠĠĠĠĠĠĠĠĠĠĠĠĠĠĠĠ": 1755,
      "ric": 1756,
      "Ġgent": 1757,
      "Ġra": 1758,
      "Ġsight": 1759,
      "while": 1760,
      "haps": 1761,
      "Ġpol": 1762,
      "Ġmel": 1763,
      "Ġtruth": 1764,
      "ining": 1765,
      "arp": 1766,
      "Ġatt": 1767,
      "Ġind": 1768,
      "Ġpeace": 1769,
      "acks": 1770,
      "Ġz": 1771,
      "Your": 1772,
      "Ġsoon": 1773,
      "gth": 1774,
      "ized": 1775,
      "med": 1776,
      "Ġanc": 1777,
      "Ġgrave": 1778,
      "Ġpat": 1779,
      "Ġwrite": 1780,
      "some": 1781,
      "Ġbare": 1782,
      "Ġhang": 1783,
      "ady": 1784,
      "ĠBl": 1785,
      "Ġbones": 1786,
      "Ġgray": 1787,
      "Ġdear": 1788,
      "Ġsent": 1789,
      "which": 1790,
      "Ġyes": 1791,
      "ĊĊĊ": 1792,
      "ertain": 1793,
      "ĠâĢĻ": 1794,
      "rest": 1795,
      "cy": 1796,
      "ten": 1797,
      "ĠAt": 1798,
      "apped": 1799,
      "oon": 1800,
      "Ġgen": 1801,
      "Ġund": 1802,
      "iling": 1803,
      "Ġalready": 1804,
      "Ġneck": 1805,
      "Her": 1806,
      "Ġothers": 1807,
      "Ġforest": 1808,
      "Ġmur": 1809,
      "iff": 1810,
      "Ġanything": 1811,
      "Ġperson": 1812,
      "ĠĠĠĠĠĠĠĠĠ": 1813,
      "Ġconf": 1814,
      "ities": 1815,
      ",\"": 1816,
      "through": 1817,
      "reat": 1818,
      "Ġposs": 1819,
      "Ġeas": 1820,
      "ĠSp": 1821,
      "Ġwound": 1822,
      "ony": 1823,
      "itting": 1824,
      "ster": 1825,
      "Ġanim": 1826,
      "Ġstrange": 1827,
      "Ġwaves": 1828,
      "Ġgave": 1829,
      "their": 1830,
      "Ġgolden": 1831,
      "Ġ+": 1832,
      "iled": 1833,
      "Ġfront": 1834,
      "any": 1835,
      "Ġpen": 1836,
      "ru": 1837,
      "Ġclean": 1838,
      "Ġbeyond": 1839,
      "Ġmeet": 1840,
      "Ġacc": 1841,
      "Ġbuild": 1842,
      "Ġstream": 1843,
      "Ġhist": 1844,
      "wo": 1845,
      "Ġic": 1846,
      "Ġfre": 1847,
      "anger": 1848,
      "Ġhelp": 1849,
      "ighb": 1850,
      "Ġpri": 1851,
      "hy": 1852,
      "Ġwish": 1853,
      "though": 1854,
      "Al": 1855,
      "oot": 1856,
      "Ġsy": 1857,
      "Ġbow": 1858,
      "Ġfut": 1859,
      "Ġthemselves": 1860,
      "Ġwaiting": 1861,
      "ades": 1862,
      "nds": 1863,
      "ushed": 1864,
      "ĠĊĠĠĠ": 1865,
      "Ġwet": 1866,
      "Ġwrong": 1867,
      "Ġschool": 1868,
      "ked": 1869,
      "Ã³": 1870,
      "Ġblind": 1871,
      "Ġlead": 1872,
      "ĠÐ": 1873,
      "ipped": 1874,
      "Ġdim": 1875,
      "Ġins": 1876,
      "Ġwalls": 1877,
      "Ġfriends": 1878,
      "Ġaud": 1879,
      "reen": 1880,
      "Ġcrow": 1881,
      "rist": 1882,
      "Ġhappy": 1883,
      "Ġlar": 1884,
      "Ġunderstand": 1885,
      "gin": 1886,
      "Ġbloom": 1887,
      "Ġsmoke": 1888,
      "che": 1889,
      "ray": 1890,
      "Ġdiv": 1891,
      "Ġheat": 1892,
      "Ġpress": 1893,
      "Ġkept": 1894,
      "Ġsinging": 1895,
      "ĠĠĠĠĠĠĠĠĠĠĠ": 1896,
      "Ġbott": 1897,
      "Ġfields": 1898,
      "Ġice": 1899,
      "Ġfaces": 1900,
      "Ġhill": 1901,
      "Ġfish": 1902,
      "Ġpick": 1903,
      "Ġnames": 1904,
      "Which": 1905,
      "cc": 1906,
      "Ġmot": 1907,
      "ĠHis": 1908,
      "aste": 1909,
      "Ġfour": 1910,
      "ths": 1911,
      "cle": 1912,
      "Ġball": 1913,
      "Ġuse": 1914,
      "Ġcarry": 1915,
      "oved": 1916,
      "áĥ": 1917,
      "Ġteeth": 1918,
      "itc": 1919,
      "Ġbear": 1920,
      "Ġsupp": 1921,
      "bles": 1922,
      "Ġdesire": 1923,
      "Ġtry": 1924,
      "iting": 1925,
      "Here": 1926,
      "arch": 1927,
      "Ġneighb": 1928,
      "Ġshadows": 1929,
      "II": 1930,
      "uct": 1931,
      "oms": 1932,
      "Ġgrief": 1933,
      "aws": 1934,
      "bled": 1935,
      "Ġmountain": 1936,
      "used": 1937,
      "Ġdoesn": 1938,
      "ĊĠĠĠĠĠĠĠĠĠĠĠĠĠĠĠ": 1939,
      "ĠâĢĵ": 1940,
      "Ġprom": 1941,
      "Ġhorse": 1942,
      "Our": 1943,
      "Ġca": 1944,
      "Ġru": 1945,
      "Ġdry": 1946,
      "ilk": 1947,
      "Ġreally": 1948,
      "Ġevening": 1949,
      "can": 1950,
      "Ġwide": 1951,
      "Ġdying": 1952,
      "eless": 1953,
      "ments": 1954,
      "Ġill": 1955,
      "utter": 1956,
      "Ġyourself": 1957,
      "Ġplan": 1958,
      "Ġquick": 1959,
      "Ġsense": 1960,
      "Ġmag": 1961,
      "Ġfruit": 1962,
      "Ġthousand": 1963,
      "pped": 1964,
      "Ġpor": 1965,
      "ĠThen": 1966,
      "Ġscr": 1967,
      "will": 1968,
      "Ġansw": 1969,
      "Ġsince": 1970,
      "âĢ¦": 1971,
      "Ġpaper": 1972,
      "Ġlived": 1973,
      "Ġtrain": 1974,
      "Ġsecret": 1975,
      "Ġvi": 1976,
      "Oh": 1977,
      "leep": 1978,
      "Ġago": 1979,
      "bing": 1980,
      "Ġedge": 1981,
      "Ġclim": 1982,
      "aff": 1983,
      "Ġwake": 1984,
      "otten": 1985,
      "rew": 1986,
      "come": 1987,
      "Ġchange": 1988,
      "Ġbelow": 1989,
      "Ġtill": 1990,
      "Ġmis": 1991,
      "itch": 1992,
      "ometimes": 1993,
      "rem": 1994,
      "...": 1995,
      "Ġfuture": 1996,
      "Ġdev": 1997,
      "arent": 1998,
      "Ġsecond": 1999,
      "sing": 2000,
      "Ġdi": 2001,
      "Ġoutside": 2002,
      "cr": 2003,
      "full": 2004,
      "Ġsometimes": 2005,
      "Ġass": 2006,
      "ident": 2007,
      "Ġchar": 2008,
      "Ġhearts": 2009,
      "Ġtransl": 2010,
      "ding": 2011,
      "Ġlies": 2012,
      "Ġwhom": 2013,
      "Ġcons": 2014,
      "Ġcouldn": 2015,
      "Ġcast": 2016,
      "even": 2017,
      "Ġthick": 2018,
      "Ġabs": 2019,
      "ĠOne": 2020,
      "Ġob": 2021,
      "Ġleaf": 2022,
      "Ġthroat": 2023,
      "Ġlone": 2024,
      "Ġarri": 2025,
      "nding": 2026,
      "iew": 2027,
      "Ġperfect": 2028,
      "go": 2029,
      "before": 2030,
      "because": 2031,
      "aim": 2032,
      "idge": 2033,
      "dr": 2034,
      "ĊĠĠĠĠĠĠĠĠĠĠĠĠĠĠĠĠĠĠĠĠ": 2035,
      "Ġgro": 2036,
      "Ġalive": 2037,
      "more": 2038,
      "Ġpal": 2039,
      "ĠWho": 2040,
      "ns": 2041,
      "ĠĊĠ": 2042,
      "ics": 2043,
      "Ġseems": 2044,
      "oh": 2045,
      "Ġbad": 2046,
      "Ġshape": 2047,
      "Ġwand": 2048,
      "ative": 2049,
      "Ġloud": 2050,
      "Ġtrave": 2051,
      "Ġhimself": 2052,
      "Ġbox": 2053,
      "Ġmirror": 2054,
      "vent": 2055,
      "Ġbeside": 2056,
      "omes": 2057,
      "osed": 2058,
      "etween": 2059,
      "Ġlights": 2060,
      "Ġbirth": 2061,
      "Ġcontin": 2062,
      "kn": 2063,
      "po": 2064,
      "ĊĊĠ": 2065,
      "ils": 2066,
      "oses": 2067,
      "resh": 2068,
      "acked": 2069,
      "Ġbaby": 2070,
      "ams": 2071,
      "Ġchang": 2072,
      "While": 2073,
      "Ġlegs": 2074,
      "gl": 2075,
      "Ġdisc": 2076,
      "Ġforever": 2077,
      "Ġforth": 2078,
      "Ġheavy": 2079,
      "De": 2080,
      "Ġfast": 2081,
      "Ġdaughter": 2082,
      "Ġknown": 2083,
      "Ġpoor": 2084,
      "Ġsingle": 2085,
      "just": 2086,
      "Ġdance": 2087,
      "Nor": 2088,
      "ags": 2089,
      "Ġfamily": 2090,
      "Ġwing": 2091,
      "rop": 2092,
      "cho": 2093,
      "ific": 2094,
      "Ġsuff": 2095,
      "Ġcourse": 2096,
      "Yet": 2097,
      "Ġinc": 2098,
      "ased": 2099,
      "ury": 2100,
      "Ġapart": 2101,
      "arr": 2102,
      "uring": 2103,
      "Ġpie": 2104,
      "Ġsmile": 2105,
      "Ġbrought": 2106,
      "ĠLove": 2107,
      "undred": 2108,
      "Ġrad": 2109,
      "airs": 2110,
      "Ġfalling": 2111,
      "Ġstorm": 2112,
      "Ġlater": 2113,
      "Ġmaking": 2114,
      "umber": 2115,
      "do": 2116,
      "Ġlab": 2117,
      "Ġsol": 2118,
      "Ġtrying": 2119,
      "ement": 2120,
      "Ġtrem": 2121,
      "Ġsurf": 2122,
      "Ġlooks": 2123,
      "Ġpale": 2124,
      "Ġasked": 2125,
      "Ġexpl": 2126,
      "Ġhistory": 2127,
      "tle": 2128,
      "Ġten": 2129,
      "Ġpet": 2130,
      "ales": 2131,
      "idden": 2132,
      "fort": 2133,
      "ider": 2134,
      "Ġkne": 2135,
      "Ġdifferent": 2136,
      "sl": 2137,
      "Ġring": 2138,
      "ints": 2139,
      "Ġwindows": 2140,
      "Ġfold": 2141,
      "Ġbless": 2142,
      "Ġthinking": 2143,
      "Ġ19": 2144,
      "Ġdem": 2145,
      "Ġtender": 2146,
      "Ġburning": 2147,
      "down": 2148,
      "ually": 2149,
      "ĠSome": 2150,
      "Ġwa": 2151,
      "Ġfig": 2152,
      "lect": 2153,
      "Ġfun": 2154,
      "Ġdesp": 2155,
      "Ġpoint": 2156,
      "cked": 2157,
      "ĠĠĠĠĠĠĠĠĠĠĠĠ": 2158,
      "oned": 2159,
      "Ġhaving": 2160,
      "ĠWhere": 2161,
      "ĠChrist": 2162,
      "ny": 2163,
      "Ġwine": 2164,
      "Ġgun": 2165,
      "Ġones": 2166,
      "roud": 2167,
      "Ġthoughts": 2168,
      "kes": 2169,
      "aming": 2170,
      "Ġweight": 2171,
      "ĠMay": 2172,
      "Ġdisapp": 2173,
      "Ġwalked": 2174,
      "Ðµ": 2175,
      "Ġfill": 2176,
      "Ġreach": 2177,
      "eping": 2178,
      "atever": 2179,
      "Ġsaying": 2180,
      "Ġfaith": 2181,
      "attered": 2182,
      "Ġbeat": 2183,
      "ĠSe": 2184,
      "usk": 2185,
      "Ġimm": 2186,
      "Ġhills": 2187,
      "Ġshut": 2188,
      "ĠLike": 2189,
      "after": 2190,
      "dy": 2191,
      "every": 2192,
      "par": 2193,
      "Ġdanc": 2194,
      "Ġthin": 2195,
      "Ġsmo": 2196,
      "Because": 2197,
      "Ġwife": 2198,
      "Ġda": 2199,
      "ĠâĢĺ": 2200,
      "Ġpu": 2201,
      "Ġide": 2202,
      "Ġsac": 2203,
      "Ġhar": 2204,
      "Ġtom": 2205,
      "inking": 2206,
      "ĠNew": 2207,
      "Ġrip": 2208,
      "Ġlit": 2209,
      "Ġmeans": 2210,
      "Ġleast": 2211,
      "Why": 2212,
      "âĢĵ": 2213,
      "Their": 2214,
      "ĠLet": 2215,
      "Ġwear": 2216,
      "Ġflame": 2217,
      "Ġhon": 2218,
      "urch": 2219,
      "Ġtakes": 2220,
      "icks": 2221,
      "Every": 2222,
      "Ġroof": 2223,
      "ief": 2224,
      "Ġdraw": 2225,
      "Ġfail": 2226,
      "Ġspread": 2227,
      "Ġmad": 2228,
      "itchen": 2229,
      "Ġstud": 2230,
      "ĠHer": 2231,
      "Ġgiven": 2232,
      "ob": 2233,
      "zz": 2234,
      "ĠNow": 2235,
      "Ġturns": 2236,
      "attle": 2237,
      "Ġsail": 2238,
      "Ġfight": 2239,
      "Ġscar": 2240,
      "ortal": 2241,
      "Ð¾": 2242,
      "Ġbound": 2243,
      "Ġisn": 2244,
      "Ġesc": 2245,
      "00": 2246,
      "Ġfact": 2247,
      "Ġwoods": 2248,
      "Ġlines": 2249,
      "Ġchest": 2250,
      "mother": 2251,
      "Ġwave": 2252,
      "ainst": 2253,
      "cks": 2254,
      "Ġwalking": 2255,
      "Ġclot": 2256,
      "uel": 2257,
      "Ġmountains": 2258,
      "men": 2259,
      "ner": 2260,
      "Ġbull": 2261,
      "Ġtoday": 2262,
      "Ġicon": 2263,
      "aight": 2264,
      "Ġcool": 2265,
      "Ġears": 2266,
      "omething": 2267,
      "umn": 2268,
      "astic": 2269,
      "Ġstreets": 2270,
      "Ġwit": 2271,
      "ility": 2272,
      "Ġsorrow": 2273,
      "ories": 2274,
      "amb": 2275,
      "Ġkill": 2276,
      "Ġvan": 2277,
      "Ġhundred": 2278,
      "overed": 2279,
      "Ġmaybe": 2280,
      "Ġlot": 2281,
      "ention": 2282,
      "Ġyouth": 2283,
      "aped": 2284,
      "gg": 2285,
      "Ġsalt": 2286,
      "urs": 2287,
      "Ġkitchen": 2288,
      "Ġancient": 2289,
      "apes": 2290,
      "Ġsick": 2291,
      "Ġdep": 2292,
      "Un": 2293,
      "ole": 2294,
      "Ġlake": 2295,
      "li": 2296,
      "ocks": 2297,
      "Ġseemed": 2298,
      "Ġstanding": 2299,
      "Ġtop": 2300,
      "Ġpict": 2301,
      "enty": 2302,
      "Ġbloss": 2303,
      "Ġearly": 2304,
      "ĠClick": 2305,
      "Ġaudio": 2306,
      "Ð°": 2307,
      "Ġmilk": 2308,
      "Ġcaught": 2309,
      "ited": 2310,
      "Ġflight": 2311,
      "ĠFrom": 2312,
      "ism": 2313,
      "Ġoften": 2314,
      "Ġshr": 2315,
      "Ġafterno": 2316,
      "ned": 2317,
      "Ġtiny": 2318,
      "Ġmeant": 2319,
      "Ġworth": 2320,
      "itten": 2321,
      "Bl": 2322,
      "Ch": 2323,
      "Ġheads": 2324,
      "ites": 2325,
      "ĠĠĠĠĠĠĠĠĠĠĠĠĠ": 2326,
      "Ġgle": 2327,
      "ĠTr": 2328,
      "Do": 2329,
      "yr": 2330,
      "ãģ": 2331,
      "Ġdest": 2332,
      "Ġnaked": 2333,
      "Ġways": 2334,
      "Ġhall": 2335,
      "ĠFr": 2336,
      "bt": 2337,
      "cri": 2338,
      "Ġ*": 2339,
      "Ġye": 2340,
      "Ġheal": 2341,
      "ouses": 2342,
      "Ġcrown": 2343,
      "Ġwinds": 2344,
      "Ġmoving": 2345,
      "Ġslowly": 2346,
      "afe": 2347,
      "ded": 2348,
      "ishing": 2349,
      "Ġpark": 2350,
      "Ġstate": 2351,
      "Ġnone": 2352,
      "Ġgrew": 2353,
      "Ġdistance": 2354,
      "pers": 2355,
      "ĠĠĠĠĠĠĠĠĠĠ": 2356,
      "Ġtall": 2357,
      "Ġpop": 2358,
      "Ġshade": 2359,
      "Ġsounds": 2360,
      "Ġsal": 2361,
      "Ġfrag": 2362,
      "Ġboys": 2363,
      "Are": 2364,
      "set": 2365,
      "Ġpassed": 2366,
      "fully": 2367,
      "Ġhell": 2368,
      "Ġstret": 2369,
      "aj": 2370,
      "Ġblank": 2371,
      "band": 2372,
      "Ġ3": 2373,
      "Ġdirt": 2374,
      "Ġhop": 2375,
      "about": 2376,
      "Ġpra": 2377,
      "Ġquestion": 2378,
      "Ġsix": 2379,
      "anches": 2380,
      "ald": 2381,
      "pon": 2382,
      "Ġcertain": 2383,
      "Ġsold": 2384,
      "Ġphot": 2385,
      "Ġlearned": 2386,
      "lo": 2387,
      "Ġeveryone": 2388,
      "time": 2389,
      "Ġcou": 2390,
      "Ġcand": 2391,
      "ume": 2392,
      "Ġtrou": 2393,
      "aded": 2394,
      "roll": 2395,
      "Ġbree": 2396,
      "Even": 2397,
      "Ġaut": 2398,
      "Ġseas": 2399,
      "Ġking": 2400,
      "rence": 2401,
      "Ġdet": 2402,
      "eding": 2403,
      "eps": 2404,
      "Ġbrain": 2405,
      "Ġourselves": 2406,
      "Ġwatched": 2407,
      "Ġtow": 2408,
      "Ġnest": 2409,
      "Ġetern": 2410,
      "Ġstones": 2411,
      "ums": 2412,
      "ĠLord": 2413,
      "ĠNor": 2414,
      "Ġsongs": 2415,
      "ĠYour": 2416,
      "ci": 2417,
      "off": 2418,
      "Ġwaters": 2419,
      "sm": 2420,
      "Ġbread": 2421,
      "eral": 2422,
      "aved": 2423,
      "oles": 2424,
      "Ġglad": 2425,
      "eks": 2426,
      "Ġrub": 2427,
      "ims": 2428,
      "Ġant": 2429,
      "Ġview": 2430,
      "ĊĠĠĠĠĠĠĠĠĠĠĠĠĠĠĠĠĠĠĠ": 2431,
      "Ġplant": 2432,
      "ued": 2433,
      "Ġsister": 2434,
      "Ġmud": 2435,
      "Though": 2436,
      "Ġfeeling": 2437,
      "Ġfresh": 2438,
      "Ġgrace": 2439,
      "Ġbegan": 2440,
      "born": 2441,
      "ien": 2442,
      "Ġest": 2443,
      "Ġsigh": 2444,
      "Ġfine": 2445,
      "eg": 2446,
      "Ġmoney": 2447,
      "Ġlas": 2448,
      "Ġnature": 2449,
      "Ġspr": 2450,
      "Ġswall": 2451,
      "Ġpoems": 2452,
      "Ġtaken": 2453,
      "osp": 2454,
      "olog": 2455,
      "Ġfeather": 2456,
      "ship": 2457,
      "Ġholl": 2458,
      "Ġbone": 2459,
      "Ġreac": 2460,
      "ances": 2461,
      "Ġhus": 2462,
      "Ġpoetry": 2463,
      "Ġunf": 2464,
      "atic": 2465,
      "Ġthread": 2466,
      "Ġsharp": 2467,
      "na": 2468,
      "ney": 2469,
      "Ġpleasure": 2470,
      "Ġpink": 2471,
      "Ġgather": 2472,
      "ads": 2473,
      "Ġrising": 2474,
      "Ġexist": 2475,
      "Ġvoices": 2476,
      "Ġbitter": 2477,
      "dom": 2478,
      "rel": 2479,
      "Ġfool": 2480,
      "Ġfilled": 2481,
      "Ġdire": 2482,
      "Ġpure": 2483,
      "Ġshort": 2484,
      "Ġstraight": 2485,
      "Ġcorner": 2486,
      "Ġlarge": 2487,
      "Ġanswer": 2488,
      "Ġpot": 2489,
      "Ġwasn": 2490,
      "Ġcho": 2491,
      "Ġshell": 2492,
      "Ġmiddle": 2493,
      "Ġpresent": 2494,
      "Ġfollow": 2495,
      "ha": 2496,
      "ina": 2497,
      "ises": 2498,
      "arth": 2499,
      "Ġpul": 2500,
      "Ġcomple": 2501,
      "Ġfalls": 2502,
      "?âĢĿ": 2503,
      "ares": 2504,
      "back": 2505,
      "Ġlover": 2506,
      "look": 2507,
      "ator": 2508,
      "ĠEng": 2509,
      "fraid": 2510,
      "Ġmill": 2511,
      "atur": 2512,
      "Ġhate": 2513,
      "Ġaf": 2514,
      "Ġcalm": 2515,
      "!\"": 2516,
      "Ġsus": 2517,
      "Ġcell": 2518,
      "unt": 2519,
      "Ġsurv": 2520,
      "rs": 2521,
      "Ġcup": 2522,
      "aged": 2523,
      "Ġtear": 2524,
      "ept": 2525,
      "Ġcover": 2526,
      "Ġboat": 2527,
      "Ġprayer": 2528,
      "gy": 2529,
      "ament": 2530,
      "Ġlos": 2531,
      "Ġflood": 2532,
      "gar": 2533,
      "Ġfat": 2534,
      "until": 2535,
      "Ġpassing": 2536,
      "Ġbooks": 2537,
      "anks": 2538,
      "Ġlean": 2539,
      "vis": 2540,
      "Ġafternoon": 2541,
      "car": 2542,
      "Ġequ": 2543,
      "ably": 2544,
      "ours": 2545,
      "zen": 2546,
      "Ġsave": 2547,
      "Ġbranches": 2548,
      "Ġprot": 2549,
      "Ġdrop": 2550,
      "Ġimagine": 2551,
      "Ġrust": 2552,
      "ama": 2553,
      "ograp": 2554,
      "Ġpurple": 2555,
      "fall": 2556,
      "walk": 2557,
      "Ġafraid": 2558,
      "ores": 2559,
      "Ġnights": 2560,
      "Ġviol": 2561,
      "Ġsin": 2562,
      "nded": 2563,
      "Ġmour": 2564,
      "iar": 2565,
      "Ġtur": 2566,
      "ital": 2567,
      "Ġneighbor": 2568,
      "Ġwis": 2569,
      "Ġhide": 2570,
      "ugg": 2571,
      "!âĢĿ": 2572,
      "ifts": 2573,
      "ĠEvery": 2574,
      "Ġcof": 2575,
      "Ġlands": 2576,
      "arrow": 2577,
      "form": 2578,
      "Ġgods": 2579,
      "Ġiron": 2580,
      "oe": 2581,
      "Ġblow": 2582,
      "ushing": 2583,
      "Ġfive": 2584,
      "Ġhath": 2585,
      "ided": 2586,
      "iant": 2587,
      "Ġtired": 2588,
      "Ġtaste": 2589,
      "between": 2590,
      "Ġtried": 2591,
      "Ġstir": 2592,
      "ode": 2593,
      "ĠGr": 2594,
      "Ġdew": 2595,
      "aph": 2596,
      "Ġslip": 2597,
      "Was": 2598,
      "each": 2599,
      "ÑĤ": 2600,
      "Ġinf": 2601,
      "ĠOur": 2602,
      "Ġfil": 2603,
      "ado": 2604,
      "irty": 2605,
      "Ġsomewhere": 2606,
      "Qu": 2607,
      "wood": 2608,
      "Ġlonely": 2609,
      "Ġcop": 2610,
      "Ġorder": 2611,
      "Ġprop": 2612,
      "Ġholy": 2613,
      "ĠUn": 2614,
      "ron": 2615,
      "Ã±": 2616,
      "Ġfood": 2617,
      "Ġsuddenly": 2618,
      "Ġthus": 2619,
      "acing": 2620,
      "Ġship": 2621,
      "ĊĠĠĠĠĠĠĠĠĠĠĠĠĠĠĠĠĠĠĠĠĠĠĠĠĠĠĠĠĠĠĠĠĠĠĠĠĠĠĠĠĠĠĠĠĠĠĠĠĠĠĠĠĠĠĠĠĠĠĠĠĠĠĠĠ": 2622,
      "Ġgirls": 2623,
      "Ġcatch": 2624,
      "Ġknowing": 2625,
      "Ġdesert": 2626,
      "Ġgentle": 2627,
      "Out": 2628,
      "Through": 2629,
      "Ġpock": 2630,
      "Ġwants": 2631,
      "Ġanyone": 2632,
      "),": 2633,
      "ton": 2634,
      "Ġmaid": 2635,
      "Ġlen": 2636,
      "Ġrunning": 2637,
      "May": 2638,
      "Ġparent": 2639,
      "Ġreason": 2640,
      "weet": 2641,
      "Ġrocks": 2642,
      "inging": 2643,
      "Ġdusk": 2644,
      "orm": 2645,
      "than": 2646,
      "Ġbecame": 2647,
      "Ġsurface": 2648,
      "Ġmed": 2649,
      "Ġash": 2650,
      "uge": 2651,
      "aks": 2652,
      "Ġvill": 2653,
      "ĠOh": 2654,
      "Ġlaw": 2655,
      "edom": 2656,
      "ogn": 2657,
      "icate": 2658,
      "Ġden": 2659,
      "ashing": 2660,
      "These": 2661,
      "Ġloves": 2662,
      "ĠMar": 2663,
      "Se": 2664,
      "Ġsleeping": 2665,
      "Ġmeaning": 2666,
      "right": 2667,
      "Ġopp": 2668,
      "Ġhoney": 2669,
      "Ġpage": 2670,
      "agged": 2671,
      "Ġnews": 2672,
      "ky": 2673,
      "ifting": 2674,
      "icked": 2675,
      "Ġpost": 2676,
      "Ġdam": 2677,
      "Ġweather": 2678,
      "Ġbutter": 2679,
      "Ġwatching": 2680,
      "Ġadm": 2681,
      "Ġclosed": 2682,
      "cre": 2683,
      "ler": 2684,
      "Ġhouses": 2685,
      "ada": 2686,
      "Ġwel": 2687,
      "Ġreve": 2688,
      "Ġblock": 2689,
      "Ġlose": 2690,
      "Ġspec": 2691,
      "Ġholds": 2692,
      "Ġforgotten": 2693,
      "ģł": 2694,
      "Ġhat": 2695,
      "Ġpay": 2696,
      "Ġpine": 2697,
      "Ġgaze": 2698,
      "__": 2699,
      "have": 2700,
      "Ġsor": 2701,
      "Ġpalm": 2702,
      "Ġgar": 2703,
      "alley": 2704,
      "Ġdef": 2705,
      "Ġhoriz": 2706,
      "Ġwheel": 2707,
      "ye": 2708,
      "Ġcu": 2709,
      "Ġunc": 2710,
      "Ġskies": 2711,
      "Ġinstead": 2712,
      "Ġknees": 2713,
      ".)": 2714,
      "Come": 2715,
      "wind": 2716,
      "âģł": 2717,
      "eness": 2718,
      "Ġchurch": 2719,
      "would": 2720,
      "Ġmead": 2721,
      "Ġfro": 2722,
      "Ġspl": 2723,
      "Ġturning": 2724,
      "Ġpassion": 2725,
      "ma": 2726,
      "Ġshot": 2727,
      "avor": 2728,
      "Ġsteps": 2729,
      "Till": 2730,
      "ium": 2731,
      "rying": 2732,
      "Ġdrown": 2733,
      "Ġfinger": 2734,
      "Will": 2735,
      "Ġsafe": 2736,
      "Ġlad": 2737,
      "Ġharm": 2738,
      "col": 2739,
      "ech": 2740,
      "Ġtor": 2741,
      "Ġav": 2742,
      "unch": 2743,
      "Ġconst": 2744,
      "Ġremem": 2745,
      "Ġperhaps": 2746,
      "Ġpraise": 2747,
      "Ġweek": 2748,
      "Ġdoing": 2749,
      "Into": 2750,
      "Ġswim": 2751,
      "Ġemb": 2752,
      "Ġclothes": 2753,
      "erv": 2754,
      "ashed": 2755,
      "aled": 2756,
      "ified": 2757,
      "ĠMan": 2758,
      "pping": 2759,
      "Each": 2760,
      "gu": 2761,
      "line": 2762,
      "ĠĊĠĠĠĠĠ": 2763,
      "Ġtight": 2764,
      "Ġobs": 2765,
      "ising": 2766,
      "ressed": 2767,
      "Ġshoulder": 2768,
      "Ġpool": 2769,
      "Ġcond": 2770,
      "Ġcalls": 2771,
      "athered": 2772,
      "Ġtranslated": 2773,
      "Ġstren": 2774,
      "Ġdistant": 2775,
      "Ġrace": 2776,
      "Ġseason": 2777,
      "Ġglory": 2778,
      "Ġstopped": 2779,
      "Ġur": 2780,
      "Ġcap": 2781,
      "Ġpret": 2782,
      "wr": 2783,
      "only": 2784,
      "Ġran": 2785,
      "Ġonto": 2786,
      "Ġseed": 2787,
      "Ġvain": 2788,
      "Ġgrown": 2789,
      "Look": 2790,
      "Ġcam": 2791,
      "Ġproud": 2792,
      "Ġstick": 2793,
      "Ġshout": 2794,
      "ems": 2795,
      "Ġscream": 2796,
      "Ġimage": 2797,
      "Ġhusband": 2798,
      "Ġdoth": 2799,
      "Ġrich": 2800,
      "Ġorange": 2801,
      "Ġocc": 2802,
      "Ġbal": 2803,
      "Ġbark": 2804,
      "Ġport": 2805,
      "apping": 2806,
      "bel": 2807,
      "mo": 2808,
      "uous": 2809,
      "Ġmess": 2810,
      "asp": 2811,
      "ĊĠĠĠĠĠĠĠĠĠĠĠĠĠĠĠĠĠĠĠĠĠ": 2812,
      "ĠDo": 2813,
      "white": 2814,
      "Ġplain": 2815,
      "ĠFl": 2816,
      "ĠRe": 2817,
      "orses": 2818,
      "Ġhurt": 2819,
      "ĠAmerica": 2820,
      "iving": 2821,
      "Ġwhisper": 2822,
      "Ġanimal": 2823,
      "Ġshoes": 2824,
      "ĠZ": 2825,
      "ĠInd": 2826,
      "ading": 2827,
      "top": 2828,
      "Ġspot": 2829,
      "Ġmach": 2830,
      "Ġnote": 2831,
      "Ġleg": 2832,
      "fee": 2833,
      "bered": 2834,
      ").": 2835,
      "mon": 2836,
      "pre": 2837,
      "ination": 2838,
      "Ġsang": 2839,
      "Ġstands": 2840,
      "uss": 2841,
      "Ġsweat": 2842,
      "ancy": 2843,
      "Ġpleas": 2844,
      "jo": 2845,
      "vol": 2846,
      "Ġlaughter": 2847,
      "utes": 2848,
      "Ġdoors": 2849,
      "inted": 2850,
      "Ġsens": 2851,
      "Ġroots": 2852,
      "aul": 2853,
      "Ġsink": 2854,
      "Ġmiles": 2855,
      "oop": 2856,
      "Ġspark": 2857,
      "ĠHere": 2858,
      "Re": 2859,
      "Ġbag": 2860,
      "without": 2861,
      "Ġfeels": 2862,
      "Ġmotion": 2863,
      "acher": 2864,
      "Ġshame": 2865,
      "Ġherself": 2866,
      "Ġuniver": 2867,
      "Ġfinally": 2868,
      "Ġdoubt": 2869,
      "Ġod": 2870,
      "Ġspent": 2871,
      "Ġwrote": 2872,
      "Ġenter": 2873,
      "Still": 2874,
      "Over": 2875,
      "ĠĊĠĠĠĠ": 2876,
      "Ġdelight": 2877,
      "Ġdogs": 2878,
      "Ġleaving": 2879,
      "Ġbreathe": 2880,
      "Ġready": 2881,
      "Ġbreeze": 2882,
      "Ah": 2883,
      "has": 2884,
      "lish": 2885,
      "Ġchair": 2886,
      "Ġpride": 2887,
      "Ġprec": 2888,
      "Ġplease": 2889,
      "Ġsex": 2890,
      "eared": 2891,
      "Ġhidden": 2892,
      "Ġthrow": 2893,
      "iced": 2894,
      "Ġfeed": 2895,
      "Ġendless": 2896,
      "Ġkeeps": 2897,
      "ixed": 2898,
      "long": 2899,
      "ral": 2900,
      "Ġwre": 2901,
      "ution": 2902,
      "Ġtrust": 2903,
      "Ġgrey": 2904,
      "Ġwouldn": 2905,
      "Ġeng": 2906,
      "call": 2907,
      "Ġmap": 2908,
      "Ġfarm": 2909,
      "Ġnose": 2910,
      "Ġscent": 2911,
      "Ġhole": 2912,
      "Ġtalking": 2913,
      "Ġsimple": 2914,
      "turn": 2915,
      "usion": 2916,
      "were": 2917,
      "Ġclass": 2918,
      "Ġprof": 2919,
      "Ġholding": 2920,
      "Ġdrive": 2921,
      "Can": 2922,
      "Ġid": 2923,
      "Ġsym": 2924,
      "Ġfol": 2925,
      "Ġhy": 2926,
      "ences": 2927,
      "imp": 2928,
      "Ġwriting": 2929,
      "Me": 2930,
      "Ġhun": 2931,
      "oming": 2932,
      "Ġplaces": 2933,
      "Ġseek": 2934,
      "Ġquite": 2935,
      "aft": 2936,
      "Ġgate": 2937,
      "Ġshop": 2938,
      "Ð¸": 2939,
      "erve": 2940,
      "Ġfier": 2941,
      "oward": 2942,
      "Ġlovers": 2943,
      "Ġeverywhere": 2944,
      "ĠHeaven": 2945,
      "Ġfallen": 2946,
      "Ġdread": 2947,
      "Ġyard": 2948,
      "sem": 2949,
      "Ġweary": 2950,
      "tering": 2951,
      "ables": 2952,
      "ĠDeath": 2953,
      "Ġmod": 2954,
      "Ġlaid": 2955,
      "blic": 2956,
      "Ġloss": 2957,
      "Ġknife": 2958,
      "Ġmoved": 2959,
      "Ġappear": 2960,
      "Ġmidnight": 2961,
      "ĠBlack": 2962,
      "ases": 2963,
      "ument": 2964,
      "Before": 2965,
      "Ġstrength": 2966,
      "After": 2967,
      "Le": 2968,
      "ĊĊĊĊ": 2969,
      "Ġbreathing": 2970,
      "Ġidea": 2971,
      "Ġlength": 2972,
      "cer": 2973,
      "Ġdull": 2974,
      "anish": 2975,
      "Ġthine": 2976,
      "Ġthunder": 2977,
      "Ġswell": 2978,
      "Ġpaint": 2979,
      "Ġgetting": 2980,
      "Ġparents": 2981,
      "Ġbeach": 2982,
      "ĊĠĠĠĠĠĠĠĠĠĠĠĠĠĠĠĠĠĠ": 2983,
      "Ġgrandmother": 2984,
      "father": 2985,
      "Ġbath": 2986,
      "Ġpill": 2987,
      "aying": 2988,
      "ĠWill": 2989,
      "Ġbridge": 2990,
      "Ġgrows": 2991,
      "Ġburst": 2992,
      "Ġstories": 2993,
      "Ġlimbs": 2994,
      "Ġeasy": 2995,
      "house": 2996,
      "Ġsings": 2997,
      "Ġbud": 2998,
      "âĢĺ": 2999,
      "rible": 3000,
      "ests": 3001,
      "Ġclaim": 3002,
      "pring": 3003,
      "Only": 3004,
      "Ġrecogn": 3005,
      "ĠAmerican": 3006,
      "gan": 3007,
      "Ġtide": 3008,
      "ĠĠĠĠĠĠĠĠĠĠĠĠĠĠĠ": 3009,
      "onight": 3010,
      "ork": 3011,
      "ords": 3012,
      "Ġpow": 3013,
      "Ġswift": 3014,
      "Ġburied": 3015,
      "Ġbeginning": 3016,
      "Am": 3017,
      "Ġtaking": 3018,
      "Ġcried": 3019,
      "asy": 3020,
      "Ġspo": 3021,
      "ĊĠĠĠĠĠĠĠĠĠĠĠĠĠĠĠĠĠĠĠĠĠĠ": 3022,
      "Ġroot": 3023,
      "ledge": 3024,
      "Ġpartic": 3025,
      "Ġhappened": 3026,
      "Ġhunger": 3027,
      "board": 3028,
      "kin": 3029,
      "Ġtum": 3030,
      "Ġoh": 3031,
      "Ġloose": 3032,
      "aling": 3033,
      "ulous": 3034,
      "Ġcrack": 3035,
      "Ġtells": 3036,
      "Ġobject": 3037,
      "ived": 3038,
      "rows": 3039,
      "ĊĊĠĠĠĠ": 3040,
      "Ġwhatever": 3041,
      "Ġjour": 3042,
      "oft": 3043,
      "Ġletters": 3044,
      "ĠĠĊĠ": 3045,
      "Ġrepe": 3046,
      "Ġyours": 3047,
      "Ġmouths": 3048,
      "Ġautumn": 3049,
      "Ġwed": 3050,
      "anes": 3051,
      "Ġmyst": 3052,
      "Ġexpect": 3053,
      "Ġfal": 3054,
      "Ġfate": 3055,
      "Ġforce": 3056,
      "Ġuns": 3057,
      "ĠLe": 3058,
      "ĠEven": 3059,
      "Ġcheek": 3060,
      "Just": 3061,
      "had": 3062,
      "Ġtaught": 3063,
      "Ġcab": 3064,
      "aining": 3065,
      "gen": 3066,
      "iers": 3067,
      "yn": 3068,
      "Ġ[": 3069,
      "Ġstore": 3070,
      "Ġsees": 3071,
      "Ġsoil": 3072,
      "Ġcrowd": 3073,
      "inter": 3074,
      "Ġforward": 3075,
      "Ġspin": 3076,
      "antic": 3077,
      "Ġvalley": 3078,
      "Ġplastic": 3079,
      "Ġbuy": 3080,
      "ball": 3081,
      "Ġlung": 3082,
      "Ġnation": 3083,
      "Ġasleep": 3084,
      "Ġvision": 3085,
      "Ġpin": 3086,
      "Ġge": 3087,
      "ica": 3088,
      "Ġstro": 3089,
      "Ġroses": 3090,
      "Ġspoke": 3091,
      "ĠPr": 3092,
      "Ġbottom": 3093,
      "known": 3094,
      "Ġtorn": 3095,
      "Ġcott": 3096,
      "Ġhorses": 3097,
      "Ġrather": 3098,
      "Ġvast": 3099,
      "Ġje": 3100,
      "ĠWhy": 3101,
      "inner": 3102,
      "Ġ:": 3103,
      "key": 3104,
      "Ġweak": 3105,
      "Ġsteel": 3106,
      "Ġfamil": 3107,
      "pet": 3108,
      "Ã¤": 3109,
      "Ġling": 3110,
      "empt": 3111,
      "Ġseeing": 3112,
      "........": 3113,
      "ior": 3114,
      "reet": 3115,
      "Ġcapt": 3116,
      "ĠAm": 3117,
      "Ġslept": 3118,
      "Its": 3119,
      "met": 3120,
      "Ġride": 3121,
      "terday": 3122,
      "Ġsolit": 3123,
      "Ġcurt": 3124,
      "Ġsouls": 3125,
      "ohn": 3126,
      "Ġrhy": 3127,
      "Ġbuilt": 3128,
      "Ġcenter": 3129,
      "Ġfreedom": 3130,
      "Ġwond": 3131,
      "Ġeag": 3132,
      "Ġlil": 3133,
      "Ġdoll": 3134,
      "icking": 3135,
      "Ġbroke": 3136,
      "Ġbelly": 3137,
      "finite": 3138,
      "ĊĠĠĠĠĠĠĠĠĠĠĠĠĠĠĠĠĠ": 3139,
      "ounds": 3140,
      "Ġshoulders": 3141,
      "Ġhorizon": 3142,
      "ground": 3143,
      "Ð½": 3144,
      "Ġbuck": 3145,
      "Ġlist": 3146,
      "acy": 3147,
      "Ġgrowing": 3148,
      "ĠBy": 3149,
      "Once": 3150,
      "Ġcoffee": 3151,
      "mas": 3152,
      "Ġtu": 3153,
      "Ġfit": 3154,
      "Ġlovely": 3155,
      "udd": 3156,
      "ĠBecause": 3157,
      "Ġmetal": 3158,
      "Ġsacred": 3159,
      "ik": 3160,
      "Ġnotes": 3161,
      "Ġunto": 3162,
      "ĠTime": 3163,
      "ĠDon": 3164,
      "Ġcraw": 3165,
      "Ġpretty": 3166,
      "Did": 3167,
      "Yes": 3168,
      "cross": 3169,
      "Ġtail": 3170,
      "isc": 3171,
      "ctor": 3172,
      "Whose": 3173,
      "izz": 3174,
      "Ġlistening": 3175,
      "Ġcircle": 3176,
      "Ġgener": 3177,
      "rant": 3178,
      "Ġband": 3179,
      "oured": 3180,
      "Ġhast": 3181,
      "aning": 3182,
      "Ġeither": 3183,
      "Ġspell": 3184,
      "Ġflies": 3185,
      "azing": 3186,
      "Ġterr": 3187,
      "anch": 3188,
      "Ġshining": 3189,
      "umin": 3190,
      "Ġflat": 3191,
      "Ġpicture": 3192,
      "God": 3193,
      "Ġbas": 3194,
      "Ġcal": 3195,
      "irm": 3196,
      "Ġmoves": 3197,
      "Ġcomfort": 3198,
      "ĠPl": 3199,
      "Ġhappen": 3200,
      "?\"": 3201,
      "bit": 3202,
      "min": 3203,
      "wing": 3204,
      "Ġpear": 3205,
      "lease": 3206,
      "still": 3207,
      "Ġaband": 3208,
      "Ġcalling": 3209,
      "!âĢĶ": 3210,
      "Ġoil": 3211,
      "Ġgall": 3212,
      "Ġneither": 3213,
      "Ġnoon": 3214,
      "Ġsunlight": 3215,
      "ians": 3216,
      "itude": 3217,
      "Ġdwell": 3218,
      "Ġchildhood": 3219,
      "Ġcommon": 3220,
      "rupt": 3221,
      "Ġpriv": 3222,
      "Fl": 3223,
      "water": 3224,
      "Ġmass": 3225,
      "atures": 3226,
      "omed": 3227,
      "uses": 3228,
      "rous": 3229,
      "ĠMe": 3230,
      "ĠPar": 3231,
      "Ġstrang": 3232,
      "Ġtwenty": 3233,
      "Ġneeds": 3234,
      "Have": 3235,
      "Love": 3236,
      "bir": 3237,
      "Ġbattle": 3238,
      "Ġnamed": 3239,
      "uts": 3240,
      "Ġgloom": 3241,
      "ĠEarth": 3242,
      "Ġdescri": 3243,
      "Ġmonths": 3244,
      "Ġhungry": 3245,
      "Ġflying": 3246,
      "bow": 3247,
      "Ġlady": 3248,
      "Ġhaun": 3249,
      "omb": 3250,
      "eling": 3251,
      "Ġglow": 3252,
      "Ġdrag": 3253,
      "Ġbelong": 3254,
      "Ġwid": 3255,
      "ilight": 3256,
      "Ġrob": 3257,
      "Ġscene": 3258,
      "Ġletter": 3259,
      "Ġbegins": 3260,
      "Ġgives": 3261,
      "Sometimes": 3262,
      "oul": 3263,
      "stead": 3264,
      "Ġdeer": 3265,
      "Ġdesce": 3266,
      "Ġopened": 3267,
      "Ġchanged": 3268,
      "Cl": 3269,
      "Don": 3270,
      "made": 3271,
      "Ġsearch": 3272,
      "Ġframe": 3273,
      "Ġstranger": 3274,
      "Ġstarted": 3275,
      "Ġbells": 3276,
      "Ġpulled": 3277,
      "uly": 3278,
      "Ġign": 3279,
      "Ġluck": 3280,
      "Ġpan": 3281,
      "Ġrece": 3282,
      "Ġseat": 3283,
      "Ġshel": 3284,
      "ĠOnce": 3285,
      "ÃŃa": 3286,
      "Per": 3287,
      "port": 3288,
      "lets": 3289,
      "Ġmeat": 3290,
      "Ġcharm": 3291,
      "ival": 3292,
      "Ab": 3293,
      "Ġbent": 3294,
      "Ġemer": 3295,
      "Ġrepl": 3296,
      "Ġtrail": 3297,
      "Ġadd": 3298,
      "Ġmurm": 3299,
      "could": 3300,
      "Ġsits": 3301,
      "Ġwest": 3302,
      "Ġthirst": 3303,
      "Ġgame": 3304,
      "ayed": 3305,
      "Ġremind": 3306,
      "Ġrivers": 3307,
      "Ġguard": 3308,
      "Ġinvis": 3309,
      "Ġtemp": 3310,
      "des": 3311,
      "Ġdiss": 3312,
      "Ġshare": 3313,
      "Ġflag": 3314,
      "teen": 3315,
      "Ġcoat": 3316,
      "Ġbecomes": 3317,
      "Ġadv": 3318,
      "era": 3319,
      "Ġhorn": 3320,
      "aches": 3321,
      "illing": 3322,
      "Ġshine": 3323,
      "ĠPo": 3324,
      "Ġexper": 3325,
      "Ġwritten": 3326,
      "Ġspeech": 3327,
      "azed": 3328,
      "ugs": 3329,
      "Ġappro": 3330,
      "Ġreading": 3331,
      "wise": 3332,
      "Ġbord": 3333,
      "see": 3334,
      "ately": 3335,
      "ĠPe": 3336,
      "Ġslight": 3337,
      "ĊĠĠĠĠĠĠĠĠĠĠĠĠĠĠĠĠĠĠĠĠĠĠĠĠĠĠĠĠĠĠĠĠĠĠĠ": 3338,
      "iction": 3339,
      "lands": 3340,
      "pass": 3341,
      "Ġsitting": 3342,
      "Ġfif": 3343,
      "Ġfaint": 3344,
      "ĠĠĠĠĠĠĠĠĠĠĠĠĠĠ": 3345,
      "ently": 3346,
      "Ġshirt": 3347,
      "ros": 3348,
      "against": 3349,
      "Ġbrave": 3350,
      "azy": 3351,
      "Ġrooms": 3352,
      "Ġangel": 3353,
      "cul": 3354,
      "Ġ4": 3355,
      "rect": 3356,
      "Ġpig": 3357,
      "Ġtoss": 3358,
      "oos": 3359,
      "Ġfort": 3360,
      "Ġvol": 3361,
      "Ġtruck": 3362,
      "Ġnoise": 3363,
      "Ġbrow": 3364,
      "ĠCan": 3365,
      "aret": 3366,
      "Ġembr": 3367,
      "yard": 3368,
      "Ġstuff": 3369,
      "Ġrot": 3370,
      "Ġrage": 3371,
      "Ã¨": 3372,
      "Ġmaster": 3373,
      "Ġgift": 3374,
      "ĠAfter": 3375,
      "Ġraised": 3376,
      "yl": 3377,
      "inc": 3378,
      "inary": 3379,
      "ani": 3380,
      "Ġpun": 3381,
      "Ġpip": 3382,
      "Ġlamp": 3383,
      "Ġisland": 3384,
      "umes": 3385,
      "Ġflash": 3386,
      "Ġbreaking": 3387,
      "Would": 3388,
      "don": 3389,
      "Ġhero": 3390,
      "Ġbeast": 3391,
      "Ġrare": 3392,
      "Ġexcept": 3393,
      "Ġghosts": 3394,
      "ĠEnglish": 3395,
      "bell": 3396,
      "tis": 3397,
      "Ġori": 3398,
      "Ġled": 3399,
      "Ġdig": 3400,
      "otion": 3401,
      "iment": 3402,
      "Ġvar": 3403,
      "Ġparts": 3404,
      "Ġwitness": 3405,
      "bur": 3406,
      "Ġwise": 3407,
      "lem": 3408,
      "Ġasks": 3409,
      "Ġlonging": 3410,
      "Ġtwist": 3411,
      "Ġawake": 3412,
      "Ġbill": 3413,
      "Ġeight": 3414,
      "ague": 3415,
      "oday": 3416,
      "Ġfog": 3417,
      "Ġfigure": 3418,
      "Ġsway": 3419,
      "Ġfavor": 3420,
      "Ġham": 3421,
      "Ġinde": 3422,
      "Ġnarrow": 3423,
      "Ġbee": 3424,
      "alth": 3425,
      "Ġdepart": 3426,
      "Ġnorth": 3427,
      "Ġanimals": 3428,
      "Ġpromise": 3429,
      "Ġvillage": 3430,
      "Ġecho": 3431,
      "acle": 3432,
      "Ġord": 3433,
      "Ġskull": 3434,
      "Ag": 3435,
      "Tr": 3436,
      "inct": 3437,
      "Ġoak": 3438,
      "Ġcook": 3439,
      "ida": 3440,
      "Ġweep": 3441,
      "ucked": 3442,
      "Ġangels": 3443,
      "Ġcollect": 3444,
      "Ġpiece": 3445,
      "too": 3446,
      "Ġtun": 3447,
      "Ġsour": 3448,
      "iter": 3449,
      "Ġlawn": 3450,
      "Ġwash": 3451,
      "Ġchance": 3452,
      "het": 3453,
      "Ġcas": 3454,
      "Ġcries": 3455,
      "Ġnumber": 3456,
      "Ġseven": 3457,
      "roy": 3458,
      "ushes": 3459,
      "Ġval": 3460,
      "Ġbrush": 3461,
      "fly": 3462,
      "Ġrid": 3463,
      "road": 3464,
      "Ġclock": 3465,
      "arsh": 3466,
      "Ġtwilight": 3467,
      "Ġtea": 3468,
      "Ġphone": 3469,
      "Ġtravel": 3470,
      "ograph": 3471,
      "cur": 3472,
      "ios": 3473,
      "rid": 3474,
      "ÑĢ": 3475,
      "Ġgas": 3476,
      "Ġgay": 3477,
      "aching": 3478,
      "Ġsepar": 3479,
      "new": 3480,
      "Ġsurpr": 3481,
      "Ġruns": 3482,
      "cher": 3483,
      "rees": 3484,
      "Ġlust": 3485,
      "ression": 3486,
      "Ġhappens": 3487,
      "Ġguess": 3488,
      "Ġburned": 3489,
      "Ġpurp": 3490,
      "Ġsmooth": 3491,
      "Ġhab": 3492,
      "Ġheight": 3493,
      "Ġstat": 3494,
      "rod": 3495,
      "Ġcompl": 3496,
      "Ġexact": 3497,
      "oral": 3498,
      "Ġleap": 3499,
      "ĠPh": 3500,
      "Ġdivine": 3501,
      "Ġdespair": 3502,
      "may": 3503,
      "Ġcoun": 3504,
      "orous": 3505,
      "Ġbend": 3506,
      "ĠWhich": 3507,
      "ĠJohn": 3508,
      "Ġmothers": 3509,
      "Ġbroad": 3510,
      "eyed": 3511,
      "work": 3512,
      "Ġbowl": 3513,
      "Ġeternal": 3514,
      "bu": 3515,
      "Ġap": 3516,
      "Ġmere": 3517,
      "Ġthinks": 3518,
      "Ġpainted": 3519,
      "Ġbul": 3520,
      "Ġbank": 3521,
      "Ġcause": 3522,
      "Ġdanger": 3523,
      "anted": 3524,
      "ntil": 3525,
      "Ġdiff": 3526,
      "Ġcard": 3527,
      "Ġwhist": 3528,
      "Ġknock": 3529,
      "earch": 3530,
      "Ġwalks": 3531,
      "Ġapple": 3532,
      "Ġpossible": 3533,
      "Ġfeathers": 3534,
      "Tis": 3535,
      "Under": 3536,
      "heart": 3537,
      "rets": 3538,
      "Ġmortal": 3539,
      "Ġpatter": 3540,
      "Ġspeaking": 3541,
      "Ġinvisible": 3542,
      "bird": 3543,
      "something": 3544,
      "tes": 3545,
      "reg": 3546,
      "Ġmi": 3547,
      "Ġef": 3548,
      "Ġrequ": 3549,
      "atural": 3550,
      "Ġfrozen": 3551,
      "Ġstare": 3552,
      "Ġremain": 3553,
      "Ġterror": 3554,
      "Ġterrible": 3555,
      "Ġhollow": 3556,
      "end": 3557,
      "Ġhit": 3558,
      "Ġbees": 3559,
      "ĠAd": 3560,
      "ĠMother": 3561,
      "Ġclay": 3562,
      "angled": 3563,
      "Ġarch": 3564,
      "Ġquar": 3565,
      "never": 3566,
      "rench": 3567,
      "Ġmighty": 3568,
      "Ġclimb": 3569,
      "See": 3570,
      "nor": 3571,
      "two": 3572,
      "Ġcow": 3573,
      "Ġlip": 3574,
      "Ġloving": 3575,
      "Ġunt": 3576,
      "Ġextr": 3577,
      "Ġrecall": 3578,
      "Ġprotect": 3579,
      "Such": 3580,
      "foot": 3581,
      "iven": 3582,
      "Ñģ": 3583,
      "Ġcig": 3584,
      "Ġdies": 3585,
      "across": 3586,
      "ĠĠĠĊĠĠĠ": 3587,
      "Ġsple": 3588,
      "ĠTheir": 3589,
      "Thou": 3590,
      "whose": 3591,
      "Ġdrunk": 3592,
      "Ġcarried": 3593,
      "Ġtouched": 3594,
      "Ġelect": 3595,
      "erm": 3596,
      "ana": 3597,
      "Ġinno": 3598,
      "Ġcruel": 3599,
      "Ġlightning": 3600,
      "Ġprison": 3601,
      "Ġstrugg": 3602,
      "Ġdisappear": 3603,
      "Ġcomplete": 3604,
      "hand": 3605,
      "Ġlap": 3606,
      "using": 3607,
      "Ġchick": 3608,
      "Ġours": 3609,
      "Ġneeded": 3610,
      "Ġpretend": 3611,
      "cing": 3612,
      "did": 3613,
      "ghed": 3614,
      "val": 3615,
      "vest": 3616,
      "Ġty": 3617,
      "Ġow": 3618,
      "Ġhost": 3619,
      "Ġpier": 3620,
      "Ġann": 3621,
      "Ġunknown": 3622,
      "Ġable": 3623,
      "Ġglo": 3624,
      "azz": 3625,
      "Ġends": 3626,
      "Ġcolors": 3627,
      "Ġblossoms": 3628,
      "mit": 3629,
      "Ġmoss": 3630,
      "isters": 3631,
      "Ġdrawn": 3632,
      "ĠEl": 3633,
      "Ġopening": 3634,
      "Ġmoonlight": 3635,
      "ĊĠĠĠĠĠĠĠĠĠĠĠĠĠĠĠĠĠĠĠĠĠĠĠĠĠĠĠĠĠĠĠĠĠĠĠĠĠĠĠĠĠĠĠĠĠĠĠĠĠĠĠĠĠĠĠĠĠĠĠĠĠĠĠĠĠĠĠĠĠĠĠĠĠĠĠĠĠĠĠĠ": 3636,
      "Ġbreaks": 3637,
      "Ġbuilding": 3638,
      "Br": 3639,
      "Ne": 3640,
      "hered": 3641,
      "Ġhal": 3642,
      "stal": 3643,
      "immer": 3644,
      "Ġforms": 3645,
      "ummer": 3646,
      "Ġorch": 3647,
      "black": 3648,
      "Ġmissing": 3649,
      "Ġuniverse": 3650,
      "Upon": 3651,
      "Ãº": 3652,
      "Ġsort": 3653,
      "Ġfence": 3654,
      "Ġcase": 3655,
      "Ġcities": 3656,
      "onel": 3657,
      "Thy": 3658,
      "iously": 3659,
      "Ġlaughing": 3660,
      "Sp": 3661,
      "bers": 3662,
      "ca": 3663,
      "Ġsav": 3664,
      "Ġmat": 3665,
      "Ġthird": 3666,
      "Ġremains": 3667,
      "Ġsoftly": 3668,
      "Ġfinal": 3669,
      "Ex": 3670,
      "Search": 3671,
      "Ġcars": 3672,
      "ented": 3673,
      "Ġsend": 3674,
      "Ġvict": 3675,
      "Ġmov": 3676,
      "Ġcrying": 3677,
      "cape": 3678,
      "green": 3679,
      "ĠX": 3680,
      "ĠĊĠĠĠĠĠĠĠĠĠĠĠ": 3681,
      "Ġol": 3682,
      "Ġpa": 3683,
      "Ġnon": 3684,
      "stood": 3685,
      "agg": 3686,
      "ĠAre": 3687,
      "away": 3688,
      "Ġpract": 3689,
      "Ġplaying": 3690,
      "ĠSpanish": 3691,
      "Ã³n": 3692,
      "Ġpublic": 3693,
      "Ġmourn": 3694,
      "book": 3695,
      "uary": 3696,
      "Ġwol": 3697,
      "ato": 3698,
      "Ġease": 3699,
      "ached": 3700,
      "ĠCome": 3701,
      "hel": 3702,
      "Ġsouth": 3703,
      "Ġcher": 3704,
      "Ġlying": 3705,
      "Ġpit": 3706,
      "Ġpity": 3707,
      "Ġsell": 3708,
      "Ġconsc": 3709,
      "Ġsilk": 3710,
      "Ġplanet": 3711,
      "ius": 3712,
      "Ġnumb": 3713,
      "Ġmeasure": 3714,
      "Ġfrost": 3715,
      "Ġflames": 3716,
      "ailed": 3717,
      "Ġpatient": 3718,
      "Ġtest": 3719,
      "oring": 3720,
      "Ġnet": 3721,
      "Ġeg": 3722,
      "adise": 3723,
      "illy": 3724,
      "Ġhig": 3725,
      "around": 3726,
      "irgin": 3727,
      "seen": 3728,
      "ĠNature": 3729,
      "ĠJust": 3730,
      "Ġmeadow": 3731,
      "swe": 3732,
      "Ġ5": 3733,
      "Ġfires": 3734,
      "ese": 3735,
      "Ġwearing": 3736,
      "Ġwaste": 3737,
      "Ġvio": 3738,
      "Ġrises": 3739,
      "Ġporch": 3740,
      "Ġdancing": 3741,
      "Ġjourney": 3742,
      "ev": 3743,
      "low": 3744,
      "ux": 3745,
      "Ġthigh": 3746,
      "Ġgets": 3747,
      "reek": 3748,
      "Ġdrum": 3749,
      "Ġkey": 3750,
      "Ġspeed": 3751,
      "Ġbrief": 3752,
      "Ġsuper": 3753,
      "ipp": 3754,
      "itted": 3755,
      "Ġenc": 3756,
      "Ġsnake": 3757,
      "aiting": 3758,
      "Ġvisit": 3759,
      "Ġserv": 3760,
      "esus": 3761,
      "Ġshed": 3762,
      "Ġsunset": 3763,
      "ugust": 3764,
      "Ġmemories": 3765,
      "Ġlifted": 3766,
      "Ġhanging": 3767,
      "iest": 3768,
      "inside": 3769,
      "Ġrough": 3770,
      "rib": 3771,
      "Ġchoose": 3772,
      "Ġknowledge": 3773,
      "Ġscreen": 3774,
      "udge": 3775,
      "Ġtele": 3776,
      "Ġdreaming": 3777,
      "Ġpainting": 3778,
      "Ġfloating": 3779,
      "Ġdaily": 3780,
      "love": 3781,
      "Ġtim": 3782,
      "Ġbay": 3783,
      "Ġmuse": 3784,
      "Ġpour": 3785,
      "omp": 3786,
      "Ġrum": 3787,
      "Ġliqu": 3788,
      "asted": 3789,
      "Ġworn": 3790,
      "anged": 3791,
      "Ġcontr": 3792,
      "Ġmonth": 3793,
      "Ġforgot": 3794,
      "asket": 3795,
      "athed": 3796,
      "ench": 3797,
      "ley": 3798,
      "Ġyo": 3799,
      "Ġrow": 3800,
      "those": 3801,
      "Ġkids": 3802,
      "Ġblade": 3803,
      "pered": 3804,
      "Ġcheer": 3805,
      "Ġtongues": 3806,
      "Ġsons": 3807,
      "Ġcovered": 3808,
      "Ġlack": 3809,
      "Ġju": 3810,
      "ĠNight": 3811,
      "Ġsmiles": 3812,
      "Ġtend": 3813,
      "Ġtelling": 3814,
      "Ġentire": 3815,
      "ĠArab": 3816,
      "Ġdouble": 3817,
      "Ġescape": 3818,
      "Ġpocket": 3819,
      "Ġsplend": 3820,
      "joy": 3821,
      "la": 3822,
      "uer": 3823,
      "Ġbought": 3824,
      "Ġcy": 3825,
      "Ġyell": 3826,
      "ically": 3827,
      "ĠOut": 3828,
      "Ġext": 3829,
      "Ġprep": 3830,
      "Ġsett": 3831,
      "Nothing": 3832,
      "Ġflew": 3833,
      "ĠChristmas": 3834,
      "Down": 3835,
      "ify": 3836,
      "Ġloc": 3837,
      "Those": 3838,
      "Ġopens": 3839,
      "ossible": 3840,
      "Ġasking": 3841,
      "ĊĠĠĠĠĠĠĠĠĠĠĠĠĠĠĠĠĠĠĠĠĠĠĠĠĠ": 3842,
      "Ġdropped": 3843,
      "Ġpossess": 3844,
      "Ġabsence": 3845,
      "Ġwelcome": 3846,
      "HE": 3847,
      "Two": 3848,
      "Ġvers": 3849,
      "ican": 3850,
      "ando": 3851,
      "Ġseeds": 3852,
      "asting": 3853,
      "Ġtrack": 3854,
      "ipping": 3855,
      "Ġpoison": 3856,
      "Ġcost": 3857,
      "nothing": 3858,
      "ĠYes": 3859,
      "Ġcentury": 3860,
      "Ġfamiliar": 3861,
      "Im": 3862,
      "ĠĠĊĠĠ": 3863,
      "Ġfed": 3864,
      "blue": 3865,
      "aughters": 3866,
      "Ġkissed": 3867,
      "Ġjob": 3868,
      "Ġcotton": 3869,
      "More": 3870,
      "mber": 3871,
      "inting": 3872,
      "orious": 3873,
      "Ġships": 3874,
      "Ġkilled": 3875,
      "place": 3876,
      "Ġperf": 3877,
      "Ġyesterday": 3878,
      "Ġmillion": 3879,
      "En": 3880,
      "gn": 3881,
      "iot": 3882,
      "Ġaff": 3883,
      "Ġec": 3884,
      "eled": 3885,
      "Ġvac": 3886,
      "anging": 3887,
      "inks": 3888,
      "Ġtonight": 3889,
      "ino": 3890,
      "Ġsize": 3891,
      "atching": 3892,
      "Ġhosp": 3893,
      "Ġgrie": 3894,
      "Ġflick": 3895,
      "Ġbranch": 3896,
      "Ġamid": 3897,
      "Ġteach": 3898,
      "Ġcurrent": 3899,
      "Ġworking": 3900,
      "ĠYork": 3901,
      "Ġspeaks": 3902,
      "Ġpurpose": 3903,
      "Ġinte": 3904,
      "owers": 3905,
      "oman": 3906,
      "aker": 3907,
      "ountain": 3908,
      "Ġwaited": 3909,
      "field": 3910,
      "ih": 3911,
      "miss": 3912,
      "Ġly": 3913,
      "Ġpil": 3914,
      "ashes": 3915,
      "ulf": 3916,
      "Ġdrops": 3917,
      "Ġtrembling": 3918,
      "Pe": 3919,
      "Ġdare": 3920,
      "them": 3921,
      "ĠSometimes": 3922,
      "Ġgrain": 3923,
      "bye": 3924,
      "Ġplayed": 3925,
      "Ġreflect": 3926,
      "Ġpresence": 3927,
      "Str": 3928,
      "bol": 3929,
      "cut": 3930,
      "ĠĠĊ": 3931,
      "Ġbarn": 3932,
      "Ġfist": 3933,
      "Ġcro": 3934,
      "Ġlam": 3935,
      "Ġdinner": 3936,
      "Ġhuge": 3937,
      "arl": 3938,
      "sect": 3939,
      "Ġshapes": 3940,
      "Ġate": 3941,
      "Than": 3942,
      "Ġbrings": 3943,
      "igr": 3944,
      "Ġprod": 3945,
      "Ġgiving": 3946,
      "Ġcloser": 3947,
      "Shall": 3948,
      "Ġsuffering": 3949,
      "?âĢĶ": 3950,
      "Pl": 3951,
      "Ġbold": 3952,
      "Ġhay": 3953,
      "Ġnur": 3954,
      "ille": 3955,
      "Ġsugar": 3956,
      "ĠLook": 3957,
      "ĠPer": 3958,
      "ailing": 3959,
      "Ġenem": 3960,
      "Ġsurround": 3961,
      "Ġpurs": 3962,
      "Ġwhether": 3963,
      "Ġahead": 3964,
      "Ġban": 3965,
      "itive": 3966,
      "âĢĻ,": 3967,
      "idence": 3968,
      "ĠThy": 3969,
      "ĊĠĠĠĠĠĠĠĠĠĠĠĠĠĠĠĠĠĠĠĠĠĠĠĠĠĠĠĠĠĠĠĠĠĠĠĠĠĠĠĠĠĠĠĠĠĠĠĠĠĠĠĠĠĠĠĠ": 3970,
      "ĠKing": 3971,
      "Never": 3972,
      "Ġwoke": 3973,
      "atched": 3974,
      "ifted": 3975,
      "Ġprim": 3976,
      "ĠEach": 3977,
      "Ġthank": 3978,
      "ĠStreet": 3979,
      "Ġtowards": 3980,
      "Ġevil": 3981,
      "Ġmystery": 3982,
      "Gr": 3983,
      "uce": 3984,
      "Ġfet": 3985,
      "Ġdat": 3986,
      "Ġink": 3987,
      "again": 3988,
      "ĠSund": 3989,
      "Ġtrace": 3990,
      "olate": 3991,
      "fered": 3992,
      "seless": 3993,
      "Ġenv": 3994,
      "Ġsword": 3995,
      "wards": 3996,
      "ĊĠĠĠĠĠĠĠĠĠĠĠĠĠĠĠĠĠĠĠĠĠĠĠĠĠĠĠĠĠ": 3997,
      "Ġimport": 3998,
      "Ġsadness": 3999,
      "Ġfollowed": 4000,
      "Ġmercy": 4001,
      "Ġradio": 4002,
      "Ġlungs": 4003,
      "Had": 4004,
      "ply": 4005,
      "Ġbos": 4006,
      "Ġeast": 4007,
      "Ġstairs": 4008,
      "Ġdreamed": 4009,
      "riend": 4010,
      "Ar": 4011,
      "fire": 4012,
      "yet": 4013,
      "Ġ|": 4014,
      "Ġwore": 4015,
      "Ġwire": 4016,
      "Ġobl": 4017,
      "ision": 4018,
      "Ġhaven": 4019,
      "orge": 4020,
      "enn": 4021,
      "asing": 4022,
      "Ġgri": 4023,
      "Ġeating": 4024,
      "stone": 4025,
      "Ġstation": 4026,
      "Ġrib": 4027,
      "Ġshoot": 4028,
      "umps": 4029,
      "Ġneg": 4030,
      "fection": 4031,
      "ĠCr": 4032,
      "Ġscorn": 4033,
      "Ġsmiling": 4034,
      "ashion": 4035,
      "ere": 4036,
      "iance": 4037,
      "Ġbough": 4038,
      "Ġdumb": 4039,
      "ora": 4040,
      "ico": 4041,
      "cking": 4042,
      "Ġalt": 4043,
      "Ġuna": 4044,
      "awk": 4045,
      "ĠDid": 4046,
      "Ġ20": 4047,
      "Ġfem": 4048,
      "Ġder": 4049,
      "Ġhook": 4050,
      "ety": 4051,
      "Ġrush": 4052,
      "Ġweeks": 4053,
      "Ġsplit": 4054,
      "Were": 4055,
      "Ġminute": 4056,
      "Ġdirect": 4057,
      "Ġfavorite": 4058,
      "ai": 4059,
      "bably": 4060,
      "pro": 4061,
      "Ġmult": 4062,
      "Ġinfinite": 4063,
      "vern": 4064,
      "Ġdecl": 4065,
      "Ġworks": 4066,
      "Ġcloth": 4067,
      "ĠLife": 4068,
      "resses": 4069,
      "Ġdesign": 4070,
      "action": 4071,
      "Ġbreasts": 4072,
      "Ġfalse": 4073,
      "Po": 4074,
      "Ġfled": 4075,
      "ĊĠĠĠĠĠĠĠĠĠĠĠĠĠĠĠĠĠĠĠĠĠĠĠĠĠĠĠĠĠĠĠĠĠ": 4076,
      "Ġhearing": 4077,
      "ĠYet": 4078,
      "Ġangry": 4079,
      "Ġbrothers": 4080,
      "Ġdifference": 4081,
      "Ġmagic": 4082,
      "Ġmachine": 4083,
      "dark": 4084,
      "ule": 4085,
      "Ġnod": 4086,
      "urb": 4087,
      "ĠSc": 4088,
      "Ġglit": 4089,
      "Ġtext": 4090,
      "Ġolder": 4091,
      "Ġhappiness": 4092,
      "dered": 4093,
      "pril": 4094,
      "Ġquestions": 4095,
      "Ġgently": 4096,
      "aur": 4097,
      "run": 4098,
      "spe": 4099,
      "vet": 4100,
      "Ġbehold": 4101,
      "Ġweeping": 4102,
      "these": 4103,
      "Ġchain": 4104,
      "avity": 4105,
      "Ġgiant": 4106,
      "struct": 4107,
      "Ġreturned": 4108,
      "Ġkisses": 4109,
      "Ġminutes": 4110,
      "Ġsigns": 4111,
      "Ġmagn": 4112,
      "aries": 4113,
      "Ġet": 4114,
      "Ġstom": 4115,
      "ality": 4116,
      "anting": 4117,
      "Ġeyel": 4118,
      "Ġstring": 4119,
      "neath": 4120,
      "onds": 4121,
      "Ġparty": 4122,
      "Ġpetals": 4123,
      "fast": 4124,
      "uish": 4125,
      "orse": 4126,
      "Ġpair": 4127,
      "Ġhem": 4128,
      "arer": 4129,
      "blem": 4130,
      "auty": 4131,
      "----": 4132,
      "inned": 4133,
      "Ġancest": 4134,
      "Until": 4135,
      "fer": 4136,
      "toward": 4137,
      "Ġtip": 4138,
      "held": 4139,
      "Ġcamp": 4140,
      "orts": 4141,
      "Ġthorn": 4142,
      "vering": 4143,
      "umed": 4144,
      "Ġvirt": 4145,
      "ulate": 4146,
      "abs": 4147,
      "osing": 4148,
      "Ġplate": 4149,
      "Ġconc": 4150,
      "ĠThou": 4151,
      "Ġpalms": 4152,
      "Ġswallow": 4153,
      "ae": 4154,
      "Ġmoth": 4155,
      "rol": 4156,
      "Ġbru": 4157,
      "Ġwrist": 4158,
      "Ġforehead": 4159,
      "Ġsteep": 4160,
      "iety": 4161,
      "Ġorigin": 4162,
      "fish": 4163,
      "Ġsake": 4164,
      "Ġpages": 4165,
      "irts": 4166,
      "Ġshake": 4167,
      "Ġnecess": 4168,
      "ĠCal": 4169,
      "Ġteacher": 4170,
      "shine": 4171,
      "Ġconstant": 4172,
      "Ġcigaret": 4173,
      "oneliness": 4174,
      "bor": 4175,
      "bro": 4176,
      "ias": 4177,
      "za": 4178,
      "uries": 4179,
      "Ġashes": 4180,
      "Ġkid": 4181,
      "Ġven": 4182,
      "Ġamb": 4183,
      "Ġfox": 4184,
      "lights": 4185,
      "Ġburns": 4186,
      "Ġarrive": 4187,
      "iber": 4188,
      "Ġsides": 4189,
      "Ġbub": 4190,
      "lly": 4191,
      "asion": 4192,
      "Ġgest": 4193,
      "Ġsear": 4194,
      "Ġbliss": 4195,
      "Ġdoctor": 4196,
      "ieve": 4197,
      "ĠMiss": 4198,
      "Ġplane": 4199,
      "arks": 4200,
      "ivering": 4201,
      "dis": 4202,
      "een": 4203,
      "Ġdad": 4204,
      "Ġholes": 4205,
      "Ġpack": 4206,
      "Ġrab": 4207,
      "amm": 4208,
      "umph": 4209,
      "Ġlock": 4210,
      "Ġsoot": 4211,
      "Ġjack": 4212,
      "Ġslave": 4213,
      "Ġdrift": 4214,
      "Ġcoast": 4215,
      "Ġemp": 4216,
      "Ġnearly": 4217,
      "Ġrolling": 4218,
      "Ġstreams": 4219,
      "Ġlabor": 4220,
      "haust": 4221,
      "ĠIndian": 4222,
      "Con": 4223,
      "bar": 4224,
      "Ġske": 4225,
      "Ġgn": 4226,
      "aly": 4227,
      "ops": 4228,
      "Ġcrad": 4229,
      "Ġtwice": 4230,
      "ĊĠĠĠĠĠĠĠĠĠĠĠĠĠĠĠĠĠĠĠĠĠĠĠĠĠĠĠĠĠĠĠĠĠĠĠĠĠĠĠĠĠĠĠĠĠĠĠ": 4231,
      "Ġraise": 4232,
      "Ġmurder": 4233,
      "Ġbottle": 4234,
      "looking": 4235,
      "Ġsi": 4236,
      "Ġmut": 4237,
      "Ġcart": 4238,
      "ĠAb": 4239,
      "ĠAugust": 4240,
      "Ġpond": 4241,
      "Ġboard": 4242,
      "attering": 4243,
      "Ġfloat": 4244,
      "coming": 4245,
      "Ġedges": 4246,
      "Ġbusy": 4247,
      "Ġsimply": 4248,
      "Ġruin": 4249,
      "Ġwander": 4250,
      "Ġstrangers": 4251,
      "Ġdissol": 4252,
      "cil": 4253,
      "tw": 4254,
      "Ġwaking": 4255,
      "Ġwax": 4256,
      "ero": 4257,
      "Ġhym": 4258,
      "thm": 4259,
      "ĠMary": 4260,
      "Ġgraves": 4261,
      "Ġnowhere": 4262,
      "ĠWhile": 4263,
      "Ġdisp": 4264,
      "Ġresp": 4265,
      "Ġanger": 4266,
      "Ġwoe": 4267,
      "Ġreached": 4268,
      "ique": 4269,
      "yes": 4270,
      "Ġ;": 4271,
      "Ġbase": 4272,
      "llen": 4273,
      "iffe": 4274,
      "ĠSun": 4275,
      "riage": 4276,
      "Ġorgan": 4277,
      "Ġtrick": 4278,
      "Ġnobody": 4279,
      "Ġsheets": 4280,
      "ĠRo": 4281,
      "ivers": 4282,
      "Ġprocess": 4283,
      "Ġtread": 4284,
      "Ġspend": 4285,
      "Ġrecord": 4286,
      "Ġveins": 4287,
      "Ġgrandfather": 4288,
      "Ġattention": 4289,
      "Ġpressed": 4290,
      "Ġquickly": 4291,
      "Ġwisdom": 4292,
      "Ġeggs": 4293,
      "ĠQu": 4294,
      "Ġstalk": 4295,
      "umped": 4296,
      "Ġvine": 4297,
      "osition": 4298,
      "Ġcliff": 4299,
      "Ġjew": 4300,
      "ĠOld": 4301,
      "ension": 4302,
      "Without": 4303,
      "Ġmarried": 4304,
      "Ġsidewalk": 4305,
      "Ġroads": 4306,
      "Ġregret": 4307,
      "Ġpulse": 4308,
      "Ġlandscape": 4309,
      "Ġremembered": 4310,
      "Go": 4311,
      "burn": 4312,
      "lock": 4313,
      "rance": 4314,
      "rors": 4315,
      "Ġnatural": 4316,
      "Ġgathered": 4317,
      "ĠWest": 4318,
      "Thus": 4319,
      "Ġsuc": 4320,
      "Ġconv": 4321,
      "Ġcheeks": 4322,
      "Ġvel": 4323,
      "Ġdelicate": 4324,
      "Ġbarely": 4325,
      "bon": 4326,
      "zes": 4327,
      "ĠQ": 4328,
      "Ġutter": 4329,
      "Ġtale": 4330,
      "Ġcave": 4331,
      "itation": 4332,
      "Ġdamp": 4333,
      "Ġdaughters": 4334,
      "Ġpines": 4335,
      "Ġbeer": 4336,
      "alls": 4337,
      "ĠWas": 4338,
      "ĠCon": 4339,
      "ĠEm": 4340,
      "Ġworked": 4341,
      "ĊĠĠĠĠĠĠĠĠĠĠĠĠĠĠĠĠĠĠĠĠĠĠĠĠĠĠĠ": 4342,
      "Ġmoments": 4343,
      "Ã¡s": 4344,
      "Ġfurther": 4345,
      "Ġpieces": 4346,
      "Ġphotograph": 4347,
      "Ġtrouble": 4348,
      "ĊĊĠĠ": 4349,
      "Ġlord": 4350,
      "Ġdrew": 4351,
      "arning": 4352,
      "Ġegg": 4353,
      "eter": 4354,
      "apers": 4355,
      "Ġknee": 4356,
      "Ġworry": 4357,
      "Ġpoets": 4358,
      "Ġarg": 4359,
      "Ġcrum": 4360,
      "Ġsomehow": 4361,
      "flies": 4362,
      "Ġmovement": 4363,
      "Ġmarket": 4364,
      "Ð¾Ð": 4365,
      "Ġfierce": 4366,
      "Ġcounter": 4367,
      "Ġinterest": 4368,
      "bbing": 4369,
      "Ãł": 4370,
      "Ġtar": 4371,
      "Ġtent": 4372,
      "Ġtune": 4373,
      "Ġma": 4374,
      "ĠSpring": 4375,
      "emember": 4376,
      "Ġfever": 4377,
      "Ġbacks": 4378,
      "claim": 4379,
      "Ġwooden": 4380,
      "Ġdriving": 4381,
      "Ġbusiness": 4382,
      "Ġtomorrow": 4383,
      "fold": 4384,
      "Ġox": 4385,
      "Ġep": 4386,
      "icious": 4387,
      "Ġnotice": 4388,
      "Ġblur": 4389,
      "Ġfeast": 4390,
      "ĠDes": 4391,
      "ĠMaybe": 4392,
      "Ġsorry": 4393,
      ".âĢĶ": 4394,
      "boy": 4395,
      "oly": 4396,
      "Ġfac": 4397,
      "ishes": 4398,
      "Ġthirty": 4399,
      "irling": 4400,
      "Ġrings": 4401,
      "child": 4402,
      "Ġdefe": 4403,
      "Ġflu": 4404,
      "nect": 4405,
      "Ġoffer": 4406,
      "Ġprov": 4407,
      "Ġbeloved": 4408,
      "Ġdrove": 4409,
      "Ġblessed": 4410,
      "Ġharvest": 4411,
      "ER": 4412,
      "Well": 4413,
      "pen": 4414,
      "ĠĠĊĠĠĠ": 4415,
      "Ġcous": 4416,
      "Ġshows": 4417,
      "elve": 4418,
      "Ġsheet": 4419,
      "ĠJesus": 4420,
      "Ġhumming": 4421,
      "flower": 4422,
      "Ġmarble": 4423,
      "Ġbelieved": 4424,
      "Ġpossib": 4425,
      "ology": 4426,
      "Ġchoice": 4427,
      "Maybe": 4428,
      "**": 4429,
      "IN": 4430,
      "Ġast": 4431,
      "Ġbore": 4432,
      "Ġhid": 4433,
      "another": 4434,
      "Ġinh": 4435,
      "asc": 4436,
      "Ġstuck": 4437,
      "Ġrope": 4438,
      "ĠAng": 4439,
      "Ġsheep": 4440,
      "ption": 4441,
      "Ġpasses": 4442,
      "ĠStill": 4443,
      "ĠOnly": 4444,
      "tended": 4445,
      "Ġfolded": 4446,
      "birds": 4447,
      "Dr": 4448,
      "ĠĊĠĠĠĠĠĠĠĠ": 4449,
      "Ġnice": 4450,
      "Ġended": 4451,
      "Ġsquare": 4452,
      "Ġsuffer": 4453,
      "Ġsom": 4454,
      "Ġmood": 4455,
      "verse": 4456,
      "Ġmyster": 4457,
      "Ġmeas": 4458,
      "Ġblown": 4459,
      "Ġblows": 4460,
      "Ġimper": 4461,
      "Ġproper": 4462,
      "Ġspect": 4463,
      "retched": 4464,
      "Ġsteam": 4465,
      "Ġmostly": 4466,
      "Ġlaughed": 4467,
      "imson": 4468,
      "Ġmaiden": 4469,
      "Ġparticular": 4470,
      "Up": 4471,
      "cast": 4472,
      "omen": 4473,
      "acted": 4474,
      "icult": 4475,
      "iring": 4476,
      "Ġrevol": 4477,
      "Ġfright": 4478,
      "Ġbraid": 4479,
      "Ġconce": 4480,
      "Ġexam": 4481,
      "behind": 4482,
      "ulls": 4483,
      "bert": 4484,
      "ansl": 4485,
      "izing": 4486,
      "Ġ18": 4487,
      "ĠNothing": 4488,
      "vision": 4489,
      "Ġviolence": 4490,
      "Ġbosom": 4491,
      "Long": 4492,
      "dro": 4493,
      "sy": 4494,
      "ses": 4495,
      "sur": 4496,
      "uits": 4497,
      "Ġfurn": 4498,
      "ĠIts": 4499,
      "Ġyield": 4500,
      "ago": 4501,
      "above": 4502,
      "avy": 4503,
      "ĠDr": 4504,
      "ĠDay": 4505,
      "Ġstraw": 4506,
      "appy": 4507,
      "Ġfoam": 4508,
      "anced": 4509,
      "Ġcheck": 4510,
      "Ġtemple": 4511,
      "Ġdestroy": 4512,
      "Ġabandoned": 4513,
      "kind": 4514,
      "lor": 4515,
      "á»": 4516,
      "Ġbes": 4517,
      "Ġtooth": 4518,
      "stem": 4519,
      "Ġblame": 4520,
      "ĠThese": 4521,
      "ĠFather": 4522,
      "Ġdeeper": 4523,
      "Ġthrone": 4524,
      "Ġwounds": 4525,
      "Ġwaits": 4526,
      "lemn": 4527,
      "Ġmas": 4528,
      "isp": 4529,
      "Ġworst": 4530,
      "ĠBar": 4531,
      "udden": 4532,
      "ĠJune": 4533,
      "ĠThough": 4534,
      "ĠBefore": 4535,
      "Ġveil": 4536,
      "Ġevent": 4537,
      "box": 4538,
      "eep": 4539,
      "Ġain": 4540,
      "Ġmatch": 4541,
      "itions": 4542,
      "Ġthumb": 4543,
      "Ġtracks": 4544,
      "ĠHell": 4545,
      "Ġsuit": 4546,
      "Ġexc": 4547,
      "Ð°Ð": 4548,
      "Ġstretch": 4549,
      "Ġexactly": 4550,
      "iam": 4551,
      "sk": 4552,
      "nde": 4553,
      "Ġdom": 4554,
      "Ġpause": 4555,
      "acious": 4556,
      "Ġstiff": 4557,
      "Ġwealth": 4558,
      "ĠApril": 4559,
      "Ġves": 4560,
      "Ġplants": 4561,
      "Ġconqu": 4562,
      "Ġgreet": 4563,
      "Ġdesper": 4564,
      "Ġguide": 4565,
      "Ġsteady": 4566,
      "Ġimpossible": 4567,
      "Ġceiling": 4568,
      "Ġpolice": 4569,
      "hip": 4570,
      "ught": 4571,
      "Ġ7": 4572,
      "Ġtick": 4573,
      "Ġloneliness": 4574,
      "etter": 4575,
      "Ġstage": 4576,
      "earing": 4577,
      "ĠGu": 4578,
      "Ġwanting": 4579,
      "Ġanymore": 4580,
      "Ġunderstood": 4581,
      "Ġthrown": 4582,
      "Ġspirits": 4583,
      "Ġqueen": 4584,
      "Ġsurvive": 4585,
      "!)": 4586,
      "beneath": 4587,
      "Ġ6": 4588,
      "Ġfer": 4589,
      "Ġfixed": 4590,
      "Ġtrump": 4591,
      "Ġdeser": 4592,
      "Ġfathers": 4593,
      "Ġappears": 4594,
      "Ġburden": 4595,
      "Ġflee": 4596,
      "Ġbullet": 4597,
      "Ġwedding": 4598,
      "nel": 4599,
      "ãĢ": 4600,
      "Ġfirm": 4601,
      "Ġinner": 4602,
      "Ġank": 4603,
      "ĠSm": 4604,
      "Ġcomb": 4605,
      "ĠWhite": 4606,
      "Ġache": 4607,
      "Ġsleeps": 4608,
      "Ġstrike": 4609,
      "someone": 4610,
      "Ġapartment": 4611,
      "Ġsolid": 4612,
      "Ġimmortal": 4613,
      "Ġblossom": 4614,
      "crete": 4615,
      "Tell": 4616,
      "Ã¼": 4617,
      "lebr": 4618,
      "Ġrul": 4619,
      "Ġleather": 4620,
      "oph": 4621,
      "Ġscattered": 4622,
      "Ġforeign": 4623,
      "Ġbedroom": 4624,
      "Ġcontain": 4625,
      "Ġhardly": 4626,
      "Ġcourt": 4627,
      "Ġsubject": 4628,
      "Ġhealth": 4629,
      "Ġembrace": 4630,
      "Ġstomach": 4631,
      "Give": 4632,
      "Sm": 4633,
      "wed": 4634,
      "Ġtin": 4635,
      "iner": 4636,
      "Ġmart": 4637,
      "Ġhood": 4638,
      "ĠIm": 4639,
      "leg": 4640,
      "Ġbeating": 4641,
      "anding": 4642,
      "Ġweeds": 4643,
      "Ġbrook": 4644,
      "Ġroar": 4645,
      "Ġstillness": 4646,
      "ĠRiver": 4647,
      "ancing": 4648,
      "istening": 4649,
      "ĊĠĠĠĠĠĠĠĠĠĠĠĠĠĠĠĠĠĠĠĠĠĠĠĠĠĠĠĠĠĠ": 4650,
      "Ġforgive": 4651,
      "Ġcandle": 4652,
      "Ġecst": 4653,
      "ĠSunday": 4654,
      "bound": 4655,
      "lar": 4656,
      "ov": 4657,
      "pher": 4658,
      "uction": 4659,
      "Ġworse": 4660,
      "angle": 4661,
      "Ġsecrets": 4662,
      "Ġcorp": 4663,
      "Ġstayed": 4664,
      "Ġtriumph": 4665,
      "Ġeasily": 4666,
      "Ġsupposed": 4667,
      "Ġarrived": 4668,
      "Ġhonor": 4669,
      ":âĢĶ": 4670,
      "cont": 4671,
      "life": 4672,
      "press": 4673,
      "ĊĊĠĠĠĠĠĠĠĠĠ": 4674,
      "Ġsed": 4675,
      "Ġmask": 4676,
      "Ġfade": 4677,
      "otted": 4678,
      "Ġrav": 4679,
      "Ġliked": 4680,
      "aping": 4681,
      "ĠStr": 4682,
      "Ġbride": 4683,
      "Ġjoke": 4684,
      "ĠGo": 4685,
      "Ġstruck": 4686,
      "Ġboots": 4687,
      "Ġsought": 4688,
      "Ġrestless": 4689,
      "ĊĠĠĠĠĠĠĠĠĠĠĠĠĠĠĠĠĠĠĠĠĠĠĠĠĠĠĠĠĠĠĠ": 4690,
      "Ġstaring": 4691,
      "Ġimagined": 4692,
      "Ġwheels": 4693,
      "Ġcrossed": 4694,
      "Ġsoldier": 4695,
      "Ġhospital": 4696,
      "Since": 4697,
      "Ġros": 4698,
      "Ġrout": 4699,
      "Ġmyth": 4700,
      "oops": 4701,
      "ĠĠĠĊĠ": 4702,
      "inding": 4703,
      "Ġspray": 4704,
      "ĠAfr": 4705,
      "ĠWor": 4706,
      "Ġflutter": 4707,
      "ĠNe": 4708,
      "Ġglance": 4709,
      "Ġaccept": 4710,
      "Ġprobably": 4711,
      "Ġresist": 4712,
      "Ġconfess": 4713,
      "Ġstretched": 4714,
      "Ġcouch": 4715,
      "lim": 4716,
      "mal": 4717,
      "sil": 4718,
      "Ġ-": 4719,
      "Ġx": 4720,
      "Ġfab": 4721,
      "Ġfears": 4722,
      "isf": 4723,
      "Ġdut": 4724,
      "once": 4725,
      "Ġere": 4726,
      "ido": 4727,
      "ĠSouth": 4728,
      "Ġlocked": 4729,
      "Ġclo": 4730,
      "Ġclut": 4731,
      "igg": 4732,
      "Ġcracked": 4733,
      "Ġstrings": 4734,
      "ford": 4735,
      "ogs": 4736,
      "Ġfinds": 4737,
      "comes": 4738,
      "Ġneighbors": 4739,
      "Ġguns": 4740,
      "Ġsacr": 4741,
      "19": 4742,
      "nce": 4743,
      "inger": 4744,
      "Ġfant": 4745,
      "Ġfix": 4746,
      "Ġpad": 4747,
      "Ġthrew": 4748,
      "Ġgal": 4749,
      "Ġstub": 4750,
      "Ġlif": 4751,
      "Ġaside": 4752,
      "Ġwashed": 4753,
      "Ġtraff": 4754,
      "ooked": 4755,
      "Ġdrank": 4756,
      "ĠRed": 4757,
      "ensive": 4758,
      "ĠJew": 4759,
      "Ġphys": 4760,
      "Ġvisible": 4761,
      "Ġawful": 4762,
      "Ġsentence": 4763,
      "Ġdirection": 4764,
      "Today": 4765,
      "make": 4766,
      "tell": 4767,
      "vo": 4768,
      "zy": 4769,
      "Ġut": 4770,
      "Ġess": 4771,
      "Ġtort": 4772,
      "Ġfan": 4773,
      "Ġgrou": 4774,
      "Ġrows": 4775,
      "Ġrent": 4776,
      "Ġaren": 4777,
      "opes": 4778,
      "Ġexhaust": 4779,
      "Ġwrapped": 4780,
      "flo": 4781,
      "Ġpleasant": 4782,
      "Perhaps": 4783,
      "Ġborder": 4784,
      ";âĢĶ": 4785,
      "Tw": 4786,
      "ĠĊĊ": 4787,
      "Ġfancy": 4788,
      "ito": 4789,
      "arse": 4790,
      "Ġtoil": 4791,
      "Ġgut": 4792,
      "ette": 4793,
      "Ġriding": 4794,
      "Ġmoan": 4795,
      "Ġglowing": 4796,
      "udes": 4797,
      "ĊĠĠĠĠĠĠĠĠĠĠĠĠĠĠĠĠĠĠĠĠĠĠĠĠĠĠĠĠĠĠĠĠĠĠ": 4798,
      "Ġoffice": 4799,
      "Ġhighway": 4800,
      "Ġaccount": 4801,
      "âĢĵâĢĵ": 4802,
      "Ġunfold": 4803,
      ".âĢĻ": 4804,
      "past": 4805,
      "Ġ8": 4806,
      "Ġfills": 4807,
      "Ġcage": 4808,
      "Ġpaid": 4809,
      "Ġthreat": 4810,
      "vere": 4811,
      "Ġech": 4812,
      "Ġrice": 4813,
      "imate": 4814,
      "Ġsho": 4815,
      "Ġworship": 4816,
      "berry": 4817,
      "Ġsung": 4818,
      "ĠUnder": 4819,
      "comp": 4820,
      "Ġcommun": 4821,
      "Ġwhispers": 4822,
      "Ġneighborhood": 4823,
      "Ġrecognize": 4824,
      "ĠArabic": 4825,
      "rise": 4826,
      "Ġbars": 4827,
      "Ġmain": 4828,
      "Ġmute": 4829,
      "Ġrail": 4830,
      "Ġsever": 4831,
      "rose": 4832,
      "Ġblues": 4833,
      "Ġsolemn": 4834,
      "arts": 4835,
      "osen": 4836,
      "ĠMr": 4837,
      "ĠCar": 4838,
      "ĊĠĠĠĠĠĠĠĠĠĠĠĠĠĠĠĠĠĠĠĠĠĠĠĠĠĠ": 4839,
      "Ġwheat": 4840,
      "Ġinstant": 4841,
      "Ġsurely": 4842,
      "Ġfuneral": 4843,
      "Ġengine": 4844,
      "Ġindeed": 4845,
      "sal": 4846,
      "zed": 4847,
      "Ġsisters": 4848,
      "Ġbi": 4849,
      "Ġcream": 4850,
      "Ġlower": 4851,
      "Ġdu": 4852,
      "Ġduring": 4853,
      "icing": 4854,
      "Ġreign": 4855,
      "arther": 4856,
      "ĠGe": 4857,
      "Ġcrimson": 4858,
      "Ġdisco": 4859,
      "upid": 4860,
      "Ġstops": 4861,
      "Ġrolled": 4862,
      "everything": 4863,
      "Ġblanket": 4864,
      "Ġshells": 4865,
      "year": 4866,
      "Ġmal": 4867,
      "icle": 4868,
      "Ġraw": 4869,
      "amber": 4870,
      "Ġblast": 4871,
      "Ġspine": 4872,
      "Ġbrick": 4873,
      "why": 4874,
      "Ġdesk": 4875,
      "peak": 4876,
      "Ġbloody": 4877,
      "Ġcreatures": 4878,
      "ĊĠĠĠĠĠĠĠĠĠĠĠĠĠĠĠĠĠĠĠĠĠĠĠĠĠĠĠĠ": 4879,
      "Ġgardens": 4880,
      "Ġjoin": 4881,
      "aunt": 4882,
      "III": 4883,
      "cially": 4884,
      "Ġfilm": 4885,
      "Ġrhythm": 4886,
      "Cr": 4887,
      "Des": 4888,
      "Something": 4889,
      "give": 4890,
      "know": 4891,
      "Ġaction": 4892,
      "Ġbags": 4893,
      "Ġbasket": 4894,
      "Ġlat": 4895,
      "ara": 4896,
      "Ġinsect": 4897,
      "Ġstair": 4898,
      "along": 4899,
      "always": 4900,
      "Ġum": 4901,
      "Ġchill": 4902,
      "Ġgran": 4903,
      "Ġunseen": 4904,
      "Ġstrife": 4905,
      "Ġworlds": 4906,
      "Ġhopes": 4907,
      "Ġcouple": 4908,
      "Ġsolitude": 4909,
      "Ad": 4910,
      "cus": 4911,
      "iate": 4912,
      "Ġident": 4913,
      "Ġmor": 4914,
      "Ġpush": 4915,
      "andel": 4916,
      "Ġwept": 4917,
      "aints": 4918,
      "Ġanx": 4919,
      "anges": 4920,
      "Ġconvers": 4921,
      "Ġentered": 4922,
      "Ġtomb": 4923,
      "Ġhonest": 4924,
      "Ġdepths": 4925,
      "Ġtower": 4926,
      "Life": 4927,
      "ache": 4928,
      "Ġdeck": 4929,
      "agon": 4930,
      "ĠAh": 4931,
      "Ġallowed": 4932,
      "ols": 4933,
      "Ġplum": 4934,
      "Ġconcrete": 4935,
      "Ġgoat": 4936,
      "Ġgreater": 4937,
      "ĠEx": 4938,
      "lessly": 4939,
      "Ġprove": 4940,
      "Ġbecoming": 4941,
      "Ġsweetness": 4942,
      "Ġminds": 4943,
      "Ġprayers": 4944,
      "Ġsmells": 4945,
      "Ġcease": 4946,
      "Ġdevil": 4947,
      "Ġwandering": 4948,
      "Ġpictures": 4949,
      "Ġeternity": 4950,
      "Ġeager": 4951,
      "Ġdifficult": 4952,
      "bes": 4953,
      "mark": 4954,
      "Ġiv": 4955,
      "hether": 4956,
      "Ġbite": 4957,
      "Ġpred": 4958,
      "otes": 4959,
      "imm": 4960,
      "Ġforty": 4961,
      "cend": 4962,
      "uman": 4963,
      "awl": 4964,
      "asses": 4965,
      "Ġpoints": 4966,
      "Ġbegun": 4967,
      "Ġbeds": 4968,
      "Ġcrossing": 4969,
      "Ġstudy": 4970,
      "Ġpockets": 4971,
      "About": 4972,
      "Ġnumbers": 4973,
      "Could": 4974,
      "does": 4975,
      "uh": 4976,
      "Ġah": 4977,
      "rec": 4978,
      "Ġmaj": 4979,
      "Ġincl": 4980,
      "Ġenjoy": 4981,
      "Ġmerry": 4982,
      "Ġcarrying": 4983,
      "Ġdiam": 4984,
      "Ġseasons": 4985,
      "Ġtraffic": 4986,
      "inal": 4987,
      "Ġwip": 4988,
      "ita": 4989,
      "Ġhomes": 4990,
      "Ġstol": 4991,
      "among": 4992,
      "Ġshock": 4993,
      "Ġbrill": 4994,
      "arewell": 4995,
      "ĠFrench": 4996,
      "Ġcrushed": 4997,
      "Ġcheap": 4998,
      "Ġcourage": 4999,
      "Ġstarts": 5000,
      "Ġscarce": 5001,
      "Ġhealing": 5002,
      "ĠNorth": 5003,
      "Ġfolks": 5004,
      "Turn": 5005,
      "making": 5006,
      "pes": 5007,
      "Ġoft": 5008,
      "asm": 5009,
      "Ġnails": 5010,
      "lection": 5011,
      "steps": 5012,
      "una": 5013,
      "rig": 5014,
      "Ġchim": 5015,
      "weed": 5016,
      "Ġplays": 5017,
      "orning": 5018,
      "ĠFe": 5019,
      "ĠGood": 5020,
      "Ġstrain": 5021,
      "ucking": 5022,
      "phone": 5023,
      "ounce": 5024,
      "Ġexplain": 5025,
      "ON": 5026,
      "gly": 5027,
      "isher": 5028,
      "onna": 5029,
      "Ġdove": 5030,
      "Ġunh": 5031,
      "ĠGreat": 5032,
      "alking": 5033,
      "Ġ...": 5034,
      "Ġanyway": 5035,
      "atters": 5036,
      "Ġshades": 5037,
      "Ġcontent": 5038,
      "Ġgrasses": 5039,
      "Ġpillow": 5040,
      "Ġvessel": 5041,
      "Has": 5042,
      "bb": 5043,
      "cence": 5044,
      "gress": 5045,
      "oid": 5046,
      "sun": 5047,
      "Ġsails": 5048,
      "estern": 5049,
      "Ġlunch": 5050,
      "Ġnative": 5051,
      "sters": 5052,
      "Ġstum": 5053,
      "illa": 5054,
      "Ġshove": 5055,
      "Ġshines": 5056,
      "Ġsevent": 5057,
      "agine": 5058,
      "inds": 5059,
      "ante": 5060,
      "ulation": 5061,
      "aud": 5062,
      "venue": 5063,
      "ĠEn": 5064,
      "Ġener": 5065,
      "Ġremoved": 5066,
      "Ġkeys": 5067,
      "Ġneedle": 5068,
      "Ġcrest": 5069,
      "Ġcrystal": 5070,
      "Ġcompany": 5071,
      "Ġstorms": 5072,
      "Ġjoys": 5073,
      "Ġfamous": 5074,
      "anned": 5075,
      "Ġpriest": 5076,
      "Ġtied": 5077,
      "Ġaim": 5078,
      "Ġfashion": 5079,
      "Ġdirty": 5080,
      "Ġgown": 5081,
      "acles": 5082,
      "adas": 5083,
      "Ġweed": 5084,
      "Ġshower": 5085,
      "Ġkin": 5086,
      "Ġwilling": 5087,
      "Ġglorious": 5088,
      "Ġproblem": 5089,
      "Ġcurse": 5090,
      "irls": 5091,
      "Ġheavens": 5092,
      "Ã©s": 5093,
      "Ġcenturies": 5094,
      "Ġcircles": 5095,
      "Ġpaths": 5096,
      "Ġbleeding": 5097,
      "ÐµÐ": 5098,
      "Ġfailed": 5099,
      "Ġsoldiers": 5100,
      "Ġplanted": 5101,
      "Ġcurtain": 5102,
      "Ġchicken": 5103,
      "Ġhigher": 5104,
      "Ġimportant": 5105,
      "cial": 5106,
      "lic": 5107,
      "yal": 5108,
      "zing": 5109,
      "ators": 5110,
      "Ġlaws": 5111,
      "Ġdried": 5112,
      "Ġnine": 5113,
      "Ġgates": 5114,
      "ste": 5115,
      "Ġwhit": 5116,
      "Ġspider": 5117,
      "Ġlearning": 5118,
      "ĠCol": 5119,
      "ĠTom": 5120,
      "Ġtwelve": 5121,
      "Ġcock": 5122,
      "Ġswing": 5123,
      "Another": 5124,
      "Ġwarmth": 5125,
      "Ġdrinking": 5126,
      "Ġfleet": 5127,
      "Sw": 5128,
      "Ye": 5129,
      "lier": 5130,
      "Ġsaved": 5131,
      "Ġced": 5132,
      "Ġpitch": 5133,
      "Ġbeard": 5134,
      "ights": 5135,
      "Ġanswe": 5136,
      "iforn": 5137,
      "Ġvap": 5138,
      "osa": 5139,
      "Ġnoble": 5140,
      "Ġhadn": 5141,
      "ĊĠĠĠĠĠĠĠĠĠĠĠĠĠĠĠĠĠĠĠĠĠĠĠĠĠĠĠĠĠĠĠĠĠĠĠĠĠĠ": 5142,
      "ivid": 5143,
      "Ġdistr": 5144,
      "Ġrelig": 5145,
      "Ġblew": 5146,
      "Ġblooms": 5147,
      "Ġreaching": 5148,
      "Fe": 5149,
      "dess": 5150,
      "dream": 5151,
      "ä¸": 5152,
      "Ġ9": 5153,
      "ĠĊĠĠĠĠĠĠĠ": 5154,
      "Ġsire": 5155,
      "Ġbush": 5156,
      "Ġbanks": 5157,
      "Ġmater": 5158,
      "Ġfond": 5159,
      "ata": 5160,
      "Ġlin": 5161,
      "onies": 5162,
      "Ġhears": 5163,
      "Ġcrime": 5164,
      "Ġslumber": 5165,
      "Ġmarch": 5166,
      "Ġruined": 5167,
      "Ġgleam": 5168,
      "Ġphoto": 5169,
      "Ġmurmur": 5170,
      "Ġliquid": 5171,
      "Ġanswered": 5172,
      "RE": 5173,
      "Too": 5174,
      "high": 5175,
      "sed": 5176,
      "Ñĥ": 5177,
      "Ġë": 5178,
      "Ġbol": 5179,
      "erness": 5180,
      "atoes": 5181,
      "itable": 5182,
      "Ġtot": 5183,
      "Ġgifts": 5184,
      "icy": 5185,
      "Ġstain": 5186,
      "Ġstock": 5187,
      "Ġshook": 5188,
      "augh": 5189,
      "Ġmoons": 5190,
      "Ġscrap": 5191,
      "Ġoverhead": 5192,
      "deep": 5193,
      "Ġguy": 5194,
      "Ġflowing": 5195,
      "break": 5196,
      "Ġcelebr": 5197,
      "Ġpolit": 5198,
      "Ġhangs": 5199,
      "Ġlilies": 5200,
      "Ġviolet": 5201,
      "uddenly": 5202,
      "gent": 5203,
      "ii": 5204,
      "ouch": 5205,
      "Ġles": 5206,
      "Ġpian": 5207,
      "Ġgain": 5208,
      "Ġshrie": 5209,
      "ĠSee": 5210,
      "Ġchin": 5211,
      "Ġworm": 5212,
      "Ġupward": 5213,
      "open": 5214,
      "Ġbrid": 5215,
      "Ġuncle": 5216,
      "Ġcurve": 5217,
      "Ġapples": 5218,
      "Ġpulling": 5219,
      "Ġrelief": 5220,
      "world": 5221,
      "Everything": 5222,
      "____": 5223,
      "Ġordinary": 5224,
      "Little": 5225,
      "lin": 5226,
      "lers": 5227,
      "liness": 5228,
      "pent": 5229,
      "path": 5230,
      "ĠĊĠĠĠĠĠĠ": 5231,
      "Ġbat": 5232,
      "Ġfought": 5233,
      "Ġcong": 5234,
      "oning": 5235,
      "Ġeld": 5236,
      "ett": 5237,
      "Ġugly": 5238,
      "Ġrelease": 5239,
      "ential": 5240,
      "Ġshift": 5241,
      "Ġspit": 5242,
      "ĠHave": 5243,
      "Ġages": 5244,
      "Ġweren": 5245,
      "ĠEast": 5246,
      "Ġsunshine": 5247,
      "Ġfinding": 5248,
      "upon": 5249,
      "Ġlistened": 5250,
      "Ġreturns": 5251,
      "Ġinsist": 5252,
      "Ġanswers": 5253,
      "Ġinnocent": 5254,
      "iqu": 5255,
      "mar": 5256,
      "por": 5257,
      "tic": 5258,
      "hest": 5259,
      "Ġsan": 5260,
      "Ġdre": 5261,
      "Ġri": 5262,
      "Ġshakes": 5263,
      "olute": 5264,
      "Ġgrim": 5265,
      "ĠHim": 5266,
      "Ġarc": 5267,
      "Ġswept": 5268,
      "Ġbuzz": 5269,
      "Ġcommand": 5270,
      "Ġsyll": 5271,
      "Ġwaist": 5272,
      "Ġdisappeared": 5273,
      "Black": 5274,
      "Ġstroke": 5275,
      "Ġmovie": 5276,
      "might": 5277,
      "ras": 5278,
      "Ġì": 5279,
      "Ġtit": 5280,
      "Ġbom": 5281,
      "Ġhol": 5282,
      "orus": 5283,
      "alous": 5284,
      "ifice": 5285,
      "Ġlosing": 5286,
      "osite": 5287,
      "Ġgravity": 5288,
      "angs": 5289,
      "Ġdispl": 5290,
      "ĠThrough": 5291,
      "Ġsmaller": 5292,
      "Ġmetaph": 5293,
      "Ġdusty": 5294,
      "Ġactually": 5295,
      "ĠBrit": 5296,
      "Ġwolf": 5297,
      "Ġnurse": 5298,
      "Ġaltar": 5299,
      "Sc": 5300,
      "Sweet": 5301,
      "bage": 5302,
      "ws": 5303,
      "ĠĊĠĠĠĠĠĠĠĠĠĠĠĠĠĠĠĠĠĠĠĠĠĠĠĠĠĠĠĠĠĠĠĠĠĠĠĠĠĠĠĠĠĠĠĠĠĠĠĠ": 5304,
      "Ġtour": 5305,
      "Ġax": 5306,
      "Ġcult": 5307,
      "Ġdar": 5308,
      "Ġpall": 5309,
      "Ġrapt": 5310,
      "Ġliber": 5311,
      "Ġresem": 5312,
      "Ġlog": 5313,
      "rive": 5314,
      "Ġjar": 5315,
      "outher": 5316,
      "Ġsuck": 5317,
      "arest": 5318,
      "ĠGl": 5319,
      "Ġswarm": 5320,
      "Ġslee": 5321,
      "inese": 5322,
      "Ġrainbow": 5323,
      "Ġburnt": 5324,
      "Ġreturning": 5325,
      "Someone": 5326,
      "Should": 5327,
      "Ġforests": 5328,
      "Ġchanges": 5329,
      "Ġequal": 5330,
      "Ġrepeat": 5331,
      "Ġexperience": 5332,
      "Ġelectric": 5333,
      "Ġconscious": 5334,
      "Ġboughs": 5335,
      "Ġechoes": 5336,
      "Dear": 5337,
      "half": 5338,
      "iel": 5339,
      "Ġber": 5340,
      "alled": 5341,
      "Ġdeg": 5342,
      "ager": 5343,
      "aging": 5344,
      "Ġtruly": 5345,
      "Ġsomebody": 5346,
      "Ġpassage": 5347,
      "Ġcreature": 5348,
      "Ġobsc": 5349,
      "Ġspinning": 5350,
      "Ġnecessary": 5351,
      "20": 5352,
      "Say": 5353,
      "Sil": 5354,
      "cious": 5355,
      "nal": 5356,
      "ris": 5357,
      "war": 5358,
      "yle": 5359,
      "Ġtone": 5360,
      "Ġbid": 5361,
      "Ġfame": 5362,
      "ĠII": 5363,
      "uns": 5364,
      "Ġchains": 5365,
      "Ġalarm": 5366,
      "athing": 5367,
      "White": 5368,
      "Ġsweep": 5369,
      "Ġvoid": 5370,
      "Ġcurious": 5371,
      "Ġphant": 5372,
      "Ġlifts": 5373,
      "Ġripe": 5374,
      "Ã¨d": 5375,
      "Ġsource": 5376,
      "Ġmerely": 5377,
      "ĠWorld": 5378,
      "vas": 5379,
      "Ġmant": 5380,
      "Ġdish": 5381,
      "Ġhawk": 5382,
      "Ġbears": 5383,
      "Ġweap": 5384,
      "ĠAg": 5385,
      "Ġalley": 5386,
      "ĠHar": 5387,
      "Ġplot": 5388,
      "ĠCity": 5389,
      "ously": 5390,
      "Ġwatches": 5391,
      "ĠĠĠĠĠĠĠĠĠĠĠĠĠĠĠĠĠĠĠĠĠĠĠĠĠĠĠĠĠĠĠĠĠĠĠĠĠĠĠĠĠĠĠĠĠĠĠĠ": 5392,
      "Ġvibr": 5393,
      "Ġcharac": 5394,
      "Ġexistence": 5395,
      "Ġdrowned": 5396,
      "colored": 5397,
      "Ġspoken": 5398,
      "Ġvelvet": 5399,
      "Between": 5400,
      "non": 5401,
      "Ġtax": 5402,
      "Ġwool": 5403,
      "rene": 5404,
      "Ġmild": 5405,
      "Ġmention": 5406,
      "itched": 5407,
      "lla": 5408,
      "lyn": 5409,
      "Ġanch": 5410,
      "Ġplaced": 5411,
      "ĠLady": 5412,
      "Ġwrink": 5413,
      "ugged": 5414,
      "Ġprey": 5415,
      "Ġsumm": 5416,
      "Ġtouching": 5417,
      "Ġsetting": 5418,
      "Ġimagination": 5419,
      "Ġbabies": 5420,
      "Ġmissed": 5421,
      "ĠSea": 5422,
      "Ġtowers": 5423,
      "Ġsighs": 5424,
      "Ġoccasion": 5425,
      "turned": 5426,
      "ifornia": 5427,
      "Bre": 5428,
      "Far": 5429,
      "cto": 5430,
      "uzz": 5431,
      "waiting": 5432,
      "Â¿": 5433,
      "Ñı": 5434,
      "ĠĊĠĠĠĠĠĠĠĠĠ": 5435,
      "Ġâģł": 5436,
      "Ġmast": 5437,
      "atin": 5438,
      "Ġdun": 5439,
      "Ġgarm": 5440,
      "sequ": 5441,
      "Ġforced": 5442,
      "ĠAme": 5443,
      "Ġchairs": 5444,
      "empl": 5445,
      "Ġtrash": 5446,
      "Ġjud": 5447,
      "igo": 5448,
      "ĠLittle": 5449,
      "ĠTV": 5450,
      "Ġcrows": 5451,
      "Ġskill": 5452,
      "blood": 5453,
      "Ġcurled": 5454,
      "Ġremembering": 5455,
      "Ġcompan": 5456,
      "Ġcontinue": 5457,
      "Death": 5458,
      "Ġbathroom": 5459,
      "Ġcurtains": 5460,
      "Ġskelet": 5461,
      "Ġstolen": 5462,
      "El": 5463,
      "Take": 5464,
      "bone": 5465,
      "upp": 5466,
      "Ġtub": 5467,
      "Ġtyr": 5468,
      "Ġmort": 5469,
      "Ġfountain": 5470,
      "Ġcord": 5471,
      "Ġha": 5472,
      "Ġstem": 5473,
      "iday": 5474,
      "ilos": 5475,
      "Ġblowing": 5476,
      "Ġvest": 5477,
      "ĠTHE": 5478,
      "beat": 5479,
      "Ġslipped": 5480,
      "ĊĠĠĠĠĠĠĠĠĠĠĠĠĠĠĠĠĠĠĠĠĠĠĠĠĠĠĠĠĠĠĠĠĠĠĠĠĠ": 5481,
      "Ġotherwise": 5482,
      "pend": 5483,
      "Ġoffic": 5484,
      "Ġbetray": 5485,
      "Ġconsider": 5486,
      "Ġfolds": 5487,
      "Ġdepth": 5488,
      "Ġswimming": 5489,
      "Ġenemy": 5490,
      "broken": 5491,
      "outhern": 5492,
      "AN": 5493,
      "Old": 5494,
      "gers": 5495,
      "grow": 5496,
      "uk": 5497,
      "Ġhush": 5498,
      "ena": 5499,
      "Ġpave": 5500,
      "ander": 5501,
      "Ġlibr": 5502,
      "Ġshared": 5503,
      "Ġcomo": 5504,
      "Ġkeen": 5505,
      "Ġjustice": 5506,
      "Ġending": 5507,
      "ivil": 5508,
      "Ġsurre": 5509,
      "Ġphr": 5510,
      "Ġbelief": 5511,
      "Ġquietly": 5512,
      "Ġpicked": 5513,
      "................": 5514,
      "Ġlucky": 5515,
      "Ġstruggle": 5516,
      "Ġmuseum": 5517,
      "lings": 5518,
      "Ġing": 5519,
      "erves": 5520,
      "Ġcust": 5521,
      "Ġhips": 5522,
      "urope": 5523,
      "amped": 5524,
      "chant": 5525,
      "ĠSat": 5526,
      "ĠSch": 5527,
      "Ġchosen": 5528,
      "Ġvent": 5529,
      "Ġvig": 5530,
      "Ġflung": 5531,
      "ula": 5532,
      "Ġbrood": 5533,
      "ĠPro": 5534,
      "Ġprair": 5535,
      "Ġimpl": 5536,
      "pecially": 5537,
      "pling": 5538,
      "ĠJe": 5539,
      "should": 5540,
      "flowers": 5541,
      "Ġcorners": 5542,
      "ollen": 5543,
      "Ġparking": 5544,
      "Ġinfant": 5545,
      "Ġprecious": 5546,
      "Ġsurprise": 5547,
      "maybe": 5548,
      "ĠQue": 5549,
      "cles": 5550,
      "cons": 5551,
      "friend": 5552,
      "rit": 5553,
      "take": 5554,
      "ìĿ": 5555,
      "Ġwars": 5556,
      "enes": 5557,
      "Ġtoes": 5558,
      "Ġstole": 5559,
      "Ġratt": 5560,
      "Ġrode": 5561,
      "Ġlion": 5562,
      "Ġlily": 5563,
      "Ġrev": 5564,
      "Ġshone": 5565,
      "Ġvow": 5566,
      "oping": 5567,
      "ĠLight": 5568,
      "Ġarr": 5569,
      "being": 5570,
      "Ġslick": 5571,
      "ishment": 5572,
      "pended": 5573,
      "Ġwomb": 5574,
      "Ġmornings": 5575,
      "dead": 5576,
      "anny": 5577,
      "Ġverse": 5578,
      "Ġwreck": 5579,
      "Among": 5580,
      "Ġcousin": 5581,
      "Mother": 5582,
      "cond": 5583,
      "ec": 5584,
      "sn": 5585,
      "uing": 5586,
      "uation": 5587,
      "Ġsne": 5588,
      "Ġsands": 5589,
      "Ġwoo": 5590,
      "Ġbou": 5591,
      "Ġbored": 5592,
      "Ġfern": 5593,
      "Ġfaded": 5594,
      "Ġcoo": 5595,
      "Ġcos": 5596,
      "Ġlan": 5597,
      "Ġdise": 5598,
      "Ġhom": 5599,
      "Ġinstr": 5600,
      "Ġshield": 5601,
      "Ġshattered": 5602,
      "cel": 5603,
      "Ġfrail": 5604,
      "Ġants": 5605,
      "Ġcha": 5606,
      "Ġtrunk": 5607,
      "Ġshepher": 5608,
      "elled": 5609,
      "ĠNever": 5610,
      "Ġsmiled": 5611,
      "ĊĠĠĠĠĠĠĠĠĠĠĠĠĠĠĠĠĠĠĠĠĠĠĠĠĠĠĠĠĠĠĠĠĠĠĠĠĠĠĠ": 5612,
      "ĠRih": 5613,
      "Soon": 5614,
      "Ġmuscle": 5615,
      "Ġmistake": 5616,
      "Ġthousands": 5617,
      "Ġpatience": 5618,
      "Ġfoolish": 5619,
      "Ġmessage": 5620,
      "Ġprivate": 5621,
      "Against": 5622,
      "immering": 5623,
      "Ġancestors": 5624,
      "anslated": 5625,
      "Ġdesperate": 5626,
      "?)": 5627,
      "erved": 5628,
      "Ġlace": 5629,
      "Ġheed": 5630,
      "Ġdeaf": 5631,
      "apse": 5632,
      "Ġsphere": 5633,
      "istory": 5634,
      "oped": 5635,
      "Ġgrad": 5636,
      "awing": 5637,
      "ational": 5638,
      "ĊĊĊĠĠĠĠ": 5639,
      "ĠChinese": 5640,
      "Ġmiracle": 5641,
      "Ġfilling": 5642,
      "Ġshelter": 5643,
      "Ġfifty": 5644,
      "Ġseparate": 5645,
      "Ġsuccess": 5646,
      "Ġenergy": 5647,
      "Time": 5648,
      "giving": 5649,
      "ker": 5650,
      "parent": 5651,
      "wa": 5652,
      "Ġtap": 5653,
      "inth": 5654,
      "Ġsaf": 5655,
      "Ġmix": 5656,
      "Ġloos": 5657,
      "ona": 5658,
      "Ġgau": 5659,
      "Ġrh": 5660,
      "Ġrains": 5661,
      "Ġwears": 5662,
      "Ġmeal": 5663,
      "thought": 5664,
      "Ġshoe": 5665,
      "Ġdece": 5666,
      "ĠSil": 5667,
      "anta": 5668,
      "Three": 5669,
      "aby": 5670,
      "ĠMer": 5671,
      "Ġclust": 5672,
      "Ġjump": 5673,
      "Ġard": 5674,
      "Ġdaylight": 5675,
      "Ġcontrol": 5676,
      "Ġsteal": 5677,
      "Ġcompass": 5678,
      "Ġwhispered": 5679,
      "Ġsystem": 5680,
      "Ġleads": 5681,
      "Ġpromised": 5682,
      "Ġsprings": 5683,
      "Ġobjects": 5684,
      "Ġfortune": 5685,
      "Ġowl": 5686,
      "five": 5687,
      "mouth": 5688,
      "rot": 5689,
      "ua": 5690,
      "Ġtie": 5691,
      "ref": 5692,
      "Ġthres": 5693,
      "vered": 5694,
      "Ġstove": 5695,
      "ura": 5696,
      "Ġshit": 5697,
      "Ġsem": 5698,
      "together": 5699,
      "Ġload": 5700,
      "ateful": 5701,
      "autiful": 5702,
      "raise": 5703,
      "Ġsquir": 5704,
      "Ġcrawl": 5705,
      "Ġthighs": 5706,
      "ĠCalifornia": 5707,
      "Ġseveral": 5708,
      "Does": 5709,
      "Hold": 5710,
      "ka": 5711,
      "Î±": 5712,
      "Ġfarther": 5713,
      "Ġcit": 5714,
      "Ġlem": 5715,
      "Ġlull": 5716,
      "Ġdue": 5717,
      "Ġharp": 5718,
      "Ġped": 5719,
      "acc": 5720,
      "Ġstroll": 5721,
      "Ġstupid": 5722,
      "Ġbeats": 5723,
      "Ġrejo": 5724,
      "three": 5725,
      "uments": 5726,
      "elf": 5727,
      "Ġlevel": 5728,
      "Ġbron": 5729,
      "Ġsugg": 5730,
      "Ġfoe": 5731,
      "Ġcolored": 5732,
      "ĠâĢ¦": 5733,
      "Ġparadise": 5734,
      "Ġserve": 5735,
      "Ġrolls": 5736,
      "Ġwounded": 5737,
      "Ġdespite": 5738,
      "Ġfragile": 5739,
      "Ġdamn": 5740,
      "Ġspecial": 5741,
      "Ġodd": 5742,
      "Ġdescribe": 5743,
      "Ġextra": 5744,
      "Ġperfume": 5745,
      "Ġeyelids": 5746,
      "Ġvirtue": 5747,
      "AT": 5748,
      "Across": 5749,
      "Back": 5750,
      "aith": 5751,
      "first": 5752,
      "pa": 5753,
      "said": 5754,
      "vil": 5755,
      "Ġming": 5756,
      "Ġcows": 5757,
      "Ġlamb": 5758,
      "Ġhip": 5759,
      "enc": 5760,
      "Ġstern": 5761,
      "irs": 5762,
      "Ġrele": 5763,
      "lying": 5764,
      "unning": 5765,
      "umping": 5766,
      "ulpt": 5767,
      "Ġbrim": 5768,
      "awed": 5769,
      "Ġcrazy": 5770,
      "Ġgreed": 5771,
      "Ġslender": 5772,
      "Ġboats": 5773,
      "Ġmarriage": 5774,
      "ĠBeauty": 5775,
      "Ġimages": 5776,
      "Ġrefuse": 5777,
      "Ġfault": 5778,
      "Ġmelt": 5779,
      "Ġthreads": 5780,
      "iveness": 5781,
      "Ġsearching": 5782,
      "Beneath": 5783,
      "Lo": 5784,
      "Mar": 5785,
      "da": 5786,
      "eous": 5787,
      "vious": 5788,
      "Ġoper": 5789,
      "Ġfain": 5790,
      "ano": 5791,
      "Ġpace": 5792,
      "otic": 5793,
      "irit": 5794,
      "ameless": 5795,
      "Ġweave": 5796,
      "chief": 5797,
      "cell": 5798,
      "Ġhers": 5799,
      "ĠWell": 5800,
      "istic": 5801,
      "Ġgrab": 5802,
      "Ġune": 5803,
      "ĠBel": 5804,
      "ĠCom": 5805,
      "Ġseeking": 5806,
      "igned": 5807,
      "scr": 5808,
      "Ġcarefully": 5809,
      "Ġclosing": 5810,
      "Ġhotel": 5811,
      "Ġseconds": 5812,
      "Ġcigarette": 5813,
      "Ġexample": 5814,
      "ĠRihani": 5815,
      "Good": 5816,
      "ga": 5817,
      "gone": 5818,
      "áº": 5819,
      "Ġsap": 5820,
      "Ġbann": 5821,
      "Ġpile": 5822,
      "Ġnarr": 5823,
      "Ġstained": 5824,
      "Ġshy": 5825,
      "Ġshowed": 5826,
      "change": 5827,
      "Ġfruits": 5828,
      "ĠWould": 5829,
      "ested": 5830,
      "Ġunre": 5831,
      "ĠDear": 5832,
      "beyond": 5833,
      "Ġstruct": 5834,
      "Ġsettle": 5835,
      "Ġwarri": 5836,
      "Ġmatters": 5837,
      "Ġdressed": 5838,
      "Ġforgetting": 5839,
      "holding": 5840,
      "ĠAtl": 5841,
      "Ġchanging": 5842,
      "Ġmeadows": 5843,
      "Ġscreaming": 5844,
      "Ġsenses": 5845,
      "called": 5846,
      "Ġsymbol": 5847,
      "Ġlilac": 5848,
      "uminous": 5849,
      "Ġpipe": 5850,
      "Ġdangerous": 5851,
      "ĠAmeen": 5852,
      "Remember": 5853,
      "ox": 5854,
      "rels": 5855,
      "oted": 5856,
      "step": 5857,
      "stance": 5858,
      "Ġdeeds": 5859,
      "Ġblink": 5860,
      "Ġflows": 5861,
      "Ġknot": 5862,
      "ĠLong": 5863,
      "urely": 5864,
      "Ġlightly": 5865,
      "Ġtwin": 5866,
      "lessness": 5867,
      "Ġcarries": 5868,
      "Ġbury": 5869,
      "Ġmirrors": 5870,
      "Ġscrub": 5871,
      "Ġclimbed": 5872,
      "Ġcamera": 5873,
      "Ġhabit": 5874,
      "IV": 5875,
      "Light": 5876,
      "ege": 5877,
      "face": 5878,
      "gia": 5879,
      "ĠĊĠĠĠĠĠĠĠĠĠĠĠĠ": 5880,
      "inet": 5881,
      "Ġsaint": 5882,
      "Ġinfl": 5883,
      "Ġrig": 5884,
      "ceed": 5885,
      "unks": 5886,
      "ĠWar": 5887,
      "Ġlikely": 5888,
      "Ġtrade": 5889,
      "ĠMem": 5890,
      "ĠFirst": 5891,
      "Ġarrow": 5892,
      "Ġcracks": 5893,
      "Ġcarved": 5894,
      "Ġcareful": 5895,
      "standing": 5896,
      "Ġmarks": 5897,
      "Ġshores": 5898,
      "ĠArt": 5899,
      "Ġexpress": 5900,
      "Ġincre": 5901,
      "Ġringing": 5902,
      "ormous": 5903,
      "Ġopposite": 5904,
      "Ġbalance": 5905,
      "Ġfiery": 5906,
      ".'": 5907,
      "ij": 5908,
      "Ðº": 5909,
      "Ġbust": 5910,
      "isy": 5911,
      "ancho": 5912,
      "ural": 5913,
      "keep": 5914,
      "Ġwhale": 5915,
      "Ġreck": 5916,
      "Ġdeed": 5917,
      "Ġspoon": 5918,
      "Ġchap": 5919,
      "quis": 5920,
      "ouring": 5921,
      "Ġscor": 5922,
      "Ġscared": 5923,
      "Ġexh": 5924,
      "Ġswan": 5925,
      "bright": 5926,
      "Ġrespect": 5927,
      "ĠUpon": 5928,
      "eyes": 5929,
      "Ġbarren": 5930,
      "Ġcutting": 5931,
      "Ġrealize": 5932,
      "Ġtemper": 5933,
      "remember": 5934,
      "Ġradiant": 5935,
      "Ġgleaming": 5936,
      "Ġcells": 5937,
      "Ġmourning": 5938,
      "Ġdescend": 5939,
      "Ġpattern": 5940,
      "ifferent": 5941,
      "Ġduty": 5942,
      "Ġpiano": 5943,
      "Gl": 5944,
      "Man": 5945,
      "del": 5946,
      "him": 5947,
      "hard": 5948,
      "Ġtask": 5949,
      "rer": 5950,
      "Ġmol": 5951,
      "Ġhue": 5952,
      "Ġhiding": 5953,
      "Ġpas": 5954,
      "Ġinsp": 5955,
      "Ġnations": 5956,
      "left": 5957,
      "ods": 5958,
      "ĠMad": 5959,
      "Ġalien": 5960,
      "Ġbrand": 5961,
      "Ġgrape": 5962,
      "Ġjaw": 5963,
      "Ġplains": 5964,
      "urning": 5965,
      "Ġconnect": 5966,
      "ĠTw": 5967,
      "Ġprice": 5968,
      "Ġsunny": 5969,
      "Ġdesires": 5970,
      "Ġfloats": 5971,
      "ĊĠĠĠĠĠĠĠĠĠĠĠĠĠĠĠĠĠĠĠĠĠĠĠĠĠĠĠĠĠĠĠĠĠĠĠĠĠĠĠĠĠĠĠĠ": 5972,
      "Ġfury": 5973,
      "Ġaccord": 5974,
      "Ġdanced": 5975,
      "000": 5976,
      "Ġafar": 5977,
      "Ġspecies": 5978,
      "Ġtype": 5979,
      "Ġgesture": 5980,
      "Ġcradle": 5981,
      "Ġtrumpet": 5982,
      "iation": 5983,
      "pit": 5984,
      "rain": 5985,
      "since": 5986,
      "Ġsinking": 5987,
      "Ġmail": 5988,
      "Ġintr": 5989,
      "Ġsticks": 5990,
      "Ġuseless": 5991,
      "Ġshifting": 5992,
      "rier": 5993,
      "aba": 5994,
      "Ġtra": 5995,
      "ĠMrs": 5996,
      "Ġgrin": 5997,
      "ounded": 5998,
      "ĠGer": 5999,
      "Ġpron": 6000,
      "Ġstrand": 6001,
      "Ġtwig": 6002,
      "Ġcoal": 6003,
      "Ġwrit": 6004,
      "prints": 6005,
      "Ġwilderness": 6006,
      "Ġglasses": 6007,
      "Ġgrowth": 6008,
      "Ġtrip": 6009,
      "Ġmisery": 6010,
      "Ġcharge": 6011,
      "Ġboxes": 6012,
      "Ġcandles": 6013,
      "ĠEngland": 6014,
      "Ġidle": 6015,
      "//": 6016,
      "days": 6017,
      "vation": 6018,
      "Ñĩ": 6019,
      "Ġwished": 6020,
      "Ġcake": 6021,
      "Ġdin": 6022,
      "Ġdip": 6023,
      "Ġpoured": 6024,
      "Ġinher": 6025,
      "agn": 6026,
      "Ġspare": 6027,
      "Ġspaces": 6028,
      "Ġattend": 6029,
      "Ġchamber": 6030,
      "Ġcane": 6031,
      "ĠTwo": 6032,
      "Ġsculpt": 6033,
      "ization": 6034,
      "ĠThose": 6035,
      "ucks": 6036,
      "Ġemotion": 6037,
      "Ġfeelings": 6038,
      "Ġkeeping": 6039,
      "ĠVen": 6040,
      "uthor": 6041,
      "Ġcuts": 6042,
      "Ġfinished": 6043,
      "Ġpara": 6044,
      "Ġfootsteps": 6045,
      "Ġlifting": 6046,
      "Ġeleg": 6047,
      "Ġattempt": 6048,
      "Ġmadness": 6049,
      "osphere": 6050,
      "Ġleaning": 6051,
      "Ġrhyme": 6052,
      "Ġeagle": 6053,
      "Ġeffect": 6054,
      "Ġcorpse": 6055,
      "Must": 6056,
      "Make": 6057,
      "ault": 6058,
      "came": 6059,
      "ples": 6060,
      "song": 6061,
      "sweet": 6062,
      "hem": 6063,
      "ĠĠĠĠĠĠĠĠĠĠĠĠĠĠĠĠĠĠĠ": 6064,
      "Ġseal": 6065,
      "usic": 6066,
      "Ġflour": 6067,
      "ĠMon": 6068,
      "Ġalthough": 6069,
      "Ġdrifting": 6070,
      "bler": 6071,
      "Ġswear": 6072,
      "ĠVirgin": 6073,
      "Ġdriven": 6074,
      "Ġaware": 6075,
      "Ġpulls": 6076,
      "Ġsatisf": 6077,
      "Ġgathering": 6078,
      "Ġuncertain": 6079,
      "Ġwreath": 6080,
      "Ġobliv": 6081,
      "town": 6082,
      "tree": 6083,
      "Ġsore": 6084,
      "Ġben": 6085,
      "atory": 6086,
      "onic": 6087,
      "Ġpant": 6088,
      "âĢĶâĢĶ": 6089,
      "Ġblaze": 6090,
      "ĠSte": 6091,
      "ĠSweet": 6092,
      "Ġshelf": 6093,
      "ively": 6094,
      "Ġwinding": 6095,
      "formed": 6096,
      "ountains": 6097,
      "Ġappl": 6098,
      "ĊĠĠĠĠĠĠĠĠĠĠĠĠĠĠĠĠĠĠĠĠĠĠĠĠĠĠĠĠĠĠĠĠĠĠĠĠĠĠĠĠĠĠĠĠĠĠĠĠĠĠĠĠĠĠĠĠĠĠĠ": 6099,
      "Ġcrew": 6100,
      "Ġemptiness": 6101,
      "Ġdecided": 6102,
      "Ġmarked": 6103,
      "Ġlarger": 6104,
      "Ġkingdom": 6105,
      "Ġbuds": 6106,
      "Ġwondered": 6107,
      "Ġpearl": 6108,
      "Ġhammer": 6109,
      "Ġfemale": 6110,
      "Ġecstasy": 6111,
      "Com": 6112,
      "faced": 6113,
      "lines": 6114,
      "near": 6115,
      "put": 6116,
      "van": 6117,
      "Ø§": 6118,
      "Ġlur": 6119,
      "Ġlink": 6120,
      "Ġhail": 6121,
      "Ġhides": 6122,
      "arc": 6123,
      "arity": 6124,
      "enough": 6125,
      "Ġrat": 6126,
      "Ġforb": 6127,
      "Ġshroud": 6128,
      "Ġvines": 6129,
      "quet": 6130,
      "Ġunw": 6131,
      "resent": 6132,
      "Ġproof": 6133,
      "Ġunderneath": 6134,
      "Ġproject": 6135,
      "Ġhumble": 6136,
      "Ġpregn": 6137,
      "Ġstead": 6138,
      "Ġcreep": 6139,
      "uffled": 6140,
      "Ġrepose": 6141,
      "Ġgravel": 6142,
      "Ġgrove": 6143,
      "Ġremembers": 6144,
      "Ġfolk": 6145,
      "Ġtossed": 6146,
      "ĠAngel": 6147,
      "ctober": 6148,
      "Dark": 6149,
      "Fr": 6150,
      "Pass": 6151,
      "cu": 6152,
      "gins": 6153,
      "Ġwrought": 6154,
      "Ġmarsh": 6155,
      "Ġdug": 6156,
      "Ġhated": 6157,
      "ency": 6158,
      "aned": 6159,
      "asons": 6160,
      "Ġnurs": 6161,
      "Ġeff": 6162,
      "Ġrit": 6163,
      "Ġseam": 6164,
      "tops": 6165,
      "Ġkings": 6166,
      "agging": 6167,
      "Ġspite": 6168,
      "Ġflock": 6169,
      "Ġunlike": 6170,
      "ĠTell": 6171,
      "ĠGold": 6172,
      "Ġslide": 6173,
      "ĠEurope": 6174,
      "Ġsuns": 6175,
      "Ġthanks": 6176,
      "Ġartist": 6177,
      "Ġfollows": 6178,
      "Ġfollowing": 6179,
      "Ġeaten": 6180,
      "arrass": 6181,
      "Ġvanished": 6182,
      "Ġvarious": 6183,
      "Ġservice": 6184,
      "Ġfabric": 6185,
      ",)": 6186,
      "Night": 6187,
      "New": 6188,
      "OR": 6189,
      "sit": 6190,
      "Ġwaving": 6191,
      "Ġok": 6192,
      "ĠmÃ¡s": 6193,
      "Ġheels": 6194,
      "Ġbeak": 6195,
      "ooping": 6196,
      "hers": 6197,
      "rog": 6198,
      "Ġatm": 6199,
      "akers": 6200,
      "uls": 6201,
      "Ġknuck": 6202,
      "Ġbrass": 6203,
      "angel": 6204,
      "Ġmock": 6205,
      "thern": 6206,
      "Ġenormous": 6207,
      "Ġcob": 6208,
      "Ġearn": 6209,
      "Ġwrites": 6210,
      "Ġtreasure": 6211,
      "fulness": 6212,
      "Ġperpet": 6213,
      "Beyond": 6214,
      "Ġfarmer": 6215,
      "Ġguilt": 6216,
      "Ġdriver": 6217,
      "uced": 6218,
      "Ġbigger": 6219,
      "Ġintell": 6220,
      "Ġcares": 6221,
      "Ġblessing": 6222,
      "Ġfragrant": 6223,
      "eptember": 6224,
      "Ġcopper": 6225,
      "Ġadmit": 6226,
      "Ġconstell": 6227,
      "Ġwhispering": 6228,
      "ĠParis": 6229,
      "Ġsavage": 6230,
      "Ġenvy": 6231,
      "Ġ201": 6232,
      "Ġ]": 6233,
      "Ġtal": 6234,
      "Ġtig": 6235,
      "Ġsust": 6236,
      "Ġsau": 6237,
      "itches": 6238,
      "Ġnerv": 6239,
      "Ġric": 6240,
      "Ġrap": 6241,
      "Ġrange": 6242,
      "Ġshaped": 6243,
      "Ġsequ": 6244,
      "Ġblond": 6245,
      "ĠSuch": 6246,
      "Ġallow": 6247,
      "Ġdoom": 6248,
      "Ġflags": 6249,
      "Ġworms": 6250,
      "ĠMex": 6251,
      "Ġunb": 6252,
      "Ġclam": 6253,
      "Ġcans": 6254,
      "ige": 6255,
      "Ġbutton": 6256,
      "ĠDav": 6257,
      "Ġpeb": 6258,
      "uffed": 6259,
      "Ġsubtle": 6260,
      "Ġcrowded": 6261,
      "arrows": 6262,
      "Ġpopp": 6263,
      "ST": 6264,
      "rait": 6265,
      "say": 6266,
      "wild": 6267,
      "Ġaz": 6268,
      "Ġsets": 6269,
      "Ġmile": 6270,
      "Ġpants": 6271,
      "vey": 6272,
      "Ġbeams": 6273,
      "Ġrude": 6274,
      "vert": 6275,
      "ĠĠĠĠĠĠĠĠĠĠĠĠĠĠĠĠĠ": 6276,
      "ainted": 6277,
      "Ġshaking": 6278,
      "Ġloft": 6279,
      "riving": 6280,
      "angling": 6281,
      "ĠLa": 6282,
      "ĠLuc": 6283,
      "ivered": 6284,
      "ĠDel": 6285,
      "Ġcrooked": 6286,
      "Ġslips": 6287,
      "Ġstray": 6288,
      "ĠRome": 6289,
      "Ġswollen": 6290,
      "Ġappeared": 6291,
      "Ġmarvel": 6292,
      "Ã¡n": 6293,
      "Ġlimb": 6294,
      "Ġbottles": 6295,
      "liest": 6296,
      "ĠFrance": 6297,
      "Ġcomplex": 6298,
      "Ġglittering": 6299,
      "Ġbronze": 6300,
      "Sl": 6301,
      "ef": 6302,
      "four": 6303,
      "pite": 6304,
      "ram": 6305,
      "uf": 6306,
      "Ġbomb": 6307,
      "Ġmil": 6308,
      "Ġlux": 6309,
      "cember": 6310,
      "Ġasp": 6311,
      "antly": 6312,
      "Ġvir": 6313,
      "esty": 6314,
      "olic": 6315,
      "ĠTe": 6316,
      "Ġcrust": 6317,
      "Ġgovern": 6318,
      "Ġslaves": 6319,
      "ĠEd": 6320,
      "izes": 6321,
      "Ġsurge": 6322,
      "Ġcreation": 6323,
      "Ġhorror": 6324,
      "Ġanguish": 6325,
      "Any": 6326,
      "Ġbreakfast": 6327,
      "except": 6328,
      "ĊĠĠĠĠĠĠĠĠĠĠĠĠĠĠĠĠĠĠĠĠĠĠĠĠĠĠĠĠĠĠĠĠĠĠĠĠĠĠĠĠĠĠĠĠĠ": 6329,
      "Ġsquee": 6330,
      "ĠBrook": 6331,
      "Ġmelody": 6332,
      "Ġmeeting": 6333,
      "Ġdrawing": 6334,
      "Ġwishes": 6335,
      "Ġtwisted": 6336,
      "Ġorchard": 6337,
      "Ġlamps": 6338,
      "Ġgranite": 6339,
      "Ġribs": 6340,
      "La": 6341,
      "Made": 6342,
      "Wr": 6343,
      "iac": 6344,
      "ta": 6345,
      "ĠĊĠĠĠĠĠĠĠĠĠĠĠĠĠ": 6346,
      "Ġwarn": 6347,
      "Ġcaf": 6348,
      "itar": 6349,
      "Ġlakes": 6350,
      "Ġpushed": 6351,
      "Ġoffered": 6352,
      "Ġnail": 6353,
      "thy": 6354,
      "arded": 6355,
      "ighed": 6356,
      "Ġpointed": 6357,
      "ĠToday": 6358,
      "Ġdraws": 6359,
      "people": 6360,
      "Ġanywhere": 6361,
      "shaped": 6362,
      "Ġgoodbye": 6363,
      "Ġsoup": 6364,
      "ubs": 6365,
      "Ġneedles": 6366,
      "Ġcreated": 6367,
      "ibly": 6368,
      "Ġreality": 6369,
      "pected": 6370,
      "Ġtempt": 6371,
      "Ġpersonal": 6372,
      "Ġbuildings": 6373,
      "Ġleading": 6374,
      "Ġunderstanding": 6375,
      "Ġruins": 6376,
      "Ġbirthday": 6377,
      "Ġtenderness": 6378,
      "Ġsmoking": 6379,
      "Ġbalcon": 6380,
      "Ġpowder": 6381,
      "Ġreceive": 6382,
      "Ġpractice": 6383,
      "Ġempire": 6384,
      "ancholy": 6385,
      "AR": 6386,
      "bul": 6387,
      "dist": 6388,
      "little": 6389,
      "pull": 6390,
      "such": 6391,
      "vi": 6392,
      "ville": 6393,
      "yer": 6394,
      "Ġtatt": 6395,
      "atives": 6396,
      "Ġcash": 6397,
      "Ġpatch": 6398,
      "irds": 6399,
      "Ġbeam": 6400,
      "Ġwhir": 6401,
      "chan": 6402,
      "thed": 6403,
      "Ġblocks": 6404,
      "ript": 6405,
      "eming": 6406,
      "emed": 6407,
      "Ġgrapes": 6408,
      "Ġusual": 6409,
      "ĠDad": 6410,
      "berries": 6411,
      "Ġoffering": 6412,
      "ĠJer": 6413,
      "Ġprogress": 6414,
      "Ġfriendship": 6415,
      "Ġ10": 6416,
      "Ġmidst": 6417,
      "Ġreflection": 6418,
      "Ġintent": 6419,
      "Ġclimbing": 6420,
      "Ġscarlet": 6421,
      "Ġsolitary": 6422,
      "Ġbasement": 6423,
      "mission": 6424,
      "Twas": 6425,
      "aus": 6426,
      "filled": 6427,
      "ners": 6428,
      "oint": 6429,
      "ãĤ": 6430,
      "Ġtan": 6431,
      "Ġwilt": 6432,
      "Ġought": 6433,
      "Ġmigr": 6434,
      "Ġcough": 6435,
      "Ġcats": 6436,
      "Ġcreek": 6437,
      "stop": 6438,
      "urt": 6439,
      "Ġislands": 6440,
      "Ġwhirl": 6441,
      "Ġformer": 6442,
      "ifying": 6443,
      "ĠSl": 6444,
      "Ġspill": 6445,
      "Ġsprou": 6446,
      "Ġvague": 6447,
      "Ġvirgin": 6448,
      "Ġabund": 6449,
      "ĠDoes": 6450,
      "Ġsunrise": 6451,
      "renched": 6452,
      "Ġendure": 6453,
      "Within": 6454,
      "Ġdecay": 6455,
      "anna": 6456,
      "Ġpeaceful": 6457,
      "Ġgeneral": 6458,
      "Ġsuppose": 6459,
      "Ġrule": 6460,
      "Ġswallowed": 6461,
      "Ġreveal": 6462,
      "Ġpools": 6463,
      "Ġcondition": 6464,
      "Ġjealous": 6465,
      "Ġwhistle": 6466,
      "Ġglobe": 6467,
      "Ġgrip": 6468,
      "Men": 6469,
      "Pr": 6470,
      "beside": 6471,
      "case": 6472,
      "fig": 6473,
      "hung": 6474,
      "ration": 6475,
      "upt": 6476,
      "ĠÑģ": 6477,
      "Ġapr": 6478,
      "ndry": 6479,
      "Ġbowed": 6480,
      "Ġcem": 6481,
      "Ġhaze": 6482,
      "oma": 6483,
      "Ġhence": 6484,
      "acco": 6485,
      "add": 6486,
      "icated": 6487,
      "Ġbending": 6488,
      "thr": 6489,
      "inder": 6490,
      "Ġlocks": 6491,
      "ability": 6492,
      "Ġupper": 6493,
      "cture": 6494,
      "Ġwillow": 6495,
      "Ġtherefore": 6496,
      "ĠLo": 6497,
      "ĠLou": 6498,
      "Ġscatter": 6499,
      "Ġarmy": 6500,
      "uded": 6501,
      "Ġtreat": 6502,
      "Ġbelt": 6503,
      "Ġshallow": 6504,
      "Ġfriendly": 6505,
      "Ġpasture": 6506,
      "Ġfloors": 6507,
      "Ġmemor": 6508,
      "headed": 6509,
      "ocr": 6510,
      "Ġtremble": 6511,
      "Ġfigures": 6512,
      "Ġtroubled": 6513,
      "Ġcoffin": 6514,
      "ĠGrand": 6515,
      "Ġpige": 6516,
      "Ġolive": 6517,
      "Ġversion": 6518,
      "Car": 6519,
      "va": 6520,
      "ĠÎ": 6521,
      "Ġtangled": 6522,
      "Ġauthor": 6523,
      "Ġwakes": 6524,
      "Ġwither": 6525,
      "Ġbits": 6526,
      "Ġlets": 6527,
      "Ġinn": 6528,
      "Ġinward": 6529,
      "Ġgust": 6530,
      "Ġray": 6531,
      "alling": 6532,
      "Ġshalt": 6533,
      "Ġblades": 6534,
      "ĠSal": 6535,
      "umble": 6536,
      "Ġflashing": 6537,
      "owned": 6538,
      "iece": 6539,
      "Ġswinging": 6540,
      "Ġguest": 6541,
      "grown": 6542,
      "Ġprayed": 6543,
      "Ġtalked": 6544,
      "Ġevidence": 6545,
      "Ġwondering": 6546,
      "Ġlimp": 6547,
      "Ġsilently": 6548,
      "Ġconfused": 6549,
      "Ġperfectly": 6550,
      "slow": 6551,
      "Ġideas": 6552,
      "Ġbutterfly": 6553,
      "Ġcups": 6554,
      "Ġcedar": 6555,
      "Ġatmosphere": 6556,
      ".,": 6557,
      "EN": 6558,
      "Sleep": 6559,
      "aver": 6560,
      "last": 6561,
      "sometimes": 6562,
      "uz": 6563,
      "Ġtil": 6564,
      "iture": 6565,
      "Ġll": 6566,
      "Ġlament": 6567,
      "Ġstays": 6568,
      "amps": 6569,
      "ammed": 6570,
      "Ġspun": 6571,
      "Ġneat": 6572,
      "ults": 6573,
      "ĠMoon": 6574,
      "Ġunm": 6575,
      "Ġcanvas": 6576,
      "Ġsubl": 6577,
      "ounding": 6578,
      "ĠOver": 6579,
      "Ġscience": 6580,
      "Ġexile": 6581,
      "Ġdrums": 6582,
      "ĊĠĠĠĠĠĠĠĠĠĠĠĠĠĠĠĠĠĠĠĠĠĠĠĠĠĠĠĠĠĠĠĠĠĠĠĠ": 6583,
      "Ġwrath": 6584,
      "Ġnewsp": 6585,
      "Ġcheese": 6586,
      "Behind": 6587,
      "Ġprefer": 6588,
      "Ġputs": 6589,
      "Ġstartled": 6590,
      "Ġrefuge": 6591,
      "Ġfaire": 6592,
      "Ġjoined": 6593,
      "Ġtowns": 6594,
      "words": 6595,
      "Along": 6596,
      "knowing": 6597,
      "Ġladder": 6598,
      "Ġmodern": 6599,
      "Ġabandon": 6600,
      "Ġslightly": 6601,
      "Ġcompletely": 6602,
      "Ġankles": 6603,
      "Ġpavement": 6604,
      "Ġlantern": 6605,
      "First": 6606,
      "OU": 6607,
      "Pro": 6608,
      "rey": 6609,
      "Ġluminous": 6610,
      "Ġdart": 6611,
      "Ġditch": 6612,
      "lled": 6613,
      "Ġpapers": 6614,
      "Ġni": 6615,
      "lex": 6616,
      "Ġheap": 6617,
      "etr": 6618,
      "uted": 6619,
      "Ġrom": 6620,
      "Ġweb": 6621,
      "tos": 6622,
      "umer": 6623,
      "ĠAvenue": 6624,
      "Ġdost": 6625,
      "Ġtrains": 6626,
      "ĠHall": 6627,
      "ipe": 6628,
      "ĠTill": 6629,
      "ĠDown": 6630,
      "Ġcomr": 6631,
      "Ġcrick": 6632,
      "orted": 6633,
      "bra": 6634,
      "Ġdeeply": 6635,
      "Ġstarry": 6636,
      "Ġwarning": 6637,
      "Ġthroats": 6638,
      "Ġcloset": 6639,
      "ĊĠĠĠĠĠĠĠĠĠĠĠĠĠĠĠĠĠĠĠĠĠĠĠĠĠĠĠĠĠĠĠĠĠĠĠĠĠĠĠĠĠĠĠĠĠĠ": 6640,
      "Ġclearly": 6641,
      "Ġstrip": 6642,
      "Ġcollaps": 6643,
      "Ġsyn": 6644,
      "Ġpalace": 6645,
      "Ġfunny": 6646,
      "Ġvanish": 6647,
      "Ġworthy": 6648,
      "People": 6649,
      "Ġmultip": 6650,
      "Ġmysterious": 6651,
      "Ġbrilliant": 6652,
      "Americ": 6653,
      "Bel": 6654,
      "Last": 6655,
      "home": 6656,
      "mid": 6657,
      "nic": 6658,
      "Ãª": 6659,
      "ÅĤ": 6660,
      "Ġtides": 6661,
      "Ġtries": 6662,
      "Ġaqu": 6663,
      "Ġsack": 6664,
      "Ġborrow": 6665,
      "Ġmale": 6666,
      "Ġcore": 6667,
      "itor": 6668,
      "ilar": 6669,
      "Ġnoticed": 6670,
      "ulse": 6671,
      "elling": 6672,
      "Ġmoist": 6673,
      "ĠTake": 6674,
      "Ġslim": 6675,
      "Ġglac": 6676,
      "ĠJuly": 6677,
      "Ġchem": 6678,
      "Ġhumans": 6679,
      "Ġphilos": 6680,
      "Ġtouches": 6681,
      "Ġyounger": 6682,
      "ternal": 6683,
      "Ġstepped": 6684,
      "Ġaccident": 6685,
      "glass": 6686,
      "ĠTranslated": 6687,
      "ĠPeople": 6688,
      "far": 6689,
      "must": 6690,
      "uest": 6691,
      "uper": 6692,
      "ÃŁ": 6693,
      "Ġtips": 6694,
      "Ġaching": 6695,
      "Ġmate": 6696,
      "Ġmouse": 6697,
      "Ġcrou": 6698,
      "Ġcivil": 6699,
      "Ġdate": 6700,
      "Ġnaught": 6701,
      "stit": 6702,
      "stairs": 6703,
      "Ġbends": 6704,
      "Ġrays": 6705,
      "Ġweigh": 6706,
      "ilty": 6707,
      "unken": 6708,
      "essed": 6709,
      "ĠSw": 6710,
      "Ġknives": 6711,
      "outside": 6712,
      "Ġagree": 6713,
      "Ġagony": 6714,
      "Ġhandle": 6715,
      "ĠDead": 6716,
      "Ġscale": 6717,
      "ĠPark": 6718,
      "Ġbackyard": 6719,
      "Ġslope": 6720,
      "shad": 6721,
      "Ġearthly": 6722,
      "Ġcurl": 6723,
      "Ġraining": 6724,
      "ĠYe": 6725,
      "grim": 6726,
      "Ġ//": 6727,
      "Ġdecide": 6728,
      "Ġlesson": 6729,
      "Ġfairy": 6730,
      "Ġaudience": 6731,
      "Ġblooming": 6732,
      "Ġfighting": 6733,
      "Ġfactory": 6734,
      "Ġsuspended": 6735,
      "ĠEverything": 6736,
      "Ġtunnel": 6737,
      "Ġtelevision": 6738,
      "Ġoriginal": 6739,
      "Ġrabbit": 6740,
      "drops": 6741,
      "Ġsacrifice": 6742,
      "Ġdisease": 6743,
      "Ġsafety": 6744,
      "Red": 6745,
      "good": 6746,
      "pan": 6747,
      "till": 6748,
      "Â¡": 6749,
      "Ġ--": 6750,
      "Ġtire": 6751,
      "Ġsab": 6752,
      "Ġbatt": 6753,
      "Ġfading": 6754,
      "Ġfarewell": 6755,
      "atient": 6756,
      "Ġdazz": 6757,
      "Ġhaste": 6758,
      "anwhile": 6759,
      "Ġpsy": 6760,
      "acts": 6761,
      "icles": 6762,
      "Ġstates": 6763,
      "Ġstyle": 6764,
      "Ġbeads": 6765,
      "âĢĶ:": 6766,
      "unge": 6767,
      "Ġherd": 6768,
      "Ġvoy": 6769,
      "Ġamber": 6770,
      "ĠPal": 6771,
      "Ġglare": 6772,
      "uds": 6773,
      "udder": 6774,
      "Ġwherever": 6775,
      "Ġhasn": 6776,
      "armed": 6777,
      "Ġresting": 6778,
      "Ġkindness": 6779,
      "Ġthrong": 6780,
      "Ġthrust": 6781,
      "ĊĠĠĠĠĠĠĠĠĠĠĠĠĠĠĠĠĠĠĠĠĠĠĠĠĠĠĠĠĠĠĠĠĠĠĠĠĠĠĠĠĠ": 6782,
      "Ġrelation": 6783,
      "Ġdoub": 6784,
      "Ġmelancholy": 6785,
      "Ġpressure": 6786,
      "small": 6787,
      "Ġswallows": 6788,
      "Outside": 6789,
      "omeday": 6790,
      "Above": 6791,
      "Ġjuice": 6792,
      "Ġstubborn": 6793,
      "Ġconversation": 6794,
      "Ġmaterial": 6795,
      "Ġpregnant": 6796,
      "ba": 6797,
      "count": 6798,
      "mos": 6799,
      "rr": 6800,
      "Ġsaints": 6801,
      "Ġbon": 6802,
      "inge": 6803,
      "Ġhaul": 6804,
      "Ġasph": 6805,
      "ĠMore": 6806,
      "Ġgrasp": 6807,
      "Ġunp": 6808,
      "elly": 6809,
      "oused": 6810,
      "Ġbutt": 6811,
      "Ġcomfor": 6812,
      "ĠFre": 6813,
      "ĠGreen": 6814,
      "Ġexit": 6815,
      "Ġdragged": 6816,
      "Ġpeach": 6817,
      "Ġfocus": 6818,
      "shot": 6819,
      "ivity": 6820,
      "Ġgenius": 6821,
      "Ġicy": 6822,
      "Ġhelpless": 6823,
      "ĠÐ½": 6824,
      "Ġmotor": 6825,
      "Ġwinged": 6826,
      "Ġroofs": 6827,
      "Ġfailure": 6828,
      "Ġcandy": 6829,
      "Ġstirred": 6830,
      "Ġurge": 6831,
      "moving": 6832,
      "Ġwonders": 6833,
      "Ġignor": 6834,
      "ĠPoet": 6835,
      "Ġconcern": 6836,
      "children": 6837,
      "Ġaston": 6838,
      "Ġprairie": 6839,
      "Ġthreshold": 6840,
      "ĠAtlantic": 6841,
      "Other": 6842,
      "bows": 6843,
      "morrow": 6844,
      "ware": 6845,
      "Ġastr": 6846,
      "Ġbench": 6847,
      "Ġmould": 6848,
      "Ġfists": 6849,
      "Ġfoul": 6850,
      "Ġlav": 6851,
      "Ġdome": 6852,
      "Ġdense": 6853,
      "Ġinch": 6854,
      "Ġgorge": 6855,
      "ĠIII": 6856,
      "lev": 6857,
      "Ġhed": 6858,
      "anda": 6859,
      "andom": 6860,
      "ĠĠĠĠĠĠĠĠĠĠĠĠĠĠĠĠĠĠĠĠ": 6861,
      "amil": 6862,
      "Ġserene": 6863,
      "Ġdeal": 6864,
      "Ġblest": 6865,
      "erson": 6866,
      "Ġchose": 6867,
      "Ġchorus": 6868,
      "Ġorg": 6869,
      "olation": 6870,
      "Ġgrat": 6871,
      "ĠBer": 6872,
      "ĠHel": 6873,
      "Ġcancer": 6874,
      "ference": 6875,
      "ĠOctober": 6876,
      "ĠLast": 6877,
      "Ġscales": 6878,
      "Ġbackward": 6879,
      "Ġdrows": 6880,
      "ovember": 6881,
      "Ġpeas": 6882,
      "Ġreads": 6883,
      "ĠChild": 6884,
      "grass": 6885,
      "Ġshadowy": 6886,
      "Ġserious": 6887,
      "Ġeleph": 6888,
      "Ġdresses": 6889,
      "Ġinterrupt": 6890,
      "ĠBlue": 6891,
      "Ġprize": 6892,
      "Always": 6893,
      "Ġfaithful": 6894,
      "Ġspreading": 6895,
      "Ġreaches": 6896,
      "Ġladies": 6897,
      "Ġlinger": 6898,
      "Ġtempest": 6899,
      "Again": 6900,
      "ĠAfrica": 6901,
      "Ġanxious": 6902,
      "Ġdiamond": 6903,
      "Ġmetaphor": 6904,
      "Ġlibrary": 6905,
      "bal": 6906,
      "ham": 6907,
      "oons": 6908,
      "says": 6909,
      "sleep": 6910,
      "trying": 6911,
      "yss": 6912,
      "reed": 6913,
      "reme": 6914,
      "Ġfishing": 6915,
      "Ġcards": 6916,
      "onto": 6917,
      "Ġtore": 6918,
      "etery": 6919,
      "Ġstares": 6920,
      "alog": 6921,
      "urg": 6922,
      "Ġren": 6923,
      "Ġshiny": 6924,
      "ĠWind": 6925,
      "Ġflaming": 6926,
      "Ġorn": 6927,
      "estic": 6928,
      "Ġtrad": 6929,
      "ĠMuse": 6930,
      "Ġtheirs": 6931,
      "Ġjung": 6932,
      "ĠLaw": 6933,
      "Ġscenes": 6934,
      "Ġbreathed": 6935,
      "Ġskirt": 6936,
      "Ġpros": 6937,
      "Ġenters": 6938,
      "Ġvein": 6939,
      "Ġstarting": 6940,
      "Ġelsewhere": 6941,
      "ĊĠĠĠĠĠĠĠĠĠĠĠĠĠĠĠĠĠĠĠĠĠĠĠĠĠĠĠĠĠĠĠĠĠĠĠĠĠĠĠĠĠĠĠ": 6942,
      "Ġcircum": 6943,
      "Ġdrinks": 6944,
      "Ġcollar": 6945,
      "Ġabsolute": 6946,
      "going": 6947,
      "ĠSomeone": 6948,
      "Ġkilling": 6949,
      "Ġembarrass": 6950,
      "Ġcharms": 6951,
      "Ġeffort": 6952,
      "Ġvictory": 6953,
      "ãĢĢ": 6954,
      "Ġrules": 6955,
      "Ġphantom": 6956,
      "Kn": 6957,
      "free": 6958,
      "ok": 6959,
      "watching": 6960,
      "Ġtables": 6961,
      "Ġment": 6962,
      "Ġfellow": 6963,
      "athes": 6964,
      "atches": 6965,
      "Ġcred": 6966,
      "Ġcoy": 6967,
      "Ġharsh": 6968,
      "Ġpep": 6969,
      "Ġeve": 6970,
      "acific": 6971,
      "Ġstared": 6972,
      "Ġrank": 6973,
      "Ġwhip": 6974,
      "imin": 6975,
      "Ġanon": 6976,
      "ĠSomething": 6977,
      "ribut": 6978,
      "Ġsoap": 6979,
      "olved": 6980,
      "ĠMid": 6981,
      "Ġunn": 6982,
      "Ġcling": 6983,
      "Ġcraft": 6984,
      "Ġhowever": 6985,
      "Ġwrap": 6986,
      "Ġboot": 6987,
      "clock": 6988,
      "death": 6989,
      "ĠChar": 6990,
      "Ġmonster": 6991,
      "Ġgoddess": 6992,
      "ibility": 6993,
      "coll": 6994,
      "Ġfinish": 6995,
      "Ġdelicious": 6996,
      "Ġhurry": 6997,
      "Ġheavenly": 6998,
      "Deep": 6999,
      "Ġdemand": 7000,
      "Ġbullets": 7001,
      "formation": 7002,
      "ĠParadise": 7003,
      "Ġsettled": 7004,
      "Full": 7005,
      "Most": 7006,
      "dam": 7007,
      "hor": 7008,
      "hot": 7009,
      "nes": 7010,
      "och": 7011,
      "xic": 7012,
      "ĊĊĠĠĠĠĠĠĠ": 7013,
      "Ġtid": 7014,
      "Ġtank": 7015,
      "Ġtrop": 7016,
      "real": 7017,
      "eros": 7018,
      "Ġmim": 7019,
      "Ġmixed": 7020,
      "Ġlic": 7021,
      "Ġdash": 7022,
      "edge": 7023,
      "Ġpacked": 7024,
      "Ġposition": 7025,
      "Ġnap": 7026,
      "Ġnerve": 7027,
      "omy": 7028,
      "Ġgild": 7029,
      "Ġrim": 7030,
      "Ġrif": 7031,
      "Ġrod": 7032,
      "Ġragged": 7033,
      "Ġul": 7034,
      "ooves": 7035,
      "Ġsel": 7036,
      "Ġassem": 7037,
      "Ġchalk": 7038,
      "Ġvide": 7039,
      "Ġflown": 7040,
      "ĠMart": 7041,
      "Ġalas": 7042,
      "Ġconj": 7043,
      "ĠToo": 7044,
      "ĠGreek": 7045,
      "Ġarrest": 7046,
      "Ġdarker": 7047,
      "aza": 7048,
      "Ġletting": 7049,
      "brown": 7050,
      "Ġhearth": 7051,
      "Ġbuff": 7052,
      "Ġrestaur": 7053,
      "Ġrecon": 7054,
      "Ġmarching": 7055,
      "Ġdropping": 7056,
      "Ġespecially": 7057,
      "spread": 7058,
      "Ġlaughs": 7059,
      "Ġstronger": 7060,
      "Ġwandered": 7061,
      "Ġharbor": 7062,
      "Ġfragrance": 7063,
      "Ġquarter": 7064,
      "Ġcherry": 7065,
      "Ġthorns": 7066,
      "Ġgroup": 7067,
      "18": 7068,
      "eat": 7069,
      "Ġtro": 7070,
      "Ġsilly": 7071,
      "Ġwestern": 7072,
      "rep": 7073,
      "Ġmic": 7074,
      "Ġfid": 7075,
      "Ġfav": 7076,
      "iti": 7077,
      "itan": 7078,
      "esc": 7079,
      "Ġlined": 7080,
      "anqu": 7081,
      "Ġpushing": 7082,
      "Ġbearing": 7083,
      "Ġrack": 7084,
      "Ġrear": 7085,
      "Ġrevel": 7086,
      "allen": 7087,
      "Ġshaft": 7088,
      "avel": 7089,
      "agger": 7090,
      "ĠSan": 7091,
      "umbling": 7092,
      "elest": 7093,
      "ĠAp": 7094,
      "odes": 7095,
      "Ġvul": 7096,
      "wear": 7097,
      "Ġnovel": 7098,
      "Ġunl": 7099,
      "Ġplates": 7100,
      "Ġroyal": 7101,
      "Ġabyss": 7102,
      "Ġmanner": 7103,
      "uding": 7104,
      "Inside": 7105,
      "print": 7106,
      "Ġ12": 7107,
      "Ġdripping": 7108,
      "Ġdecor": 7109,
      "Ġlanguages": 7110,
      "Ġcorrect": 7111,
      "Ġshowers": 7112,
      "Ġscratch": 7113,
      "Ġcontinent": 7114,
      "Ġshrine": 7115,
      "Ġsusp": 7116,
      "ography": 7117,
      "Ġapproach": 7118,
      "Ġpipes": 7119,
      "Ġjudg": 7120,
      "Father": 7121,
      "die": 7122,
      "gun": 7123,
      "having": 7124,
      "kiss": 7125,
      "mem": 7126,
      "tles": 7127,
      "ĊĊĠĠĠ": 7128,
      "Ġcure": 7129,
      "Ġtod": 7130,
      "Ġtoy": 7131,
      "acon": 7132,
      "ĠĠĠĠĠĠĠĠĠĠĠĠĠĠĠĠĠĠĠĠĠĠĠ": 7133,
      "imps": 7134,
      "enth": 7135,
      "Ġfork": 7136,
      "avender": 7137,
      "Ġblush": 7138,
      "Ġlod": 7139,
      "Ġattr": 7140,
      "Ġchant": 7141,
      "Ġunable": 7142,
      "Ġabstr": 7143,
      "Ġpole": 7144,
      "ĠDark": 7145,
      "Ġdrain": 7146,
      "Ġcoats": 7147,
      "Ġdesolate": 7148,
      "within": 7149,
      "perhaps": 7150,
      "myself": 7151,
      "Ġretreat": 7152,
      "Ġfully": 7153,
      "almost": 7154,
      "Ġveget": 7155,
      "Ġcorrid": 7156,
      "Ġhurric": 7157,
      "Ġborne": 7158,
      "ĠBrown": 7159,
      "Ġstripped": 7160,
      "Ġverd": 7161,
      "Ġundone": 7162,
      "Ġplanets": 7163,
      "Ġwithered": 7164,
      "ĠFranc": 7165,
      "Ġhyp": 7166,
      "Half": 7167,
      "hole": 7168,
      "nut": 7169,
      "sized": 7170,
      "uj": 7171,
      "word": 7172,
      "Ġsank": 7173,
      "Ġbod": 7174,
      "Ġpic": 7175,
      "Ġinev": 7176,
      "sey": 7177,
      "Ġrushing": 7178,
      "Ġrandom": 7179,
      "Ġmechan": 7180,
      "Ġshifts": 7181,
      "Ġdeb": 7182,
      "ession": 7183,
      "Ġsole": 7184,
      "ĠWinter": 7185,
      "Ġlege": 7186,
      "Ġtrapped": 7187,
      "Ġupright": 7188,
      "Ġalike": 7189,
      "Ġaloud": 7190,
      "Ġsheer": 7191,
      "Ġfeatures": 7192,
      "Whatever": 7193,
      "Ġprime": 7194,
      "Ġhowl": 7195,
      "ĠJap": 7196,
      "Ġacqu": 7197,
      "Ġsnap": 7198,
      "Ġcurb": 7199,
      "ĊĠĠĠĠĠĠĠĠĠĠĠĠĠĠĠĠĠĠĠĠĠĠĠĠĠĠĠĠĠĠĠĠĠĠĠĠĠĠĠĠĠĠĠĠĠĠĠĠĠĠĠĠĠĠ": 7200,
      "ixt": 7201,
      "Ġthrill": 7202,
      "Ġlayers": 7203,
      "Ġserpent": 7204,
      "ĊĠĠĠĠĠĠĠĠĠĠĠĠĠĠĠĠĠĠĠĠĠĠĠĠĠĠĠĠĠĠĠĠĠĠĠĠĠĠĠĠĠĠ": 7205,
      "Ġcircling": 7206,
      "ĠAny": 7207,
      "Ġcontinued": 7208,
      "Ġhonour": 7209,
      "Ġsorrows": 7210,
      "Ġpleasures": 7211,
      "Ġhorns": 7212,
      "Ġprepared": 7213,
      "Ġlocal": 7214,
      "Ġlyric": 7215,
      "Ġjacket": 7216,
      "Ġinsects": 7217,
      "Ġdarling": 7218,
      "Ġcustom": 7219,
      "Keep": 7220,
      "LE": 7221,
      "hair": 7222,
      "hands": 7223,
      "mel": 7224,
      "spring": 7225,
      "tong": 7226,
      "wart": 7227,
      "Ã¶": 7228,
      "Ġais": 7229,
      "Ġawhile": 7230,
      "Ġcaut": 7231,
      "Ġhushed": 7232,
      "Ġinj": 7233,
      "Ġgazing": 7234,
      "utumn": 7235,
      "Ġram": 7236,
      "Ġrenew": 7237,
      "Ġwee": 7238,
      "things": 7239,
      "thinking": 7240,
      "Ġwasted": 7241,
      "hens": 7242,
      "ĠWashing": 7243,
      "Think": 7244,
      "quiet": 7245,
      "isted": 7246,
      "abor": 7247,
      "ĠMo": 7248,
      "ĠMark": 7249,
      "ĠMich": 7250,
      "ĠBo": 7251,
      "ĠBoy": 7252,
      "ĠBudd": 7253,
      "Ġoutward": 7254,
      "Ġhowling": 7255,
      "Ġeverybody": 7256,
      "Ġsunk": 7257,
      "Ġearlier": 7258,
      "Ġimmed": 7259,
      "ĠThree": 7260,
      "Ġbirch": 7261,
      "Ġpassions": 7262,
      "plete": 7263,
      "Ġworkers": 7264,
      "Ġdeepest": 7265,
      "Ġdoorway": 7266,
      "Ġforgiveness": 7267,
      "Ġinvent": 7268,
      "Ġelement": 7269,
      "Ġerror": 7270,
      "Ġcathed": 7271,
      "Ġballs": 7272,
      "Ġstudents": 7273,
      "Ġbutterflies": 7274,
      "Ġprecise": 7275,
      "impse": 7276,
      "Ġborders": 7277,
      "Ġtrucks": 7278,
      "Ġviolets": 7279,
      "Ġnervous": 7280,
      "ban": 7281,
      "ĠÃ¡": 7282,
      "Ġther": 7283,
      "Ġmos": 7284,
      "Ġmang": 7285,
      "Ġmold": 7286,
      "enced": 7287,
      "Ġpiled": 7288,
      "Ġeats": 7289,
      "Ġerect": 7290,
      "Ġbeheld": 7291,
      "Ġrattle": 7292,
      "Ġfors": 7293,
      "Ġfrown": 7294,
      "Ġdoves": 7295,
      "Ġbrut": 7296,
      "Ġouter": 7297,
      "Ġsullen": 7298,
      "urns": 7299,
      "ndering": 7300,
      "Ġconstr": 7301,
      "ĠNeg": 7302,
      "Ġcrush": 7303,
      "bey": 7304,
      "Ġnightm": 7305,
      "Ġprow": 7306,
      "Ġenvel": 7307,
      "Ġcoins": 7308,
      "Ġcovers": 7309,
      "Ġdarkened": 7310,
      "Ġwrists": 7311,
      "ploy": 7312,
      "ĠJan": 7313,
      "Ġwatery": 7314,
      "Ġperform": 7315,
      "Ġhandsome": 7316,
      "Ġshouldn": 7317,
      "ugging": 7318,
      "riends": 7319,
      "Ġguilty": 7320,
      "Ġcreate": 7321,
      "ĠKe": 7322,
      "scent": 7323,
      "ĠShall": 7324,
      "Ġmelting": 7325,
      "Ġpromises": 7326,
      "Ġarrives": 7327,
      "Ġviolent": 7328,
      "Ġadmire": 7329,
      "Ġgarbage": 7330,
      "Ġmachines": 7331,
      "Ġstatue": 7332,
      "Ġgloves": 7333,
      "Ġsplendor": 7334,
      "Ġjewel": 7335,
      "Ġpossibility": 7336,
      "Ġchaos": 7337,
      "Slow": 7338,
      "got": 7339,
      "kward": 7340,
      "lost": 7341,
      "uan": 7342,
      "ya": 7343,
      "Ð²": 7344,
      "ï¼": 7345,
      "heard": 7346,
      "instead": 7347,
      "Ġawe": 7348,
      "Ġwrest": 7349,
      "Ġcer": 7350,
      "isk": 7351,
      "Ġpel": 7352,
      "Ġpuff": 7353,
      "Ġtops": 7354,
      "Ġna": 7355,
      "star": 7356,
      "stri": 7357,
      "stones": 7358,
      "iders": 7359,
      "Ġrefr": 7360,
      "Ġsew": 7361,
      "Ġsparrows": 7362,
      "acking": 7363,
      "Ġchief": 7364,
      "ulated": 7365,
      "ola": 7366,
      "Ġplat": 7367,
      "Ġplung": 7368,
      "Ġfee": 7369,
      "Ġloveliness": 7370,
      "Ġhandful": 7371,
      "Ġslid": 7372,
      "need": 7373,
      "lesh": 7374,
      "ĠRight": 7375,
      "Ġclearing": 7376,
      "Ġharder": 7377,
      "Ġmirth": 7378,
      "Ġimpro": 7379,
      "Ġrefused": 7380,
      "ĠDecember": 7381,
      "Ġinstinct": 7382,
      "Ġcollapse": 7383,
      "Ġnecks": 7384,
      "point": 7385,
      "Ġstudent": 7386,
      "Ġdestiny": 7387,
      "gypt": 7388,
      "Ġprotest": 7389,
      "Ġpowers": 7390,
      "Ġgenerous": 7391,
      "Ġhaunt": 7392,
      "Ġconscience": 7393,
      "Ġflickering": 7394,
      "ĠPerhaps": 7395,
      "Ġconsciousness": 7396,
      "ĠQueen": 7397,
      "Came": 7398,
      "ED": 7399,
      "Many": 7400,
      "OM": 7401,
      "Ste": 7402,
      "bare": 7403,
      "bones": 7404,
      "dust": 7405,
      "eur": 7406,
      "gold": 7407,
      "ho": 7408,
      "rum": 7409,
      "ublic": 7410,
      "Ġtense": 7411,
      "Ġaid": 7412,
      "Ġach": 7413,
      "Ġsage": 7414,
      "Ġmes": 7415,
      "Ġmall": 7416,
      "ingly": 7417,
      "Ġfaster": 7418,
      "Ġlens": 7419,
      "oric": 7420,
      "Ġpos": 7421,
      "Ġnos": 7422,
      "otch": 7423,
      "stands": 7424,
      "Ġstores": 7425,
      "Ġmyri": 7426,
      "Ġiss": 7427,
      "ooped": 7428,
      "ĠSon": 7429,
      "ĠSatur": 7430,
      "ĠSummer": 7431,
      "ĠSeptember": 7432,
      "Ġleaps": 7433,
      "ourse": 7434,
      "Ġunif": 7435,
      "ĠBre": 7436,
      "ĠHouse": 7437,
      "Ġsund": 7438,
      "Ġsuic": 7439,
      "Ġslain": 7440,
      "Ġsliding": 7441,
      "Ġglimpse": 7442,
      "Ġswings": 7443,
      "Ġteen": 7444,
      "ĠWhose": 7445,
      "ĠJud": 7446,
      "arms": 7447,
      "ucky": 7448,
      "Ġsinger": 7449,
      "close": 7450,
      "Ġmarry": 7451,
      "Ġwoven": 7452,
      "Ġdecades": 7453,
      "ounced": 7454,
      "Ġwonderful": 7455,
      "ĠAllah": 7456,
      "Ġregard": 7457,
      "Ġpencil": 7458,
      "Ġfrequ": 7459,
      "Ġgroan": 7460,
      "Ġwondrous": 7461,
      "Ġaddress": 7462,
      "Ġfifteen": 7463,
      "ĠPhil": 7464,
      "Ġvacant": 7465,
      "Ġgrieve": 7466,
      "Ġneglect": 7467,
      "Ġfrightened": 7468,
      "Ġlifet": 7469,
      "Ġchimney": 7470,
      "Ġreligion": 7471,
      "Ġweapon": 7472,
      "Ġcharacter": 7473,
      "Ġcompanion": 7474,
      "quisite": 7475,
      "ĠGerman": 7476,
      "ĠWashington": 7477,
      "Dis": 7478,
      "Sun": 7479,
      "bly": 7480,
      "dest": 7481,
      "fro": 7482,
      "view": 7483,
      "Ġtucked": 7484,
      "Ġsen": 7485,
      "Ġwretched": 7486,
      "Ġfest": 7487,
      "Ġpiss": 7488,
      "Ġpains": 7489,
      "Ġpump": 7490,
      "Ġpomp": 7491,
      "ota": 7492,
      "Ġroo": 7493,
      "urred": 7494,
      "Ġreed": 7495,
      "think": 7496,
      "Ġshivering": 7497,
      "char": 7498,
      "ĠSir": 7499,
      "Ġplenty": 7500,
      "angles": 7501,
      "ĠCount": 7502,
      "Ġmole": 7503,
      "Ġscars": 7504,
      "ĠGen": 7505,
      "Ġcrash": 7506,
      "Ġcruc": 7507,
      "Ġstrung": 7508,
      "ĠRock": 7509,
      "ĠJim": 7510,
      "ĠJack": 7511,
      "Ġcursed": 7512,
      "Ġhappening": 7513,
      "Ġcounting": 7514,
      "Ġyearning": 7515,
      "Ġmonarch": 7516,
      "Ġmonument": 7517,
      "Ġmete": 7518,
      "exas": 7519,
      "Ġformed": 7520,
      "Ġsignal": 7521,
      "Ġbushes": 7522,
      "Ġcollege": 7523,
      "Ġ196": 7524,
      "Ġcapital": 7525,
      "Ġshouting": 7526,
      "Ġmaple": 7527,
      "Ġmeasured": 7528,
      "Ġfurniture": 7529,
      "Ġdomin": 7530,
      "Ġsyllables": 7531,
      "Ġcitiz": 7532,
      "Ġoblivion": 7533,
      "aes": 7534,
      "soft": 7535,
      "tail": 7536,
      "trees": 7537,
      "Ġtas": 7538,
      "Ġaunt": 7539,
      "Ġwires": 7540,
      "Ġbind": 7541,
      "Ġbald": 7542,
      "ouched": 7543,
      "erk": 7544,
      "Ġfret": 7545,
      "Ġlick": 7546,
      "lling": 7547,
      "Ġnigh": 7548,
      "leaves": 7549,
      "ston": 7550,
      "Ġrag": 7551,
      "alp": 7552,
      "Ġreasons": 7553,
      "Ġmeets": 7554,
      "aine": 7555,
      "ighted": 7556,
      "ceans": 7557,
      "Ġkick": 7558,
      "agic": 7559,
      "Ġherds": 7560,
      "Ġvag": 7561,
      "ements": 7562,
      "isting": 7563,
      "ĠMen": 7564,
      "ĠBab": 7565,
      "Ġarrows": 7566,
      "Ġexists": 7567,
      "Ġgloss": 7568,
      "Ġprint": 7569,
      "âĢĿâĢĶ": 7570,
      "ĠEv": 7571,
      "Ġtech": 7572,
      "ondon": 7573,
      "ĠJames": 7574,
      "Ġparting": 7575,
      "Ġappe": 7576,
      "Ġrests": 7577,
      "Ġcontempl": 7578,
      "Ġresc": 7579,
      "Ġpurse": 7580,
      "Ġcryst": 7581,
      "compl": 7582,
      "Ġpraying": 7583,
      "expl": 7584,
      "Ġsubway": 7585,
      "Ġmerc": 7586,
      "Ġindust": 7587,
      "ĠÐ²": 7588,
      "ĠÐ¿": 7589,
      "door": 7590,
      "Ġdances": 7591,
      "zzle": 7592,
      "Ġhundreds": 7593,
      "Ġhoped": 7594,
      "Ġrubber": 7595,
      "walking": 7596,
      "Ġharmony": 7597,
      "Ġrepeated": 7598,
      "Ġhaunted": 7599,
      "Ġdragon": 7600,
      "ĠPeace": 7601,
      "Ġentirely": 7602,
      "Ġphrase": 7603,
      "None": 7604,
      "cor": 7605,
      "covered": 7606,
      "net": 7607,
      "skin": 7608,
      "worn": 7609,
      "Ġcaps": 7610,
      "itching": 7611,
      "isto": 7612,
      "Ġlays": 7613,
      "anse": 7614,
      "Ġgonna": 7615,
      "ĠSince": 7616,
      "ĠSanta": 7617,
      "Ġsock": 7618,
      "Ġsocks": 7619,
      "Ġchase": 7620,
      "Ġflatt": 7621,
      "abet": 7622,
      "ctors": 7623,
      "Ġgrateful": 7624,
      "Ġjaws": 7625,
      "ĠHad": 7626,
      "ĠCor": 7627,
      "ĠCapt": 7628,
      "ĠListen": 7629,
      "ĠPres": 7630,
      "Ġquit": 7631,
      "ĠRose": 7632,
      "Ġremote": 7633,
      "Ġsilken": 7634,
      "Ġunderground": 7635,
      "Ġcarpet": 7636,
      "Ġperch": 7637,
      "Ġdeaths": 7638,
      "Ġkinds": 7639,
      "Ġpurch": 7640,
      "ĠUp": 7641,
      "Ġlaundry": 7642,
      "Ġcoral": 7643,
      "Ġerr": 7644,
      "breath": 7645,
      "aunted": 7646,
      "rooms": 7647,
      "Ġzero": 7648,
      "uttering": 7649,
      "Ġabsent": 7650,
      "Everyone": 7651,
      "Ġglee": 7652,
      "ĠTruth": 7653,
      "Ġaffection": 7654,
      "ÑĤÐ¾": 7655,
      "Ġbursting": 7656,
      "Ġexpected": 7657,
      "Ġbeasts": 7658,
      "Ġfacts": 7659,
      "Ġsanct": 7660,
      "Ġshepherd": 7661,
      "elestial": 7662,
      "gest": 7663,
      "iem": 7664,
      "lies": 7665,
      "yon": 7666,
      "Ð»": 7667,
      "Ġtul": 7668,
      "Ġbass": 7669,
      "Ġfades": 7670,
      "Ġcad": 7671,
      "Ġlid": 7672,
      "Ġlest": 7673,
      "Ġpap": 7674,
      "asped": 7675,
      "ĠIr": 7676,
      "Ġecl": 7677,
      "utch": 7678,
      "Ġbeck": 7679,
      "Ġbeans": 7680,
      "Ġweird": 7681,
      "umm": 7682,
      "umbered": 7683,
      "Ġsod": 7684,
      "Ġsocial": 7685,
      "Ġflute": 7686,
      "earth": 7687,
      "aware": 7688,
      "ipher": 7689,
      "Ġwhence": 7690,
      "ĠNovember": 7691,
      "Ġsmart": 7692,
      "ilet": 7693,
      "Ġcoin": 7694,
      "Ġswords": 7695,
      "Ġsnakes": 7696,
      "Ġperman": 7697,
      "Ġnewly": 7698,
      "getting": 7699,
      "ĠVer": 7700,
      "Ġkissing": 7701,
      "Ġparade": 7702,
      "Ġserved": 7703,
      "Ġawkward": 7704,
      "ucent": 7705,
      "Ġlimits": 7706,
      "Ġconfusion": 7707,
      "Ġlouder": 7708,
      "Ġavoid": 7709,
      "Ġpearls": 7710,
      "hearted": 7711,
      "Ġmournful": 7712,
      "Ġpouring": 7713,
      "Ġenemies": 7714,
      "Ġdaddy": 7715,
      "Ġsurrender": 7716,
      "Ġtattoo": 7717,
      "Ġcemetery": 7718,
      "11": 7719,
      "AM": 7720,
      "Around": 7721,
      "Em": 7722,
      "Listen": 7723,
      "Rep": 7724,
      "Sing": 7725,
      "cam": 7726,
      "dri": 7727,
      "lorn": 7728,
      "maid": 7729,
      "Ñĭ": 7730,
      "Ġmush": 7731,
      "Ġfisher": 7732,
      "Ġlark": 7733,
      "Ġhoof": 7734,
      "Ġinfin": 7735,
      "lee": 7736,
      "lear": 7737,
      "urry": 7738,
      "Ġmeek": 7739,
      "Ġdebt": 7740,
      "Ġspilled": 7741,
      "Ġnearer": 7742,
      "Ġchann": 7743,
      "ieves": 7744,
      "ieved": 7745,
      "ckled": 7746,
      "olf": 7747,
      "ĠMom": 7748,
      "Ġgrade": 7749,
      "Ġjail": 7750,
      "Ġpluck": 7751,
      "awning": 7752,
      "ĠCo": 7753,
      "ĠCam": 7754,
      "Ġroam": 7755,
      "Ġrobe": 7756,
      "ĠPacific": 7757,
      "Ġgoal": 7758,
      "forms": 7759,
      "ĠRuss": 7760,
      "peror": 7761,
      "Ġsnows": 7762,
      "Ġgoodness": 7763,
      "ĠStar": 7764,
      "Ġsnowy": 7765,
      "ĠâĢ¢": 7766,
      "heads": 7767,
      "Ġcloses": 7768,
      "Ġsandw": 7769,
      "ĠAnother": 7770,
      "Ġ200": 7771,
      "ĠSpirit": 7772,
      "anything": 7773,
      "áĥĲ": 7774,
      "áĥĺ": 7775,
      "Ġabsor": 7776,
      "Ġhalls": 7777,
      "ĠFrank": 7778,
      "Ġsurvived": 7779,
      "Ġheroes": 7780,
      "Ġleaping": 7781,
      "Ġpatterns": 7782,
      "ĠAdam": 7783,
      "Ġinnocence": 7784,
      "Ġhighest": 7785,
      "Ġinhab": 7786,
      "Ġcloak": 7787,
      "ĠBritish": 7788,
      "Ġanchor": 7789,
      "ĠDavid": 7790,
      "10": 7791,
      "Ever": 7792,
      "cat": 7793,
      "corn": 7794,
      "dep": 7795,
      "found": 7796,
      "ja": 7797,
      "mind": 7798,
      "moon": 7799,
      "paper": 7800,
      "spl": 7801,
      "taking": 7802,
      "Ã§": 7803,
      "ÏĦ": 7804,
      "Ð´": 7805,
      "ĠĊĠĠĠĠĠĠĠĠĠĠĠĠĠĠ": 7806,
      "inity": 7807,
      "Ġbug": 7808,
      "Ġcode": 7809,
      "Ġlots": 7810,
      "icip": 7811,
      "ĠĠĠĠĠĠĠĠĠĠĠĠĠĠĠĠĠĠ": 7812,
      "ĠĠĠĠĠĠĠĠĠĠĠĠĠĠĠĠĠĠĠĠĠĠĠĠ": 7813,
      "Ġshark": 7814,
      "Ġshaken": 7815,
      "Ġseats": 7816,
      "Ġblazing": 7817,
      "uming": 7818,
      "Ġsport": 7819,
      "Ġchir": 7820,
      "Ġvote": 7821,
      "arden": 7822,
      "Ġflocks": 7823,
      "Ġorb": 7824,
      "Ġaloft": 7825,
      "Ġclaws": 7826,
      "ĠHoly": 7827,
      "Ġpoll": 7828,
      "ĠThus": 7829,
      "ĠThink": 7830,
      "Ġperi": 7831,
      "Ġperce": 7832,
      "rowing": 7833,
      "ools": 7834,
      "Ġsingular": 7835,
      "bris": 7836,
      "ĠWere": 7837,
      "mend": 7838,
      "Ġseries": 7839,
      "Ġbringing": 7840,
      "Ġsupper": 7841,
      "Ġcaress": 7842,
      "Ġtorch": 7843,
      "Ġbucket": 7844,
      "Ġwidow": 7845,
      "Ġvolcan": 7846,
      "didn": 7847,
      "ĠEliz": 7848,
      "Ġpilot": 7849,
      "Ġglitter": 7850,
      "Ġargument": 7851,
      "Ġfluttering": 7852,
      "Ġphysical": 7853,
      "Ġritual": 7854,
      "Ġsublime": 7855,
      "Ġphilosop": 7856,
      "ĠFrancis": 7857,
      "ĠNegro": 7858,
      "Both": 7859,
      "Sur": 7860,
      "hast": 7861,
      "iÃ³n": 7862,
      "obs": 7863,
      "spr": 7864,
      "warm": 7865,
      "Ã´": 7866,
      "Ġ,": 7867,
      "Ġsins": 7868,
      "Ġmoral": 7869,
      "Ġlent": 7870,
      "Ġlane": 7871,
      "Ġlavender": 7872,
      "Ġdandel": 7873,
      "Ġhunt": 7874,
      "orida": 7875,
      "Ġgang": 7876,
      "icient": 7877,
      "icago": 7878,
      "Ġbeet": 7879,
      "Ġrats": 7880,
      "alone": 7881,
      "verty": 7882,
      "Ġdefin": 7883,
      "eman": 7884,
      "Ġgracious": 7885,
      "Ġclover": 7886,
      "ĠHen": 7887,
      "Ġsheen": 7888,
      "athom": 7889,
      "auc": 7890,
      "Ġwholly": 7891,
      "Ġpollen": 7892,
      "Ġpoverty": 7893,
      "ĠFore": 7894,
      "Ġdrifts": 7895,
      "issipp": 7896,
      "ĠWhit": 7897,
      "Ġdisaster": 7898,
      "Ġfoes": 7899,
      "Ġdreamt": 7900,
      "azes": 7901,
      "Ġcurved": 7902,
      "Ġappet": 7903,
      "Ġguitar": 7904,
      "Ġresur": 7905,
      "ĠState": 7906,
      "Ã©n": 7907,
      "Ġlaying": 7908,
      "raft": 7909,
      "Ġhurts": 7910,
      "Ġacts": 7911,
      "Ġcerem": 7912,
      "Ġclimbs": 7913,
      "Ġscarf": 7914,
      "Ġhopeless": 7915,
      "Ġchoir": 7916,
      "Ġodor": 7917,
      "Ġsympath": 7918,
      "Ġlingering": 7919,
      "Ġvalue": 7920,
      "Ġpaused": 7921,
      "Ġbruised": 7922,
      "Ġeventually": 7923,
      "Ġmartyr": 7924,
      "legged": 7925,
      "Ġelder": 7926,
      "Ġasphalt": 7927,
      "Dream": 7928,
      "ES": 7929,
      "LL": 7930,
      "Lord": 7931,
      "Later": 7932,
      "Save": 7933,
      "bus": 7934,
      "cup": 7935,
      "fo": 7936,
      "hol": 7937,
      "uy": 7938,
      "Äģ": 7939,
      "Ġtiss": 7940,
      "Ġwicked": 7941,
      "Ġmama": 7942,
      "Ġlun": 7943,
      "Ġlazy": 7944,
      "Ġdared": 7945,
      "leaving": 7946,
      "Ġyon": 7947,
      "stream": 7948,
      "Ġstems": 7949,
      "kered": 7950,
      "Ġwithdr": 7951,
      "Ġshuff": 7952,
      "Ġshudder": 7953,
      "Ġfract": 7954,
      "told": 7955,
      "ĠSay": 7956,
      "Ġchamp": 7957,
      "Ġorph": 7958,
      "ĠOther": 7959,
      "Ġmanif": 7960,
      "ĠLatin": 7961,
      "Ġconcent": 7962,
      "ĠTexas": 7963,
      "ĠFort": 7964,
      "Ġscore": 7965,
      "Ġhadde": 7966,
      "Ġglide": 7967,
      "whatever": 7968,
      "ensity": 7969,
      "Ġremove": 7970,
      "brush": 7971,
      "alend": 7972,
      "trans": 7973,
      "Ġsweetly": 7974,
      "Ġprev": 7975,
      "Ġnorthern": 7976,
      "Ġangle": 7977,
      "Ġpresident": 7978,
      "Ġminor": 7979,
      "Somewhere": 7980,
      "Ġrisk": 7981,
      "Ġstrive": 7982,
      "ĠWithout": 7983,
      "Ġpowerful": 7984,
      "Ġpressing": 7985,
      "Ġdiscovered": 7986,
      "Ġhoping": 7987,
      "Ġfatal": 7988,
      "Ġhatred": 7989,
      "Ġsparks": 7990,
      "Ġcabin": 7991,
      "Ġgeese": 7992,
      "ĠPrince": 7993,
      "Ġsurprised": 7994,
      "Ġyonder": 7995,
      "Ġrosy": 7996,
      "Ġdiscover": 7997,
      "Ġlinen": 7998,
      "ĠBrooklyn": 7999,
      "Ġbalcony": 8000,
      "Fair": 8001,
      "bott": 8002,
      "cery": 8003,
      "circ": 8004,
      "las": 8005,
      "lad": 8006,
      "mir": 8007,
      "much": 8008,
      "vin": 8009,
      "Î½": 8010,
      "ĠÃ©": 8011,
      "Ġze": 8012,
      "Ġtors": 8013,
      "Ġtones": 8014,
      "Ġtheory": 8015,
      "Ġbount": 8016,
      "Ġcri": 8017,
      "Ġcaves": 8018,
      "itter": 8019,
      "itary": 8020,
      "Ġdign": 8021,
      "Ġhats": 8022,
      "aron": 8023,
      "Ġpup": 8024,
      "Ġnic": 8025,
      "Ġgoss": 8026,
      "icted": 8027,
      "urance": 8028,
      "keys": 8029,
      "Ġliz": 8030,
      "imag": 8031,
      "amar": 8032,
      "Ġshown": 8033,
      "Ġsends": 8034,
      "Ġbled": 8035,
      "astes": 8036,
      "Ġvows": 8037,
      "ĠThee": 8038,
      "Ġfling": 8039,
      "ules": 8040,
      "osis": 8041,
      "Ġalph": 8042,
      "Ġplac": 8043,
      "ĠChe": 8044,
      "others": 8045,
      "ĠLake": 8046,
      "Ġaged": 8047,
      "Ġfeeds": 8048,
      "Ġconcl": 8049,
      "ĠGive": 8050,
      "Ġarray": 8051,
      "ĠPat": 8052,
      "Ġnightly": 8053,
      "Ġquivering": 8054,
      "ĠEnd": 8055,
      "Ġsweeping": 8056,
      "Ġcarn": 8057,
      "clos": 8058,
      "Ġcurls": 8059,
      "Behold": 8060,
      "Ġhairs": 8061,
      "Ġbund": 8062,
      "Ġcolon": 8063,
      "ĠSoon": 8064,
      "boards": 8065,
      "Ġelements": 8066,
      "Ġera": 8067,
      "Ġflowering": 8068,
      "Ġbleak": 8069,
      "Ġvert": 8070,
      "Ġpolished": 8071,
      "Ġfourth": 8072,
      "Ġcastle": 8073,
      "living": 8074,
      "Blue": 8075,
      "Ġmedic": 8076,
      "Ġdreadful": 8077,
      "winged": 8078,
      "Ġcigarettes": 8079,
      "Ġstalks": 8080,
      "ING": 8081,
      "Ġrevolution": 8082,
      "Ġgalax": 8083,
      "Ġdisplay": 8084,
      "Ġstructure": 8085,
      "Ġjungle": 8086,
      "):": 8087,
      "12": 8088,
      "Earth": 8089,
      "Might": 8090,
      "Soft": 8091,
      "cal": 8092,
      "care": 8093,
      "gotten": 8094,
      "nant": 8095,
      "years": 8096,
      "ĠĊĠĠĠĠĠĠĠĠĠĠĠĠĠĠĠĠĠĠĠĠĠĠĠ": 8097,
      "Ġtough": 8098,
      "Ġwan": 8099,
      "ndered": 8100,
      "Ġmeth": 8101,
      "Ġdir": 8102,
      "ongh": 8103,
      "enger": 8104,
      "Ġincom": 8105,
      "Ġnerves": 8106,
      "etic": 8107,
      "etch": 8108,
      "start": 8109,
      "Ġsting": 8110,
      "Ġlikes": 8111,
      "aments": 8112,
      "Ġreeds": 8113,
      "ĠSnow": 8114,
      "ĠSoul": 8115,
      "Ġdoc": 8116,
      "Ġknelt": 8117,
      "opy": 8118,
      "Ġjudge": 8119,
      "ĠCent": 8120,
      "Ġroaring": 8121,
      "Ġabroad": 8122,
      "ĠFar": 8123,
      "Ġcrit": 8124,
      "Ġextend": 8125,
      "Ġprince": 8126,
      "Ġdrunken": 8127,
      "ĠEve": 8128,
      "ĠEgypt": 8129,
      "next": 8130,
      "Ġteam": 8131,
      "Ġremained": 8132,
      "Ġsilvery": 8133,
      "pery": 8134,
      "ĠInstead": 8135,
      "tra": 8136,
      "ĠYear": 8137,
      "eye": 8138,
      "Ġqueer": 8139,
      "Ġmini": 8140,
      "Ġtribut": 8141,
      "Ġstrikes": 8142,
      "Ġundo": 8143,
      "Ġcrowds": 8144,
      "Ġincense": 8145,
      "Ġkneel": 8146,
      "Ġsailed": 8147,
      "Child": 8148,
      "yram": 8149,
      "Ġdeterm": 8150,
      "Ġdenied": 8151,
      "Ġdamned": 8152,
      "Ġoccup": 8153,
      "Ġportrait": 8154,
      "Ġhunter": 8155,
      "Ġ::": 8156,
      "Ġprivile": 8157,
      "birth": 8158,
      "build": 8159,
      "Ġlyre": 8160,
      "Ġsurrounded": 8161,
      "Ġribbon": 8162,
      "ĠRobert": 8163,
      "Ġbridges": 8164,
      "Ġsleeve": 8165,
      "Ġokay": 8166,
      "Ġknuckles": 8167,
      "Great": 8168,
      "ders": 8169,
      "foll": 8170,
      "je": 8171,
      "summer": 8172,
      "twas": 8173,
      "uke": 8174,
      "uished": 8175,
      "Î¿": 8176,
      "ĠÙ": 8177,
      "Ġoaks": 8178,
      "Ġfuel": 8179,
      "Ġhits": 8180,
      "Ġhooves": 8181,
      "Ġtools": 8182,
      "Ġinstruct": 8183,
      "Ġger": 8184,
      "ados": 8185,
      "Ġstall": 8186,
      "sea": 8187,
      "Ġshowing": 8188,
      "Ġneon": 8189,
      "Ġnostr": 8190,
      "Ġunr": 8191,
      "outs": 8192,
      "ĠLondon": 8193,
      "venge": 8194,
      "ĠRep": 8195,
      "Ġswitch": 8196,
      "Ġanybody": 8197,
      "Ġdisd": 8198,
      "Ġsleek": 8199,
      "ĠThom": 8200,
      "Ġdeadly": 8201,
      "closed": 8202,
      "Ġadvent": 8203,
      "Ġrights": 8204,
      "Ġcolour": 8205,
      "Ġputting": 8206,
      "Ġterm": 8207,
      "Ġemptied": 8208,
      "Ġcareless": 8209,
      "washed": 8210,
      "Ġhelped": 8211,
      "Ġtribe": 8212,
      "Ġsmelled": 8213,
      "Ġpatri": 8214,
      "Ġeasier": 8215,
      "Ġarriving": 8216,
      "Ġtraveled": 8217,
      "Ġspreads": 8218,
      "Ġblankets": 8219,
      "rolling": 8220,
      "rolled": 8221,
      "Ã±o": 8222,
      "Ã±os": 8223,
      "Ġdusky": 8224,
      "Ġdeny": 8225,
      "turning": 8226,
      "Ġhunting": 8227,
      "Ġvalleys": 8228,
      "Ġdollar": 8229,
      "Ġcalcul": 8230,
      "Ġdwelling": 8231,
      "Ġbelongs": 8232,
      "Ġrobes": 8233,
      "Ġreplied": 8234,
      "Ġadvance": 8235,
      "Ġarchite": 8236,
      "Ġtelephone": 8237,
      "Ġsplendid": 8238,
      "Ġreflected": 8239,
      "Ġcliffs": 8240,
      "Ġshovel": 8241,
      "Ġlemon": 8242,
      "Ġtiger": 8243,
      "issippi": 8244,
      "App": 8245,
      "Right": 8246,
      "Read": 8247,
      "Said": 8248,
      "Spe": 8249,
      "Te": 8250,
      "ael": 8251,
      "both": 8252,
      "jos": 8253,
      "leness": 8254,
      "ÑĮ": 8255,
      "Ġil": 8256,
      "Ġsine": 8257,
      "Ġsip": 8258,
      "Ġwail": 8259,
      "erable": 8260,
      "Ġmists": 8261,
      "Ġfits": 8262,
      "Ġfug": 8263,
      "itz": 8264,
      "Ġdil": 8265,
      "Ġpod": 8266,
      "Ġgulls": 8267,
      "stick": 8268,
      "Ġridge": 8269,
      "already": 8270,
      "urd": 8271,
      "Ġshimmering": 8272,
      "Ġspi": 8273,
      "ĠWr": 8274,
      "Ġdozen": 8275,
      "Ġleans": 8276,
      "abeth": 8277,
      "Ġtrap": 8278,
      "Ġjet": 8279,
      "Ġjars": 8280,
      "ĠHigh": 8281,
      "Ġscript": 8282,
      "Ġbreathes": 8283,
      "Ġskirts": 8284,
      "Ġexquisite": 8285,
      "Ġquiver": 8286,
      "ully": 8287,
      "ĠJoy": 8288,
      "Ġowned": 8289,
      "ĠInto": 8290,
      "order": 8291,
      "Ġparted": 8292,
      "ĊĠĠĠĠĠĠĠĠĠĠĠĠĠĠĠĠĠĠĠĠĠĠĠĠĠĠĠĠĠĠĠĠĠĠĠĠĠĠĠĠĠĠĠĠĠĠĠĠĠ": 8293,
      "Ġgreatest": 8294,
      "attan": 8295,
      "grand": 8296,
      "Ġterms": 8297,
      "anguage": 8298,
      "Ġcrosses": 8299,
      "Ġhurried": 8300,
      "Ġinstance": 8301,
      "Ġsimpl": 8302,
      "Ġcatching": 8303,
      "Ġbleed": 8304,
      "Ġexpression": 8305,
      "Ġmurdered": 8306,
      "Ġillumin": 8307,
      "Ġbeaten": 8308,
      "Ġgladness": 8309,
      "ological": 8310,
      "Ġshouts": 8311,
      "Ġtemples": 8312,
      "Ġdisappearing": 8313,
      "Ġprepare": 8314,
      "Ġrespons": 8315,
      "Ġinstrument": 8316,
      "Ġintellig": 8317,
      "Ġlifetime": 8318,
      "IC": 8319,
      "IT": 8320,
      "Know": 8321,
      "Please": 8322,
      "Res": 8323,
      "Whether": 8324,
      "aque": 8325,
      "fing": 8326,
      "hr": 8327,
      "hill": 8328,
      "lay": 8329,
      "makes": 8330,
      "ointed": 8331,
      "phe": 8332,
      "yre": 8333,
      "Ġê": 8334,
      "Ġtasted": 8335,
      "inte": 8336,
      "Ġbene": 8337,
      "erate": 8338,
      "Ġful": 8339,
      "Ġcattle": 8340,
      "arily": 8341,
      "anim": 8342,
      "Ġnour": 8343,
      "ĠIV": 8344,
      "Ġrides": 8345,
      "Ġonward": 8346,
      "amos": 8347,
      "Ġrealm": 8348,
      "Ġsparrow": 8349,
      "olk": 8350,
      "ĠMed": 8351,
      "ĠMarch": 8352,
      "Ġbrittle": 8353,
      "Ġbrushed": 8354,
      "rescent": 8355,
      "Ġcannon": 8356,
      "angers": 8357,
      "ooks": 8358,
      "Ġsucked": 8359,
      "Ġpointing": 8360,
      "Ġarise": 8361,
      "ĠPaul": 8362,
      "itty": 8363,
      "whis": 8364,
      "Instead": 8365,
      "neys": 8366,
      "ĠRich": 8367,
      "Ġdishes": 8368,
      "Ġtreas": 8369,
      "Ġblackness": 8370,
      "reading": 8371,
      "retch": 8372,
      "cloth": 8373,
      "Ġmarrow": 8374,
      "Ġdistress": 8375,
      "fruit": 8376,
      "Ġvisions": 8377,
      "ception": 8378,
      "ouncing": 8379,
      "boat": 8380,
      "Ġirre": 8381,
      "Ġintim": 8382,
      "Ġintention": 8383,
      "Ġballoon": 8384,
      "haired": 8385,
      "Ġleaned": 8386,
      "Ġrusted": 8387,
      "Ġprophe": 8388,
      "Ġswiftly": 8389,
      "Ġjeans": 8390,
      "Ġemerge": 8391,
      "Ġthirsty": 8392,
      "Ġstuffed": 8393,
      "Ġpunct": 8394,
      "Ġwolves": 8395,
      "fields": 8396,
      "Ġshooting": 8397,
      "Ġmoths": 8398,
      "Ġprocession": 8399,
      "Ġtorture": 8400,
      "Ġshoots": 8401,
      "Ġlatest": 8402,
      "Ġliberty": 8403,
      "Ġdegrees": 8404,
      "Ġskeleton": 8405,
      "Ġsuggest": 8406,
      "Ġmingled": 8407,
      "Ġinherit": 8408,
      "Ġelegant": 8409,
      "Bring": 8410,
      "Call": 8411,
      "Wind": 8412,
      "avery": 8413,
      "hou": 8414,
      "hum": 8415,
      "human": 8416,
      "live": 8417,
      "lined": 8418,
      "mod": 8419,
      "pin": 8420,
      "squ": 8421,
      "saying": 8422,
      "win": 8423,
      "Ã¦": 8424,
      "Î¹": 8425,
      "ĊĊĠĠĠĠĠ": 8426,
      "Ġsill": 8427,
      "Ġsouthern": 8428,
      "Ġward": 8429,
      "Ġopt": 8430,
      "Ġbalm": 8431,
      "erc": 8432,
      "eries": 8433,
      "aters": 8434,
      "Ġcalend": 8435,
      "Ġnun": 8436,
      "Ġheel": 8437,
      "ador": 8438,
      "Ġstoop": 8439,
      "Ġbeings": 8440,
      "Ġraz": 8441,
      "immed": 8442,
      "ami": 8443,
      "Ġmell": 8444,
      "ila": 8445,
      "Ġsealed": 8446,
      "ĠSy": 8447,
      "ĠSaint": 8448,
      "Ġsped": 8449,
      "rian": 8450,
      "asts": 8451,
      "Ġnostal": 8452,
      "Ġbraz": 8453,
      "Ġunex": 8454,
      "Ġsuf": 8455,
      "urned": 8456,
      "ĠOcean": 8457,
      "Ġmankind": 8458,
      "icker": 8459,
      "ĠLand": 8460,
      "Ġfeeding": 8461,
      "Ġconsequ": 8462,
      "ĠPast": 8463,
      "been": 8464,
      "Ġoverfl": 8465,
      "Ġdraft": 8466,
      "Ġadorn": 8467,
      "Ġadjust": 8468,
      "ĠChicago": 8469,
      "Ġresumes": 8470,
      "Ġkindly": 8471,
      "ĠStates": 8472,
      "gray": 8473,
      "Ġdrives": 8474,
      "Ġreply": 8475,
      "Ġreport": 8476,
      "Ġactual": 8477,
      "Ġdimin": 8478,
      "Ġdivor": 8479,
      "Ġtraveling": 8480,
      "Ġripples": 8481,
      "Ġdrawer": 8482,
      "Ġshrill": 8483,
      "Ġcrowned": 8484,
      "Ġbreezes": 8485,
      "Ġsprink": 8486,
      "Ġafford": 8487,
      "Ġstirs": 8488,
      "Ġsplin": 8489,
      "Ġtorrent": 8490,
      "Looking": 8491,
      "Ġsticky": 8492,
      "ĠFlorida": 8493,
      "Ġsinks": 8494,
      "Ġmotionless": 8495,
      "Ġswells": 8496,
      "Ġswelling": 8497,
      "Ġtumble": 8498,
      "gency": 8499,
      "Ġfamilies": 8500,
      "Ġpierced": 8501,
      "Ġmovies": 8502,
      "Ġhymn": 8503,
      "Ġjewels": 8504,
      "Ġivory": 8505,
      "Ġvideo": 8506,
      "ĠSaturday": 8507,
      "Four": 8508,
      "High": 8509,
      "aits": 8510,
      "sub": 8511,
      "xed": 8512,
      "ÑĪ": 8513,
      "ĠØ": 8514,
      "Ġmaze": 8515,
      "Ġcub": 8516,
      "ithe": 8517,
      "itudes": 8518,
      "Ġlush": 8519,
      "Ġpud": 8520,
      "Ġpens": 8521,
      "Ġnut": 8522,
      "Ġhesit": 8523,
      "stre": 8524,
      "stant": 8525,
      "stretched": 8526,
      "Ġrushes": 8527,
      "Ġriot": 8528,
      "amon": 8529,
      "ooling": 8530,
      "ĠĠĠĊĠĠĠĠĠĠĠ": 8531,
      "Ġshred": 8532,
      "Ġasce": 8533,
      "Ġdevel": 8534,
      "Ġspear": 8535,
      "Ġspake": 8536,
      "ria": 8537,
      "Ġflush": 8538,
      "Ġoranges": 8539,
      "Ġknots": 8540,
      "Ġtramp": 8541,
      "Ġtranqu": 8542,
      "ĠBack": 8543,
      "Ġjun": 8544,
      "Ġjagged": 8545,
      "Ġplague": 8546,
      "igrant": 8547,
      "icken": 8548,
      "ĠTim": 8549,
      "ĠTem": 8550,
      "Ġscree": 8551,
      "Ġscrib": 8552,
      "Ġdownward": 8553,
      "Ġslack": 8554,
      "Ġglistening": 8555,
      "apple": 8556,
      "ĠRoman": 8557,
      "Ġswamp": 8558,
      "onsider": 8559,
      "Ġsniff": 8560,
      "shirt": 8561,
      "dened": 8562,
      "Ġentr": 8563,
      "Ġentrance": 8564,
      "Ġbrighter": 8565,
      "eking": 8566,
      "Ġimpulse": 8567,
      "ymph": 8568,
      "Ġawak": 8569,
      "Ġfolly": 8570,
      "umpled": 8571,
      "ĠAnn": 8572,
      "Ġzone": 8573,
      "Ġdivide": 8574,
      "ponse": 8575,
      "Ġsighing": 8576,
      "woods": 8577,
      "Ġshopping": 8578,
      "ylon": 8579,
      "Ġbriefly": 8580,
      "Ġpossibly": 8581,
      "Ġclutch": 8582,
      "Ġgarments": 8583,
      "Ġvigil": 8584,
      "Ġrhym": 8585,
      "Ġbanner": 8586,
      "Ġhurricane": 8587,
      "Ġinevitable": 8588,
      "Ġlegend": 8589,
      "ï¼Į": 8590,
      "Del": 8591,
      "Part": 8592,
      "gain": 8593,
      "oqu": 8594,
      "post": 8595,
      "pret": 8596,
      "rons": 8597,
      "whe": 8598,
      "whel": 8599,
      "Ġsie": 8600,
      "Ġwren": 8601,
      "rehe": 8602,
      "Ġom": 8603,
      "Ġfences": 8604,
      "Ġcalf": 8605,
      "Ġcelestial": 8606,
      "isies": 8607,
      "Ġdive": 8608,
      "orough": 8609,
      "Ġpours": 8610,
      "Ġinches": 8611,
      "acqu": 8612,
      "alian": 8613,
      "idents": 8614,
      "Ġshirts": 8615,
      "unes": 8616,
      "Ġwashing": 8617,
      "umbs": 8618,
      "ackle": 8619,
      "rial": 8620,
      "riger": 8621,
      "Ġvivid": 8622,
      "abb": 8623,
      "ĠMa": 8624,
      "ĠMin": 8625,
      "ĠMost": 8626,
      "Ġbrace": 8627,
      "Ġjest": 8628,
      "Ġplucked": 8629,
      "feel": 8630,
      "ĠCross": 8631,
      "Ġusually": 8632,
      "ĠGree": 8633,
      "ĠPle": 8634,
      "ĠPlease": 8635,
      "Ġcrisp": 8636,
      "ittered": 8637,
      "Ġexcl": 8638,
      "Ġglows": 8639,
      "Ġpeer": 8640,
      "pering": 8641,
      "Ġperfection": 8642,
      "Ġelbow": 8643,
      "Ã©d": 8644,
      "Ġstarlight": 8645,
      "grace": 8646,
      "Ġdrip": 8647,
      "ocolate": 8648,
      "Ġintimate": 8649,
      "Ġwhiskey": 8650,
      "Ġcatches": 8651,
      "Ġexposed": 8652,
      "Ġhistor": 8653,
      "Ġgroves": 8654,
      "ĠChristian": 8655,
      "Ġfailing": 8656,
      "Ġunfur": 8657,
      "Ġturtle": 8658,
      "Ġshouted": 8659,
      "Ġscreams": 8660,
      "Ġreminded": 8661,
      "Ġheights": 8662,
      "Ġknocked": 8663,
      "Ġhalo": 8664,
      "Ġpursue": 8665,
      "Ġrespond": 8666,
      "Ġmysteries": 8667,
      "Ġexhausted": 8668,
      "Ġbombs": 8669,
      "Ġrapture": 8670,
      "Ġlofty": 8671,
      "Ġpsych": 8672,
      "Ġdrowsy": 8673,
      "Ġcathedral": 8674,
      "Better": 8675,
      "Hear": 8676,
      "Mo": 8677,
      "Ret": 8678,
      "cold": 8679,
      "cret": 8680,
      "ibr": 8681,
      "rate": 8682,
      "same": 8683,
      "sky": 8684,
      "çļ": 8685,
      "ĊĊĠĠĠĠĠĠĠĠ": 8686,
      "ĊĊĠĠĠĠĠĠ": 8687,
      "Ġtape": 8688,
      "hell": 8689,
      "Ġwist": 8690,
      "Ġmatt": 8691,
      "Ġcant": 8692,
      "Ġcement": 8693,
      "anza": 8694,
      "Ġpills": 8695,
      "Ġgap": 8696,
      "Ġya": 8697,
      "Ġrang": 8698,
      "verted": 8699,
      "imming": 8700,
      "Ġreverse": 8701,
      "Ġforces": 8702,
      "Ġdepe": 8703,
      "Ġdebris": 8704,
      "usc": 8705,
      "ĠAutumn": 8706,
      "Ġtraged": 8707,
      "Ġtrunks": 8708,
      "ĠMor": 8709,
      "ĠMal": 8710,
      "Ġgrit": 8711,
      "ĠBible": 8712,
      "ĠBeneath": 8713,
      "ĠHope": 8714,
      "Ġplans": 8715,
      "Ġsuitc": 8716,
      "ĠGet": 8717,
      "Ġseeks": 8718,
      "Ġslap": 8719,
      "Ġgreens": 8720,
      "Ġdeserve": 8721,
      "aited": 8722,
      "Ġthyself": 8723,
      "Ġsounded": 8724,
      "ĊĠĠĠĠĠĠĠĠĠĠĠĠĠĠĠĠĠĠĠĠĠĠĠĠĠĠĠĠĠĠĠĠĠĠĠĠĠĠĠĠĠĠĠĠĠĠĠĠĠĠĠĠĠ": 8725,
      "Ġcounted": 8726,
      "Ġentering": 8727,
      "Ġstopping": 8728,
      "Ġbelieves": 8729,
      "olly": 8730,
      "Ġmelted": 8731,
      "Ġmagaz": 8732,
      "Ġvanishing": 8733,
      "Ġphotos": 8734,
      "Ġnests": 8735,
      "Ġantique": 8736,
      "Ġgathers": 8737,
      "Ġbitterness": 8738,
      "Ġfloods": 8739,
      "falling": 8740,
      "Ġcops": 8741,
      "Ġprophet": 8742,
      "Ġdollars": 8743,
      "uddled": 8744,
      "Ġshelves": 8745,
      "running": 8746,
      "ĠAbout": 8747,
      "ĠAbove": 8748,
      "locked": 8749,
      "Ġbraids": 8750,
      "ĠGeorge": 8751,
      "Ġwhiteness": 8752,
      "aughing": 8753,
      "Ġpolitics": 8754,
      "Ġberries": 8755,
      "Ġnarrative": 8756,
      "amiliar": 8757,
      "Ġgilded": 8758,
      "Ġalphabet": 8759,
      "Off": 8760,
      "Put": 8761,
      "bacco": 8762,
      "dles": 8763,
      "god": 8764,
      "hun": 8765,
      "hattan": 8766,
      "lasting": 8767,
      "six": 8768,
      "tin": 8769,
      "went": 8770,
      "yellow": 8771,
      "ygen": 8772,
      "Ġta": 8773,
      "Ġtaut": 8774,
      "Ġtires": 8775,
      "Ġtales": 8776,
      "Ġwives": 8777,
      "Ġoven": 8778,
      "Ġbond": 8779,
      "erving": 8780,
      "Ġfacing": 8781,
      "atal": 8782,
      "itate": 8783,
      "Ġded": 8784,
      "Ġdiver": 8785,
      "Ġdial": 8786,
      "Ġhind": 8787,
      "eng": 8788,
      "Ġtoast": 8789,
      "Ġtoilet": 8790,
      "asping": 8791,
      "Ġgazed": 8792,
      "âĢĻ.": 8793,
      "aculous": 8794,
      "Ġstun": 8795,
      "Ġstale": 8796,
      "iron": 8797,
      "andering": 8798,
      "Ġliken": 8799,
      "Ġwhirling": 8800,
      "Ġfrog": 8801,
      "Ġframes": 8802,
      "ioned": 8803,
      "ĠSam": 8804,
      "ĠSol": 8805,
      "Ġspilling": 8806,
      "ĠAnt": 8807,
      "ĠApp": 8808,
      "Ġsober": 8809,
      "Ġchur": 8810,
      "ĠWalk": 8811,
      "ulating": 8812,
      "Ġalb": 8813,
      "elle": 8814,
      "Ġusing": 8815,
      "Ġamor": 8816,
      "icht": 8817,
      "ĠDou": 8818,
      "ĠDis": 8819,
      "Ġcru": 8820,
      "Ġexcess": 8821,
      "beams": 8822,
      "Ġquart": 8823,
      "Ġdarkening": 8824,
      "mented": 8825,
      "Ġemperor": 8826,
      "bruary": 8827,
      "Ġhovering": 8828,
      "Ġguests": 8829,
      "Ġmusk": 8830,
      "Ġmuscles": 8831,
      "many": 8832,
      "Ġtalks": 8833,
      "Ġrealized": 8834,
      "Ġcorps": 8835,
      "Ġelev": 8836,
      "ĠShould": 8837,
      "ollo": 8838,
      "Ġverb": 8839,
      "ĠIsland": 8840,
      "Ġsentences": 8841,
      "Ġdivided": 8842,
      "Ġradiance": 8843,
      "Ġpetal": 8844,
      "Ġsailors": 8845,
      "Ġfools": 8846,
      "Ġpotatoes": 8847,
      "ĠEveryone": 8848,
      "Ġrevealed": 8849,
      "Ġnotebook": 8850,
      "Ġgenerations": 8851,
      "Ġdragging": 8852,
      "Ġswaying": 8853,
      "Ġbubbles": 8854,
      "Ġardor": 8855,
      "Ġrejoice": 8856,
      "Ġperpetual": 8857,
      "Ġluxury": 8858,
      "Ġgratitude": 8859,
      "Ġrestaurant": 8860,
      "Having": 8861,
      "Lay": 8862,
      "aire": 8863,
      "dled": 8864,
      "jar": 8865,
      "los": 8866,
      "uv": 8867,
      "inch": 8868,
      "Ġoceans": 8869,
      "Ġbands": 8870,
      "Ġmint": 8871,
      "Ġfake": 8872,
      "Ġcav": 8873,
      "Ġpane": 8874,
      "Ġpounds": 8875,
      "Ġtho": 8876,
      "leaf": 8877,
      "Ġell": 8878,
      "Ġstack": 8879,
      "Ġstains": 8880,
      "Ġrue": 8881,
      "Ġlied": 8882,
      "Ġwhim": 8883,
      "Ġloom": 8884,
      "Ġloaded": 8885,
      "aky": 8886,
      "Ġdol": 8887,
      "ĠMake": 8888,
      "ĠMaster": 8889,
      "Ġbrink": 8890,
      "Ġunless": 8891,
      "Ġclick": 8892,
      "Ġplough": 8893,
      "Ġplunge": 8894,
      "Ġfeared": 8895,
      "Ġconfl": 8896,
      "Ġcommer": 8897,
      "fts": 8898,
      "beautiful": 8899,
      "Ġslaughter": 8900,
      "Ġlonged": 8901,
      "ĠRemember": 8902,
      "Ġemploy": 8903,
      "Ask": 8904,
      "Ġclever": 8905,
      "mered": 8906,
      "Ġfingert": 8907,
      "Ġbrightness": 8908,
      "como": 8909,
      "cover": 8910,
      "Ġclosely": 8911,
      "Ġrefriger": 8912,
      "Ġsubstance": 8913,
      "Ġbarefoot": 8914,
      "Alone": 8915,
      "Ġdevotion": 8916,
      "Ġobvious": 8917,
      "Ġtrembles": 8918,
      "Ġsmoked": 8919,
      "Ġsailor": 8920,
      "Ġescaped": 8921,
      "Ġmuddy": 8922,
      "Ġashamed": 8923,
      "ĊĊĊĊĊĊĊĊ": 8924,
      "ĠWilliam": 8925,
      "anese": 8926,
      "Ġmassive": 8927,
      "passing": 8928,
      "Ġrarely": 8929,
      "Ġcooking": 8930,
      "Ġcomplain": 8931,
      "built": 8932,
      "Except": 8933,
      "erer": 8934,
      "Ġconquer": 8935,
      "Ġivy": 8936,
      "Ġsirens": 8937,
      "Ġbolt": 8938,
      "Ġreleased": 8939,
      "Ġgovernment": 8940,
      "ĠCaptain": 8941,
      ",âĢĻ": 8942,
      "Home": 8943,
      "Making": 8944,
      "fed": 8945,
      "girl": 8946,
      "snow": 8947,
      "wre": 8948,
      "west": 8949,
      "inction": 8950,
      "Ġwitch": 8951,
      "Ġoo": 8952,
      "Ġmaps": 8953,
      "Ġfasc": 8954,
      "Ġhaz": 8955,
      "enance": 8956,
      "anz": 8957,
      "Ġpinned": 8958,
      "Ġtoll": 8959,
      "owl": 8960,
      "owards": 8961,
      "omer": 8962,
      "Ġgin": 8963,
      "Ġgum": 8964,
      "Ġgotten": 8965,
      "learn": 8966,
      "iration": 8967,
      "ala": 8968,
      "kel": 8969,
      "chair": 8970,
      "Ġframed": 8971,
      "ĠSong": 8972,
      "elcome": 8973,
      "Ġspins": 8974,
      "Ġatoms": 8975,
      "Ġleapt": 8976,
      "Thank": 8977,
      "Ġworried": 8978,
      "opping": 8979,
      "olve": 8980,
      "ĠBig": 8981,
      "Ġjam": 8982,
      "ĠCall": 8983,
      "Ġsuits": 8984,
      "ipse": 8985,
      "Ġamer": 8986,
      "Ġscare": 8987,
      "ĠPol": 8988,
      "Ġbackwards": 8989,
      "Ġprick": 8990,
      "ishop": 8991,
      "ĠEden": 8992,
      "text": 8993,
      "Ġench": 8994,
      "Ġpeak": 8995,
      "Ġwanton": 8996,
      "ĠRead": 8997,
      "Ġimpr": 8998,
      "ortion": 8999
    },
    "merges": [
      [
        "Ġ",
        "Ġ"
      ],
      [
        "Ġ",
        "t"
      ],
      [
        "h",
        "e"
      ],
      [
        "i",
        "n"
      ],
      [
        "Ġ",
        "a"
      ],
      [
        "ĠĠ",
        "ĠĠ"
      ],
      [
        "Ġ",
        "s"
      ],
      [
        "Ġt",
        "he"
      ],
      [
        "Ġ",
        "w"
      ],
      [
        "r",
        "e"
      ],
      [
        "Ġ",
        "o"
      ],
      [
        "n",
        "d"
      ],
      [
        "Ġ",
        "b"
      ],
      [
        "o",
        "u"
      ],
      [
        "e",
        "r"
      ],
      [
        "Ġ",
        "m"
      ],
      [
        "in",
        "g"
      ],
      [
        "Ġ",
        "f"
      ],
      [
        "a",
        "t"
      ],
      [
        "Ġ",
        "c"
      ],
      [
        "i",
        "t"
      ],
      [
        "e",
        "s"
      ],
      [
        "i",
        "s"
      ],
      [
        "Ġ",
        "l"
      ],
      [
        "Ġ",
        "d"
      ],
      [
        "e",
        "d"
      ],
      [
        "ĠĠĠĠ",
        "ĠĠĠĠ"
      ],
      [
        "o",
        "n"
      ],
      [
        "Ġ",
        "h"
      ],
      [
        "a",
        "r"
      ],
      [
        "o",
        "r"
      ],
      [
        "e",
        "n"
      ],
      [
        "l",
        "l"
      ],
      [
        "a",
        "n"
      ],
      [
        "Ġ",
        "p"
      ],
      [
        "Ġo",
        "f"
      ],
      [
        "â",
        "Ģ"
      ],
      [
        "Ġt",
        "o"
      ],
      [
        "Ġt",
        "h"
      ],
      [
        "Ġ",
        "in"
      ],
      [
        "a",
        "s"
      ],
      [
        "Ġa",
        "nd"
      ],
      [
        "o",
        "w"
      ],
      [
        "Ġ",
        "n"
      ],
      [
        "o",
        "m"
      ],
      [
        "Ġ",
        "g"
      ],
      [
        "Ġ",
        "I"
      ],
      [
        "l",
        "e"
      ],
      [
        "Ġ",
        "y"
      ],
      [
        "o",
        "t"
      ],
      [
        "g",
        "h"
      ],
      [
        "v",
        "e"
      ],
      [
        "Ġ",
        "he"
      ],
      [
        "Ġ",
        "e"
      ],
      [
        "e",
        "t"
      ],
      [
        "âĢ",
        "Ļ"
      ],
      [
        "a",
        "c"
      ],
      [
        "a",
        "y"
      ],
      [
        "l",
        "d"
      ],
      [
        "u",
        "t"
      ],
      [
        "Ġy",
        "ou"
      ],
      [
        "a",
        "d"
      ],
      [
        "s",
        "t"
      ],
      [
        "i",
        "c"
      ],
      [
        "Ġs",
        "t"
      ],
      [
        "i",
        "r"
      ],
      [
        "Ġb",
        "e"
      ],
      [
        "s",
        "e"
      ],
      [
        "Ġ",
        "r"
      ],
      [
        "Ġo",
        "n"
      ],
      [
        "a",
        "l"
      ],
      [
        "u",
        "r"
      ],
      [
        "i",
        "d"
      ],
      [
        "a",
        "nd"
      ],
      [
        "gh",
        "t"
      ],
      [
        "T",
        "he"
      ],
      [
        "Ġ",
        "it"
      ],
      [
        "k",
        "e"
      ],
      [
        "Ġ",
        "u"
      ],
      [
        "v",
        "er"
      ],
      [
        "Ġl",
        "i"
      ],
      [
        "it",
        "h"
      ],
      [
        "ĠĠĠĠĠĠĠĠ",
        "ĠĠĠĠĠĠĠĠ"
      ],
      [
        "Ġm",
        "y"
      ],
      [
        "Ġ",
        "is"
      ],
      [
        "Ġw",
        "h"
      ],
      [
        "i",
        "m"
      ],
      [
        "a",
        "m"
      ],
      [
        "Ġ",
        "re"
      ],
      [
        "o",
        "o"
      ],
      [
        "Ġw",
        "e"
      ],
      [
        "l",
        "y"
      ],
      [
        "i",
        "ll"
      ],
      [
        "en",
        "t"
      ],
      [
        "Ġm",
        "e"
      ],
      [
        "he",
        "r"
      ],
      [
        "Ġth",
        "at"
      ],
      [
        "t",
        "h"
      ],
      [
        "ĠĠ",
        "Ġ"
      ],
      [
        "Ġw",
        "ith"
      ],
      [
        "Ġf",
        "or"
      ],
      [
        "âĢ",
        "Ķ"
      ],
      [
        "a",
        "ll"
      ],
      [
        "i",
        "l"
      ],
      [
        "a",
        "in"
      ],
      [
        "Ġs",
        "h"
      ],
      [
        "A",
        "nd"
      ],
      [
        "i",
        "ght"
      ],
      [
        "c",
        "h"
      ],
      [
        "Ġs",
        "e"
      ],
      [
        "c",
        "e"
      ],
      [
        "Ġf",
        "r"
      ],
      [
        "i",
        "on"
      ],
      [
        "t",
        "o"
      ],
      [
        "Ġa",
        "s"
      ],
      [
        "u",
        "n"
      ],
      [
        "t",
        "er"
      ],
      [
        "r",
        "o"
      ],
      [
        "Ġa",
        "n"
      ],
      [
        "Ġd",
        "e"
      ],
      [
        "Ġn",
        "ot"
      ],
      [
        "t",
        "he"
      ],
      [
        "Ġ",
        "k"
      ],
      [
        "a",
        "ve"
      ],
      [
        "Ġw",
        "as"
      ],
      [
        "a",
        "p"
      ],
      [
        "o",
        "re"
      ],
      [
        "i",
        "f"
      ],
      [
        "es",
        "s"
      ],
      [
        "om",
        "e"
      ],
      [
        "a",
        "g"
      ],
      [
        "in",
        "d"
      ],
      [
        "Ġb",
        "l"
      ],
      [
        "on",
        "g"
      ],
      [
        "Ġ",
        "S"
      ],
      [
        "Ġh",
        "is"
      ],
      [
        "u",
        "m"
      ],
      [
        "Ġhe",
        "r"
      ],
      [
        "e",
        "l"
      ],
      [
        "Ġs",
        "p"
      ],
      [
        "Ġn",
        "e"
      ],
      [
        "u",
        "s"
      ],
      [
        "ou",
        "ld"
      ],
      [
        "ac",
        "k"
      ],
      [
        "Ġl",
        "o"
      ],
      [
        "Ġfr",
        "om"
      ],
      [
        "on",
        "e"
      ],
      [
        "r",
        "i"
      ],
      [
        "an",
        "t"
      ],
      [
        "Ġ",
        "A"
      ],
      [
        "he",
        "n"
      ],
      [
        "Ġs",
        "o"
      ],
      [
        "r",
        "ou"
      ],
      [
        "Ċ",
        "ĠĠĠĠ"
      ],
      [
        "Ġyou",
        "r"
      ],
      [
        "Ġa",
        "t"
      ],
      [
        "Ġa",
        "ll"
      ],
      [
        "er",
        "s"
      ],
      [
        "as",
        "t"
      ],
      [
        "Ċ",
        "ĠĠĠĠĠĠĠĠ"
      ],
      [
        "a",
        "k"
      ],
      [
        "Ġc",
        "h"
      ],
      [
        "o",
        "d"
      ],
      [
        "Ġ",
        "W"
      ],
      [
        "Ġ",
        "v"
      ],
      [
        "ar",
        "d"
      ],
      [
        "Ġa",
        "re"
      ],
      [
        "e",
        "m"
      ],
      [
        "Ġ",
        "The"
      ],
      [
        "Ġd",
        "o"
      ],
      [
        "e",
        "p"
      ],
      [
        "re",
        "d"
      ],
      [
        "Ġl",
        "e"
      ],
      [
        "Ġf",
        "l"
      ],
      [
        "Ġli",
        "ke"
      ],
      [
        "u",
        "st"
      ],
      [
        "Ġo",
        "r"
      ],
      [
        "ow",
        "n"
      ],
      [
        "T",
        "h"
      ],
      [
        "i",
        "e"
      ],
      [
        "u",
        "l"
      ],
      [
        "Ġth",
        "is"
      ],
      [
        "c",
        "k"
      ],
      [
        "ar",
        "t"
      ],
      [
        "Ġk",
        "n"
      ],
      [
        "q",
        "u"
      ],
      [
        "Ġw",
        "or"
      ],
      [
        "is",
        "t"
      ],
      [
        "a",
        "b"
      ],
      [
        "oo",
        "d"
      ],
      [
        "a",
        "v"
      ],
      [
        "es",
        "t"
      ],
      [
        "o",
        "s"
      ],
      [
        "he",
        "re"
      ],
      [
        "id",
        "e"
      ],
      [
        "Ġt",
        "r"
      ],
      [
        "w",
        "e"
      ],
[...]
